{"vocab": {"protected": 5123, "##hein": 26496, "inversion": 28527, "seat": 2835, "confederates": 24627, "germans": 7074, "\u044a": 1205, "bogota": 21240, "apprenticeship": 20448, "paranoid": 19810, "parties": 4243, "antenna": 13438, "maintains": 9319, "represented": 3421, "supporters": 6793, "##rly": 21194, "assumes": 15980, "zac": 29250, "1724": 26423, "\u9053": 1957, "##nem": 25832, "sleeves": 15114, "birthday": 5798, "capturing": 11847, "##jk": 15992, "sterile": 25403, "furnace": 17533, "chu": 14684, "1765": 20797, "erich": 17513, "denies": 23439, "interests": 5426, "racehorse": 25068, "immigration": 7521, "scissors": 25806, "cruisers": 16722, "[unused979]": 984, "switch": 6942, "[unused711]": 716, "irritation": 17373, "narrated": 17356, "objected": 15959, "hans": 7003, "##uni": 19496, "[unused988]": 993, "acknowledged": 8969, "nude": 15287, "haunt": 24542, "occult": 27906, "davey": 20436, "lieutenant": 3812, "wears": 11651, "daryl": 22514, "ezekiel": 28743, "semi": 4100, "composition": 5512, "directory": 14176, "1654": 27445, "wroc\u0142aw": 25160, "doc": 9986, "industrial": 3919, "slammed": 7549, "cannons": 17138, "##hui": 20552, "fusion": 10077, "superiority": 19113, "lets": 11082, "weakened": 11855, "bern": 16595, "mischief": 25166, "foot": 3329, "leaned": 4016, "##rise": 29346, "go": 2175, "[unused472]": 477, "[unused859]": 864, "##\u20b1": 30103, "bronze": 4421, "painting": 4169, "##ard": 4232, "spray": 12509, "clothes": 4253, "fate": 6580, "cw": 19296, "alright": 10303, "##\u0939": 29875, "cervical": 28711, "stretched": 7121, "alderman": 18977, "\u2018": 1520, "[unused239]": 244, "false": 6270, "strawberry": 16876, "gunter": 27834, "locks": 11223, "credited": 5827, "kyle": 7648, "austen": 24177, "##nik": 8238, "nathan": 7150, "##ulsive": 23004, "##\u0259": 29681, "##\u90e8": 30486, "webb": 10923, "##ths": 26830, "fulfillment": 29362, "##good": 24146, "policing": 21107, "1744": 25846, "buyer": 17634, "prairie": 10996, "spaniards": 20999, "ref": 25416, "boston": 3731, "hospitalized": 24735, "christianity": 7988, "ghetto": 17276, "attributed": 7108, "converse": 23705, "regulator": 21618, "habitat": 6552, "referendum": 9782, "barrels": 13826, "##hyl": 29598, "##cheng": 21043, "1661": 24046, "music": 2189, "ting": 28642, "lotus": 13030, "1890": 6193, "concepts": 8474, "irritated": 15560, "noticing": 15103, "resolved": 10395, "chan": 9212, "line": 2240, "sikh": 17246, "baba": 14208, "relaunched": 26391, "energetic": 18114, "mesopotamia": 25889, "eyeing": 19285, "kimberley": 25004, "##\u2082": 8229, "marta": 18950, "haas": 22996, "##\u571f": 30327, "##vel": 15985, "##ction": 7542, "synthesis": 10752, "##berry": 9766, "photos": 7760, "cartwright": 27513, "##\u02b8": 29710, "##num": 19172, "biennial": 20313, "hangs": 17991, "marxist": 15511, "##play": 13068, "moe": 22078, "torres": 13101, "screw": 11224, "crawled": 12425, "prevented": 8729, "##eiro": 17166, "providing": 4346, "bautista": 27845, "clear": 3154, "illnesses": 24757, "benefited": 19727, "biker": 28988, "advocated": 11886, "tarzan": 24566, "circuits": 13782, "union": 2586, "namely": 8419, "peculiar": 14099, "tre": 29461, "vegas": 7136, "spine": 8560, "accusation": 19238, "premature": 21371, "##lka": 26518, "lions": 7212, "che": 18178, "##ocation": 23909, "303": 19988, "pens": 25636, "cum": 13988, "##eil": 24359, "canadian": 3010, "thriller": 10874, "##\u3055": 30182, "##ganj": 22738, "##kus": 22332, "##anov": 25417, "dh": 28144, "simpson": 9304, "jacques": 7445, "memoirs": 13251, "forceful": 28552, "1742": 25704, "dispatch": 18365, "\u043b": 1190, "john": 2198, "dynamics": 10949, "passes": 5235, "universite": 22176, "1400": 20652, "malayalam": 12998, "coal": 5317, "##dro": 22196, "energies": 19320, "dwelling": 13160, "inquisition": 24638, "##bow": 18912, "backdrop": 18876, "juno": 20788, "para": 11498, "differs": 12980, "senegal": 16028, "rats": 11432, "##uh": 27225, "##dana": 25917, "strategically": 23972, "feared": 8615, "prof": 11268, "lucien": 11732, "tal": 21368, "ravaged": 25537, "vulnerable": 8211, "sentimental": 23069, "rome": 4199, "hereford": 21136, "desired": 9059, "kgb": 25467, "strapped": 18019, "smacked": 19203, "viceroy": 19007, "stimulating": 27295, "##rrigan": 28706, "##ular": 7934, "##tones": 11115, "\u0dba": 1404, "calvin": 11130, "fans": 4599, "jewelry": 11912, "gerald": 9659, "puzzle": 11989, "paradise": 9097, "announces": 17472, "##llet": 22592, "##oked": 23461, "ind": 27427, "[unused58]": 59, "ry": 29431, "##mation": 28649, "accomplishments": 17571, "##cape": 19464, "\u05e4": 1261, "bulletin": 13146, "##bank": 9299, "rainforest": 18951, "montpellier": 28153, "325": 19652, "qualified": 4591, "erotic": 14253, "dictator": 21237, "putnam": 20230, "##uga": 16377, "jaguar": 16490, "##vr": 19716, "alloy": 17564, "trans": 9099, "##58": 27814, "scheduling": 19940, "arresting": 28427, "kissing": 7618, "vocational": 13099, "##emia": 17577, "dialogue": 7982, "soo": 17111, "inside": 2503, "laval": 26205, "permanent": 4568, "cheek": 5048, "muster": 20327, "skills": 4813, "fist": 7345, "fireworks": 16080, "lip": 5423, "burt": 18611, "decent": 11519, "abs": 14689, "jalan": 28410, "british": 2329, "hears": 14994, "##\u03b3": 29721, "between": 2090, "##mite": 23419, "##kot": 23342, "1941": 3874, "[unused213]": 218, "##holes": 19990, "tsunami": 19267, "scattering": 17501, "##yn": 6038, "reforming": 29455, "##lov": 14301, "##rr": 12171, "battleship": 17224, "rights": 2916, "1800": 9807, "[unused531]": 536, "1900s": 16430, "interactions": 10266, "aperture": 18892, "implications": 13494, "wow": 10166, "decoration": 11446, "lullaby": 29149, "##late": 13806, "scorer": 10835, "##\u4e16": 30271, "##tre": 7913, "invited": 4778, "famous": 3297, "immature": 26838, "bp": 17531, "gorgeous": 9882, "##dran": 24914, "hushed": 24033, "well": 2092, "##break": 23890, "enhancing": 20226, "societies": 8384, "##ene": 8625, "godfrey": 18238, "[unused593]": 598, "squirrels": 29384, "streets": 4534, "1966": 3547, "\u10d3": 1441, "levin": 20206, "serial": 7642, "wallet": 15882, "sling": 27076, "[unused360]": 365, "hierarchical": 25835, "1842": 10008, "flirt": 27978, "avengers": 14936, "nh": 18699, "susie": 23917, "reportedly": 7283, "largest": 2922, "daughter": 2684, "choked": 12444, "acres": 4631, "zulu": 27359, "##loe": 26846, "whoever": 9444, "rustling": 29188, "4th": 4343, "patch": 8983, "rediscovered": 26733, "wrinkled": 15968, "\u00f0": 1098, "##xious": 25171, "vida": 19830, "lisbon": 11929, "cooler": 14976, "gaulle": 28724, "announcements": 25674, "serpent": 16517, "luisa": 25412, "locked": 5299, "segments": 9214, "##abad": 10542, "brasil": 21133, "##for": 29278, "nasser": 26099, "acacia": 24766, "estrada": 26482, "ida": 16096, "tyrone": 18770, "profound": 13769, "last": 2197, "dame": 8214, "neglected": 15486, "lodging": 26859, "##ks": 5705, "227": 21489, "turf": 14585, "intention": 6808, "logged": 26618, "sg": 22214, "depicted": 8212, "recording": 3405, "spirit": 4382, "horton": 18469, "watching": 3666, "##lk": 13687, "premio": 23031, "speculated": 15520, "banda": 24112, "chestnut": 15655, "course": 2607, "##nka": 25804, "dora": 21008, "\u05d2": 1243, "\u0f63": 1435, "raced": 8255, "apparel": 26278, "anatomy": 13336, "cubs": 12469, "daze": 28918, "##standing": 24911, "possibility": 6061, "owners": 5608, "blog": 9927, "cigarette": 9907, "youtube": 7858, "noun": 15156, "yank": 23178, "##sos": 17063, "##rca": 18992, "budapest": 10926, "\u793e": 1924, "negotiate": 13676, "##kushima": 24917, "contest": 5049, "ecuador": 10378, "##lke": 28143, "sanford": 21153, "tickets": 9735, "mcdonnell": 23149, "hires": 28208, "scrambling": 25240, "secret": 3595, "##lak": 23451, "diagonal": 19754, "drift": 11852, "##esis": 19009, "frequented": 24832, "creamy": 24519, "wood": 3536, "approach": 3921, "peugeot": 26385, "windshield": 19521, "nanny": 19174, "raiding": 23530, "##\u00df": 19310, "##ode": 10244, "expanse": 22944, "resorts": 16511, "percy": 11312, "participating": 8019, "##garh": 13484, "rejected": 5837, "sven": 21313, "singer": 3220, "gotten": 5407, "81": 6282, "##mers": 16862, "##gible": 18507, "wandered": 13289, "##lab": 20470, "cache": 17053, "nhs": 17237, "tripped": 21129, "micro": 12702, "\u98df": 1978, "pratt": 13208, "##berger": 14859, "barbecue": 26375, "cleopatra": 22003, "spinal": 16492, "houston": 5395, "barbie": 22635, "recounts": 23412, "afghanistan": 7041, "lamb": 12559, "ivory": 11554, "submarine": 6982, "monty": 18446, "remaining": 3588, "##etched": 29574, "miguel": 8374, "stanton": 15845, "top": 2327, "mohammed": 12619, "crawling": 15927, "##ency": 11916, "tracey": 25984, "##pa": 4502, "markus": 23030, "parts": 3033, "##oney": 17791, "injury": 4544, "##\u5f18": 30369, "pained": 22295, "adoption": 9886, "##icides": 22698, "smooth": 5744, "counselor": 17220, "superfamily": 24169, "rebellion": 7417, "blinded": 20641, "ramon": 12716, "glued": 22805, "presidential": 4883, "##iques": 19516, "marginal": 14785, "documented": 8832, "file": 5371, "replace": 5672, "steering": 9602, "helmet": 10412, "narrow": 4867, "[unused917]": 922, "##aia": 27131, "exceptional": 11813, "luigi": 15153, "baths": 19692, "##avian": 21654, "picket": 28972, "chases": 29515, "moaning": 22653, "somebody": 8307, "perfect": 3819, "sergey": 22703, "technician": 16661, "lana": 16554, "\u91ce": 1963, "squat": 26783, "enjoyed": 5632, "flowing": 8577, "##erre": 28849, "uncommon": 13191, "task": 4708, "##lit": 15909, "stresses": 23253, "allison": 10786, "collegiate": 9234, "[unused540]": 545, "\u09af": 1371, "##nin": 11483, "fauna": 15018, "loves": 7459, "illustrates": 24899, "##ailing": 29544, "praising": 15838, "donation": 13445, "waits": 18074, "brant": 29182, "##47": 22610, "accounted": 14729, "[unused165]": 170, "prostate": 25086, "vince": 12159, "##stov": 29473, "partition": 13571, "1773": 19916, "wells": 7051, "conflicting": 19326, "liquid": 6381, "##lysis": 26394, "concentration": 6693, "croatia": 8097, "stil": 25931, "functioning": 12285, "recovery": 7233, "slams": 25967, "\u3081": 1680, "435": 24125, "##rdo": 20683, "swept": 7260, "molded": 27992, "coptic": 27672, "visitors": 5731, "jerked": 8245, "arid": 17511, "equatorial": 21333, "unincorporated": 7754, "##\u0289": 29697, "##ogy": 15707, "barrister": 19805, "decreed": 28447, "meade": 26501, "tornadoes": 22668, "incorrectly": 19721, "##anor": 27869, "cot": 26046, "##ania": 13241, "scholar": 6288, "\u0f66": 1436, "\u6625": 1867, "disappears": 17144, "baseball": 3598, "locus": 25206, "sam": 3520, "bungalow": 27563, "restrain": 28467, "\u00a32": 21853, "alpha": 6541, "pena": 19409, "miracles": 17861, "rotated": 20931, "##sier": 20236, "menon": 25111, "##\u0436": 29743, "oven": 17428, "macarthur": 17719, "parked": 9083, "questionable": 21068, "##oder": 27381, "projected": 11310, "valuable": 7070, "##yya": 19903, "eco": 17338, "garcia": 7439, "frequencies": 13139, "##xie": 16898, "situations": 8146, "##het": 27065, "massacre": 9288, "cassette": 13903, "healer": 19783, "diner": 15736, "251": 22582, "skier": 21294, "age": 2287, "brenda": 15507, "ymca": 26866, "##hoff": 17896, "laurie": 16450, "tv": 2694, "lanterns": 26078, "heavier": 11907, "debating": 20767, "zoology": 22405, "disorders": 10840, "##rted": 17724, "advise": 18012, "ranged": 15844, "ankles": 15392, "entrances": 18084, "\u0438": 1188, "virus": 7865, "debbie": 16391, "maker": 9338, "##\u305f": 30187, "segregated": 24382, "merchant": 6432, "ambitions": 19509, "uber": 19169, "mafia": 13897, "pushed": 3724, "tile": 14090, "##ces": 9623, "carmichael": 23537, "sovereignty": 12601, "perceived": 8690, "australian": 2827, "filmmaking": 24466, "##ali": 11475, "##urus": 20089, "patted": 11930, "\u0294": 1139, "protects": 18227, "uv": 23068, "##ffey": 24513, "transform": 10938, "intern": 25204, "sequel": 8297, "translator": 11403, "\u0f51": 1428, "##\u092e": 29867, "worship": 7425, "minister": 2704, "##music": 27275, "ia": 24264, "stains": 27094, "shelton": 22230, "##mony": 22847, "enjoyable": 22249, "voting": 6830, "##shan": 9688, "amelia": 11556, "kerman": 24500, "benito": 23595, "overlooked": 17092, "##cock": 13959, "##\u9752": 30501, "spiral": 12313, "tossing": 15021, "corporations": 11578, "ingram": 23231, "pv": 26189, "constitutes": 17367, "incidence": 18949, "polished": 12853, "1811": 13086, "nelly": 29498, "pleasantly": 27726, "elusive": 26475, "##27": 22907, "[unused281]": 286, "curls": 14484, "##gc": 18195, "decide": 5630, "boasted": 23390, "cords": 24551, "embroidered": 23590, "incarnation": 15715, "elliot": 11759, "handy": 18801, "requires": 5942, "fairchild": 24258, "pastoral": 13645, "embarrassment": 14325, "photon": 26383, "annually": 6604, "digitally": 18397, "exhaled": 16242, "catholicism": 16138, "##mura": 16069, "warehouse": 9746, "do": 2079, "constitutional": 6543, "##ads": 19303, "philips": 19087, "[unused419]": 424, "possibly": 4298, "vans": 21994, "hui": 17504, "performs": 10438, "infrared": 14611, "escalated": 26814, "heavenly": 16581, "pagan": 14318, "##wald": 11191, "remark": 17674, "##cies": 9243, "##ses": 8583, "mortar": 14335, "wits": 25433, "notebook": 14960, "##ulation": 9513, "genealogy": 26684, "sliced": 15920, "moderator": 29420, "##lland": 26087, "summon": 18654, "enamel": 29484, "smartphone": 26381, "krishna": 10871, "removed": 3718, "larry": 6554, "individuals": 3633, "##raz": 20409, "garde": 14535, "\u65e5": 1864, "sorted": 19616, "rip": 10973, "##ori": 10050, "##economic": 23035, "[unused460]": 465, "films": 3152, "##holder": 14528, "[unused44]": 45, "metropolis": 18236, "darkening": 27862, "[unused717]": 722, "##ie": 2666, "apply": 6611, "scenic": 12916, "relax": 9483, "##sler": 20590, "une": 16655, "extinct": 8548, "petroleum": 11540, "wolverhampton": 20085, "##\u5fd7": 30377, "motown": 22654, "[unused880]": 885, "##ster": 6238, "taluka": 29512, "fully": 3929, "bengal": 8191, "\u1d30": 1492, "boise": 23193, "shake": 6073, "breaking": 4911, "carr": 12385, "aspects": 5919, "toys": 10899, "apollo": 9348, "qatar": 12577, "cartoonist": 19659, "founded": 2631, "contiguous": 25177, "creator": 8543, "tenant": 16713, "halle": 19769, "differences": 5966, "##qa": 19062, "##ched": 7690, "##\u0e2a": 29956, "[unused279]": 284, "courtroom": 20747, "bop": 29432, "\u5f73": 1845, "recommends": 26021, "barbara": 6437, "thorpe": 20249, "winkler": 20472, "marker": 12115, "fellow": 3507, "consecutive": 5486, "portugal": 5978, "destroyers": 13242, "midfield": 23071, "prizes": 11580, "finds": 4858, "maynard": 22130, "##ifying": 11787, "novak": 19580, "providers": 11670, "headed": 3753, "paragraph": 20423, "1856": 8708, "landfall": 21042, "neuroscience": 23700, "qualifications": 15644, "##\u2500": 30142, "amir": 18904, "usa": 3915, "jin": 9743, "abstract": 10061, "plain": 5810, "802": 23908, "finishing": 5131, "##iful": 18424, "employs": 13495, "##git": 23806, "[unused38]": 39, "leone": 13363, "##cie": 23402, "objection": 22224, "poisoning": 16149, "##8": 2620, "##shaft": 25679, "bukit": 29007, "##on": 2239, "crude": 13587, "specialist": 8325, "\u043a": 1189, "\u06be": 1307, "73": 6421, "rachel": 5586, "hatch": 11300, "##strom": 15687, "\u3066": 1665, "footballer": 4362, "280": 13427, "pushing": 6183, "##igen": 29206, "disaster": 7071, "bel": 19337, "niger": 16842, "topping": 22286, "murder": 4028, "\u91d1": 1964, "##wg": 27767, "##ely": 26006, "wellington": 8409, "##landa": 24448, "##mond": 11442, "##\u203a": 30068, "[unused268]": 273, "##tructing": 26310, "breaststroke": 28164, "##bilis": 27965, "##urn": 14287, "1709": 28955, "pits": 14496, "bison": 22285, "sunderland": 15518, "vamp": 20279, "off": 2125, "prescribed": 16250, "foothills": 18455, "##\u898b": 30474, "recoil": 27429, "contrasting": 22133, "beaches": 12212, "endemic": 7320, "##pee": 28084, "insulting": 23979, "number": 2193, "[unused436]": 441, "dale": 8512, "translate": 17637, "sealing": 23038, "##\u2113": 30105, "wooded": 17172, "icon": 12696, "multinational": 20584, "nassau": 14646, "##\u306f": 30198, "brent": 12895, "achieving": 10910, "implements": 22164, "nashville": 8423, "zhang": 9327, "multimedia": 14959, "engage": 8526, "##weig": 27204, "stopped": 3030, "##anta": 26802, "tuscany": 23322, "aimee": 23551, "1580": 28278, "nad": 23233, "/": 1013, "evaluate": 16157, "exhaust": 15095, "##vity": 24872, "remixes": 15193, "##ible": 7028, "cuckoo": 29010, "shack": 22200, "ups": 11139, "arden": 26225, "sa": 7842, "ridden": 15230, "\u00a3": 1069, "affiliated": 6989, "##rial": 14482, "stilled": 22791, "jolly": 22193, "mirrored": 22243, "##\u8449": 30469, "mia": 8764, "confederate": 8055, "swimming": 5742, "##\u72ac": 30434, "ob": 27885, "model": 2944, "beatles": 11555, "endowment": 15108, "\u5802": 1805, "##peed": 25599, "rosalie": 29564, "difference": 4489, "##hea": 20192, "oboe": 22523, "ambition": 16290, "rapid": 5915, "inhibitor": 24054, "meadow": 13244, "##erly": 12561, "reviews": 4391, "sinister": 16491, "conspicuous": 19194, "wrapping": 12252, "demos": 18267, "fuels": 20145, "request": 5227, "craft": 7477, "\u590f": 1808, "hesitated": 9369, "october": 2255, "unable": 4039, "kingdoms": 12028, "acquaintance": 18363, "episcopal": 9134, "[unused295]": 300, "softball": 12585, "##inal": 13290, "eli": 12005, "edmond": 21773, "sometimes": 2823, "portfolio": 11103, "home": 2188, "1777": 16144, "ordering": 13063, "compositions": 9265, "locke": 18343, "academie": 19669, "dublin": 5772, "##raph": 24342, "exchanges": 15800, "robson": 23698, "danger": 5473, "[unused50]": 51, "\u0f0d": 1425, "##rsk": 27472, "nirvana": 26530, "##ong": 5063, "alberta": 7649, "heavens": 17223, "[unused627]": 632, "excavated": 15199, "light": 2422, "processing": 6364, "ceilings": 21098, "bore": 8501, "shared": 4207, "114": 12457, "patriot": 16419, "ancestry": 11377, "mule": 20568, "dina": 26146, "vidhan": 28590, "##ings": 8613, "\u02e3": 1153, "cruelty": 18186, "labels": 10873, "founding": 4889, "##tos": 13122, "snarled": 15022, "assessments": 20794, "message": 4471, "shelley": 15828, "deng": 26957, "geneva": 9810, "##ft": 6199, "photo": 6302, "1812": 9842, "reversal": 23163, "##\u099a": 29892, "267": 25491, "such": 2107, "mood": 6888, "methods": 4725, "colossal": 29523, "##tooth": 19392, "##type": 13874, "receiving": 4909, "\u028a": 1132, "belgrade": 10291, "haley": 16624, "swirled": 19171, "manually": 21118, "iberian": 21988, "soaking": 22721, "spawn": 25645, "##rain": 21166, "##yoshi": 19196, "sung": 7042, "chuckle": 15375, "carriers": 11363, "##chia": 20881, "oswald": 17411, "gives": 3957, "fires": 8769, "articles": 4790, "grace": 4519, "sl": 22889, "##\u0dcf": 29944, "##nova": 13455, "##life": 15509, "competence": 22219, "casualty": 19844, "vocals": 2955, "rosy": 26851, "##eros": 27360, "##os": 2891, "walter": 4787, "offspring": 13195, "sides": 3903, "##us": 2271, "##efe": 27235, "##lta": 24458, "indigenous": 6284, "bizarre": 13576, "sculptor": 10160, "luna": 12909, "##re": 2890, "sacred": 6730, "condemnation": 26248, "##hra": 13492, "mimic": 23150, "bertram": 27515, "mallory": 20468, "cameron": 7232, "hurley": 25124, "compression": 13379, "##zow": 22670, "##burn": 8022, "outburst": 27719, "residential": 5647, "fastest": 7915, "pristine": 27375, "##ale": 9453, "receive": 4374, "directional": 20396, "19th": 3708, "apache": 15895, "transactions": 11817, "kirby": 15129, "moscow": 4924, "saliva": 26308, "slim": 11754, "stark": 9762, "[unused124]": 129, "##ested": 17944, "orthodox": 6244, "contamination": 18701, "kara": 13173, "##dilly": 28832, "[unused100]": 105, "##\u0f62": 29970, "witness": 7409, "sails": 17553, "consequence": 9509, "boost": 12992, "rarely": 6524, "##rys": 24769, "neutrality": 21083, "hawke": 24882, "neighboring": 8581, "##rock": 16901, "lands": 4915, "jessica": 8201, "swamps": 22722, "##wich": 12414, "##iot": 25185, "psychological": 8317, "##dice": 24598, "emptiness": 23397, "came": 2234, "preferring": 21393, "[unused664]": 669, "hissed": 11402, "##tom": 20389, "campeonato": 17675, "along": 2247, "1989": 2960, "snatch": 23365, "overboard": 27089, "fledgling": 25954, "beyond": 3458, "##ia": 2401, "##aga": 16098, "wonderland": 20365, "##vina": 17948, "##psy": 18075, "rebirth": 22785, "considerably": 9839, "stirling": 15597, "sentence": 6251, "##\u1d62": 19109, "narration": 21283, "climate": 4785, "bark": 11286, "##\u2666": 30153, "pubs": 23598, "anthropologist": 21571, "##ric": 7277, "sweeney": 21178, "somewhat": 5399, "##onne": 18256, "missiles": 10815, "##med": 7583, "empires": 23560, "banner": 9484, "ahead": 3805, "duncan": 7343, "[unused750]": 755, "peerage": 18760, "##tray": 28473, "gazed": 11114, "index": 5950, "kwan": 27741, "famously": 18172, "conducted": 4146, "wolfe": 14212, "felix": 8383, "##uld": 21285, "cocky": 24995, "sarcastic": 22473, "least": 2560, "265": 20549, "weimar": 20695, "snooker": 26448, "dripped": 22526, "population": 2313, "robes": 17925, "pollard": 25513, "active": 3161, "##3d": 29097, "sigh": 6682, "ecological": 12231, "##rd": 4103, "workshops": 9656, "\u0997": 1355, "\u2088": 1555, "brooks": 8379, "pitcher": 8070, "ideas": 4784, "\u798f": 1926, "publishes": 12466, "wta": 21925, "council": 2473, "##uca": 18100, "freshman": 10452, "cl": 18856, "fallout": 23902, "slamming": 15209, "##oki": 23212, "##oya": 18232, "cairns": 21731, "legitimacy": 22568, "walker": 5232, "lexie": 24123, "standings": 11869, "precious": 9062, "munitions": 21061, "veterinary": 15651, "croydon": 21838, "\u307e": 1677, "[unused487]": 492, "impoverished": 25488, "act": 2552, "derives": 12153, "former": 2280, "accord": 15802, "88": 6070, "treats": 18452, "trees": 3628, "[unused927]": 932, "burma": 11050, "volcano": 12779, "shell": 5806, "diet": 8738, "##cheon": 28099, "roma": 12836, "master": 3040, "##l": 2140, "##ises": 13087, "huddersfield": 19715, "##eit": 20175, "sighting": 29426, "bohemia": 16799, "redundant": 21707, "##iche": 17322, "boiling": 16018, "people": 2111, "maize": 21154, "##uses": 25581, "vigor": 24474, "review": 3319, "22nd": 13816, "deportation": 23702, "alliance": 4707, "piercing": 14628, "targets": 7889, "accolades": 27447, "dragons": 8626, "1755": 21417, "##ricted": 20623, "##\u05e9": 29812, "##cut": 12690, "horne": 24084, "two": 2048, "taboo": 27505, "avatar": 22128, "##iling": 16281, "##nian": 11148, "prasad": 17476, "##lative": 26255, "earnings": 16565, "contribution": 6691, "leaped": 16900, "##elling": 23918, "horse": 3586, "stats": 26319, "realize": 5382, "special": 2569, "markedly": 29295, "##nai": 26416, "\u2191": 1584, "hairs": 13606, "tactical": 8608, "lobes": 24423, "next": 2279, "director": 2472, "##\u0431": 29740, "rage": 7385, "146": 16333, "##omic": 22026, "competitive": 6975, "1817": 12529, "clinging": 17892, "practicing": 12560, "performer": 9256, "researchers": 6950, "##eger": 26320, "flourished": 17893, "airbus": 20901, "fenton": 27096, "displaced": 12936, "##\u0646": 15915, "autonomous": 8392, "##rada": 28510, "deprived": 17676, "[unused492]": 497, "##elo": 18349, "##\u1162": 30007, "paradigm": 20680, "vila": 23840, "guerre": 24613, "carlos": 5828, "##nous": 18674, "\u10e1": 1452, "]": 1033, "##zzled": 17269, "fed": 7349, "stumbling": 19730, "corp": 13058, "factual": 25854, "coping": 27520, "accumulate": 27598, "texted": 24637, "patti": 22732, "\u30e7": 1730, "##\u0e1e": 29950, "ol": 19330, "huffington": 26149, "maximilian": 18838, "pretty": 3492, "passed": 2979, "##\u0570": 29775, "alba": 18255, "eliza": 13234, "shaved": 20665, "canal": 5033, "poisonous": 22641, "nuremberg": 19346, "ked": 16135, "decker": 20946, "private": 2797, "\u11a8": 1484, "tomorrow": 4826, "surfaces": 9972, "certificates": 17987, "##dar": 7662, "walking": 3788, "daemon": 12828, "mika": 27857, "invested": 11241, "##gens": 21230, "lateral": 11457, "##90": 21057, "##selle": 19358, "refugee": 13141, "our": 2256, "hooves": 28399, "\u10d8": 1445, "317": 26628, "additive": 29167, "charm": 11084, "[unused665]": 670, "fleeting": 25085, "mild": 10256, "compensated": 29258, "conceded": 15848, "slaughtered": 23044, "\u30a7": 1697, "mass": 3742, "citadel": 15364, "wang": 7418, "##ivation": 25761, "##camp": 26468, "##vira": 24093, "##ares": 17933, "##\u0584": 29786, "drum": 6943, "helmut": 24515, "rags": 26346, "contacted": 11925, "psalms": 26130, "\u8857": 1946, "servicemen": 26714, "aquatic": 13582, "advisers": 24205, "definite": 15298, "illustrations": 11249, "inland": 9514, "##itation": 18557, "floors": 8158, "marina": 9985, "colombo": 16224, "laborers": 23428, "reporters": 12060, "face": 2227, "lausanne": 22256, "stupid": 5236, "tia": 27339, "refueling": 23026, "[unused334]": 339, "to": 2000, "##ement": 13665, "sniper": 17515, "##xton": 14226, "vegetables": 11546, "historians": 7862, "\uff0d": 1990, "chevrolet": 14724, "##base": 15058, "1972": 3285, "karma": 19902, "privately": 9139, "pablo": 11623, "michael": 2745, "wine": 4511, "[unused271]": 276, "drying": 17462, "##bner": 29388, "logic": 7961, "hector": 10590, "demand": 5157, "chennai": 12249, "hybrid": 8893, "czechoslovak": 21282, "1947": 4006, "creditors": 23112, "neurological": 23130, "[unused730]": 735, "chickens": 21868, "undermine": 25174, "snuggled": 26867, "mcleod": 25363, "uno": 27776, "decreased": 10548, "bruno": 10391, "avila": 29079, "jong": 18528, "beasts": 15109, "##gara": 24864, "karlsruhe": 26660, "deal": 3066, "utmost": 27917, "booths": 27612, "pillar": 14809, "adorable": 23677, "##birds": 12887, "ezra": 16245, "adds": 9909, "staffed": 21121, "1718": 26995, "polish": 3907, "306": 24622, "cotton": 6557, "ely": 20779, "infant": 10527, "moving": 3048, "heavily": 4600, "appalled": 29279, "marquis": 13410, "selecting": 17739, "bowing": 26690, "boredom": 29556, "meat": 6240, "influence": 3747, "exterior": 8829, "clutch": 15357, "joints": 17651, "plush": 27729, "repair": 7192, "defect": 21262, "buddy": 8937, "accused": 5496, "[unused10]": 11, "oh": 2821, "echoing": 17142, "kirk": 11332, "genesis": 11046, "fueled": 17999, "motif": 16226, "regiments": 10435, "confession": 12633, "\u2081": 1548, "[unused258]": 263, "pondered": 28347, "compassion": 15398, "##zbek": 28733, "layla": 19786, "unanimous": 13604, "restrict": 21573, "odds": 10238, "dvd": 4966, "gifts": 9604, "vinci": 23765, "fetch": 18584, "1881": 7005, "##lais": 28704, "safety": 3808, "glaring": 16124, "\u05d5": 1246, "thoughtful": 16465, "maid": 10850, "electronics": 8139, "gangs": 18542, "existence": 4598, "testament": 9025, "siege": 6859, "##nberger": 28825, "##\u300b": 30166, "slayer": 20005, "invented": 8826, "##uddin": 17375, "utilize": 16462, "##\u0997": 29891, "caretaker": 17600, "creaked": 28068, "\u09bf": 1379, "musician": 5455, "playable": 16854, "moons": 23377, "separate": 3584, "tex": 16060, "##tated": 16238, "##ta": 2696, "[unused217]": 222, "skaters": 24789, "poison": 9947, "##pro": 21572, "##mill": 19912, "##nad": 25389, "becoming": 3352, "deception": 17575, "antagonist": 17379, "integrate": 17409, "billie": 18210, "sarajevo": 18354, "1962": 3705, "\u1d57": 1505, "gould": 14913, "friends": 2814, "reunited": 11653, "##jou": 23099, "5th": 4833, "\u05e1": 1258, "107": 10550, "profession": 9518, "##tson": 25656, "[unused82]": 83, "##$": 29615, "lombard": 23441, "1786": 17436, "##\u2032": 30066, "stalled": 20659, "pitt": 15091, "reza": 26323, "barclay": 23724, "abandon": 10824, "\u03c8": 1178, "lowered": 6668, "polynomials": 28175, "broker": 20138, "##vo": 6767, "virgin": 6261, "rural": 3541, "\u1100": 1455, "##uno": 27819, "##otide": 26601, "supreme": 4259, "startled": 9696, "##gur": 27390, "##harat": 28074, "musicians": 5389, "defective": 28829, "##arium": 17285, "misunderstanding": 24216, "nutrition": 14266, "\u0928": 1327, "##lithic": 28508, "weddings": 20429, "gentle": 7132, "bharatiya": 24243, "##culus": 28703, "custom": 7661, "##xing": 19612, "total": 2561, "lunar": 11926, "##dos": 12269, "##\u05de": 29801, "pulp": 16016, "\u2092": 1562, "\u00ba": 1089, "##icus": 14239, "independent": 2981, "redskins": 17461, "spectator": 21027, "remarks": 12629, "deco": 21933, "##oven": 25592, "patting": 26085, "prepare": 7374, "prosperity": 14165, "##cre": 16748, "kathleen": 14559, "crafts": 14030, "settings": 10906, "mfa": 26913, "##ncia": 22750, "raphael": 12551, "balloon": 13212, "buildings": 3121, "##rlin": 19403, "gleamed": 25224, "presidents": 11274, "accents": 24947, "mcgill": 17919, "cushions": 27205, "##sch": 11624, "unconstitutional": 20454, "boeing": 10321, "longitude": 20413, "scroll": 17186, "documenting": 23138, "saturday": 5095, "##\u00b7": 29661, "diploma": 9827, "##asi": 21369, "bordered": 11356, "verse": 7893, "hume": 20368, "weightlifting": 29305, "clears": 28837, "inverness": 22937, "[unused869]": 874, "contradictory": 27894, "##walker": 26965, "larsen": 20094, "philharmonic": 12355, "##\u20a9": 30101, "liechtenstein": 26500, "mumbled": 11567, "##ragan": 28905, "farmhouse": 16870, "dinner": 4596, "##\u0ba4": 29921, "shelter": 7713, "instability": 18549, "nominal": 15087, "withdrawn": 9633, "reservation": 11079, "phillies": 15711, "##\u1175": 30019, "##urrent": 29264, "##jak": 18317, "santa": 4203, "gb": 16351, "macleod": 23075, "mickey": 11021, "stated": 3090, "fooled": 25857, "explosion": 7738, "jupiter": 13035, "edwin": 10049, "lowering": 13845, "116": 12904, "influx": 18050, "goals": 3289, "destroyer": 9799, "pre": 3653, "phosphate": 17344, "[unused134]": 139, "paintings": 5265, "##talk": 28014, "cunning": 23626, "pixels": 27725, "admire": 19837, "##ital": 18400, "##enter": 29110, "international": 2248, "francoise": 28979, "achilles": 23167, "junction": 5098, "##ometric": 28993, "cooled": 12981, "bf": 28939, "anyone": 3087, "##dong": 17679, "##lga": 27887, "321": 24030, "radio": 2557, "ribbons": 22688, "supper": 15264, "closes": 14572, "unidentified": 20293, "duff": 21019, "##lake": 14530, "ii": 2462, "cloudy": 24706, "navigation": 9163, "pow": 23776, "##gate": 5867, "[unused313]": 318, "street": 2395, "##wark": 24298, "drama": 3689, "##ulously": 21227, "immune": 11311, "refusing": 11193, "approve": 14300, "utilizing": 16911, "swiss": 5364, "##roving": 22046, "##\u0bb3": 29929, "pau": 29025, "bob": 3960, "540": 20263, "terrific": 27547, "tbs": 29584, "threatening": 8701, "improper": 24156, "lakers": 18264, "judiciary": 14814, "##dial": 27184, "purge": 24694, "292": 25797, "disrupted": 20275, "havoc": 22156, "astronomy": 12799, "100": 2531, "##wire": 20357, "chemotherapy": 27144, "\u1d52": 1503, "financing": 12135, "category": 4696, "superliga": 25922, "hat": 6045, "disciplines": 12736, "\u307b": 1676, "lakshmi": 21352, "##ooping": 29046, "nitrate": 29607, "##\u1d56": 30040, "potatoes": 14629, "shropshire": 19322, "alleviate": 24251, "southeastern": 8252, "narratives": 22143, "bud": 13007, "baird": 20866, "\u3059": 1658, "seymour": 13254, "farrell": 16248, "establishment": 5069, "mayoral": 23578, "1749": 24704, "investing": 19920, "##\u2193": 30114, "cathedral": 5040, "beaufort": 23622, "waterfront": 16317, "entrepreneur": 10670, "##\u05e0": 29803, "covered": 3139, "ferry": 7115, "statue": 6231, "tape": 6823, "coyotes": 26880, "clement": 12223, "##\u5fc4": 30376, "##amine": 19915, "downloadable": 26720, "franz": 8965, "mary": 2984, "upright": 10051, "warnings": 16234, "nowhere": 7880, "symbol": 6454, "illumination": 21203, "enhanced": 9412, "memoir": 12558, "conducting": 9283, "muscles": 6650, "montgomery": 8482, "robber": 27307, "\u00b0c": 6362, "births": 18250, "\u8c37": 1951, "orson": 25026, "guardian": 6697, "atm": 27218, "vaulted": 24616, "decor": 25545, "drought": 14734, "parallels": 18588, "iraqi": 8956, "graders": 23256, "fungal": 28079, "hopping": 26397, "protesting": 21248, "##suit": 28880, "##ssar": 25556, "mill": 4971, "##lves": 20899, "iihf": 26904, "stinging": 22748, "psychotic": 27756, "milky": 21582, "sack": 12803, "fountain": 9545, "amp": 23713, "\u30ce": 1717, "##ska": 8337, "##fp": 22540, "##rika": 23778, "missing": 4394, "##ogo": 22844, "1653": 29309, "powers": 4204, "dew": 24903, "sprawled": 21212, "wavelengths": 29263, "imagining": 16603, "extremes": 28800, "forte": 24898, "burgess": 17754, "titled": 4159, "faces": 5344, "not": 2025, "disappointing": 15640, "[unused457]": 462, "##ena": 8189, "bedside": 19475, "##nish": 24014, "[unused650]": 655, "sensual": 18753, "1876": 7326, "trivial": 20610, "##quitable": 28298, "attacks": 4491, "montenegrin": 24099, "##wny": 22251, "siam": 25583, "evolving": 20607, "canals": 17263, "yanked": 10963, "##otic": 20214, "91": 6205, "boxing": 8362, "imperialism": 28087, "noodles": 27130, "sensor": 13617, "##vis": 11365, "squadron": 3704, "sticky": 15875, "bruise": 24851, "forearm": 16148, "fifteen": 5417, "##zak": 20685, "pac": 14397, "cook": 5660, "dusseldorf": 18160, "\u05d8": 1249, "##tera": 14621, "bologna": 14102, "venetian": 15510, "##eux": 20860, "##ier": 3771, "kinds": 7957, "conversely": 18868, "riders": 8195, "sloop": 24786, "chargers": 18649, "postgraduate": 15438, "inhabitants": 4864, "chatter": 24691, "series": 2186, "mattered": 13836, "airlift": 20019, "##lese": 24527, "vows": 16495, "condition": 4650, "pilasters": 26752, "##gent": 11461, "relating": 8800, "caucus": 13965, "humphrey": 15462, "waist": 5808, "thou": 15223, "slapping": 22021, "appropriated": 29223, "##lberg": 22927, "##\u702c": 30431, "amore": 26297, "##ggs": 21314, "domes": 26193, "\u209b": 1570, "##stones": 29423, "amassed": 22151, "\u30bb": 1708, "practical": 6742, "stain": 21101, "emerald": 14110, "stephane": 26624, "antiquities": 21387, "hanson": 17179, "survival": 7691, "auguste": 20758, "[unused270]": 275, "##\u793a": 30449, "sadler": 29012, "swallows": 26436, "omaha": 12864, "[unused708]": 713, "claiming": 6815, "##dick": 24066, "##erina": 26052, "toured": 7255, "monstrous": 21668, "sea": 2712, "alcoholic": 14813, "##hedron": 26440, "##pi": 8197, "neighbor": 11429, "cosmetic": 25536, "chuckles": 26088, "cara": 14418, "reset": 25141, "surrounds": 20626, "mc": 11338, "##entation": 19304, "compressor": 29329, "crossover": 16335, "items": 5167, "##\u044c": 23742, "##xed": 19068, "bothered": 11250, "biomass": 28148, "210": 12875, "facilitating": 25505, "roe": 20944, "crisis": 5325, "##dict": 29201, "[unused615]": 620, "liability": 14000, "##nidae": 29135, "##\u1da0": 30047, "equivalence": 27841, "pet": 9004, "wurttemberg": 16346, "##washed": 27283, "viral": 13434, "kenton": 25446, "warrant": 10943, "naturally": 8100, "rex": 10151, "etymology": 26803, "mustafa": 19683, "##ister": 12911, "discoveries": 15636, "\u0632": 1281, "seals": 13945, "spike": 9997, "identities": 15702, "romantic": 6298, "custody": 9968, "below": 2917, "blessings": 24618, "##\u116e": 30014, "1646": 28783, "##rb": 15185, "rugby": 4043, "##ils": 12146, "\u0449": 1204, "belonged": 6272, "familiar": 5220, "\uff0f": 1992, "supposedly": 10743, "freeze": 13184, "[unused403]": 408, "uniformed": 25189, "\u5065": 1768, "unlikely": 9832, "##isance": 28138, "marine": 3884, "reds": 12281, "hungarians": 24027, "certain": 3056, "castro": 11794, "lai": 21110, "milling": 22491, "1739": 25801, "morocco": 9835, "\u03bc": 1166, "swelling": 18348, "##ns": 3619, "##tin": 7629, "right": 2157, "burnley": 23028, "sitting": 3564, "murray": 6264, "played": 2209, "companies": 3316, "church": 2277, "constituted": 11846, "assessment": 7667, "\u05db": 1252, "authentic": 14469, "sugarcane": 28910, "talked": 5720, "intimidated": 28028, "##\u044b": 29113, "[unused267]": 272, "sf": 16420, "[unused872]": 877, "generated": 7013, "fragments": 10341, "[unused952]": 957, "boots": 6879, "##itating": 16518, "##iad": 28665, "##\u09b7": 29911, "metabolism": 18089, "academic": 3834, "##sl": 14540, "forster": 21316, "medicinal": 20632, "bending": 14457, "dusk": 18406, "recorded": 2680, "foam": 17952, "inaugurated": 11070, "[unused689]": 694, "##iy": 28008, "##\u30e9": 30257, "[unused490]": 495, "whitehead": 23257, "malawi": 18137, "strings": 7817, "wikipedia": 16948, "alice": 5650, "##rank": 26763, "deemed": 8357, "westminster": 9434, "##eon": 10242, "##egorical": 27203, "1711": 28455, "##cter": 21162, "tempo": 13657, "confronting": 26964, "assets": 7045, "##\u5e74": 30366, "innocence": 12660, "flames": 7311, "battles": 7465, "outta": 24955, "perth": 9300, "emergence": 14053, "titan": 16537, "##mate": 8585, "\u0bbf": 1396, "##bill": 24457, "##gingly": 28392, "hollis": 27477, "crippled": 24433, "crystals": 14438, "lax": 27327, "##hosis": 25229, "##psis": 18409, "##\u2030": 30065, "notably": 5546, "persian": 4723, "christchurch": 15880, "yarmouth": 28792, "mac": 6097, "immortal": 12147, "1699": 28718, "kiran": 22403, "hubbard": 16580, "rubbish": 29132, "generations": 8213, "anguish": 21782, "##\u5065": 30294, "gdp": 14230, "[unused28]": 29, "[unused673]": 678, "##lence": 22717, "##\u68ee": 30408, "concourse": 28571, "economics": 5543, "malcolm": 8861, "keepers": 24018, "pyramid": 11918, "milton": 9660, "\u5fb7": 1848, "253": 23254, "synagogue": 13067, "biennale": 21140, "freelance": 15919, "ache": 12336, "223": 20802, "choking": 18329, "\u6238": 1857, "leapt": 13920, "comedic": 21699, "[unused450]": 455, "##ition": 22753, "##tized": 23355, "warmer": 16676, "customized": 28749, "vested": 26003, "##dock": 14647, "##ure": 5397, "waistband": 27553, "\u1d63": 1508, "sequential": 25582, "maximum": 4555, "minnesota": 5135, "[SEP]": 102, "sera": 26358, "\u0569": 1224, "votes": 4494, "##routed": 25849, "##\u1d65": 30045, "jonah": 15617, "entirely": 4498, "shrewsbury": 18174, "##lham": 25968, "analysis": 4106, "[unused392]": 397, "##wei": 19845, "##ean": 11219, "confederacy": 18179, "##vet": 19510, "##cki": 18009, "[unused300]": 305, "amar": 23204, "difficulty": 7669, "melinda": 23721, "\u0965": 1345, "vaguely": 15221, "##cci": 14693, "mark": 2928, "[unused20]": 21, "cyber": 16941, "apples": 18108, "gal": 14891, "lance": 9993, "[unused608]": 613, "polo": 11037, "##meister": 28824, "invaded": 10836, "hearings": 19153, "##ntes": 17340, "fatally": 26292, "cao": 12966, "attend": 5463, "hardness": 23608, "intercity": 20651, "firth": 25138, "matrices": 21520, "waldo": 28806, "plea": 14865, "conductor": 7589, "discouraged": 22585, "storms": 12642, "##rrard": 29599, "implementing": 14972, "asleep": 6680, "drugs": 5850, "vedic": 25824, "##phi": 21850, "foliage": 19624, "##ston": 7106, "delicious": 12090, "nation": 3842, "67": 6163, "laurent": 14718, "factions": 13815, "blindness": 26290, "1826": 11931, "straps": 19702, "shape": 4338, "uci": 14504, "philippe": 11169, "beaumont": 16210, "through": 2083, "[unused338]": 343, "marcelo": 24984, "industrialist": 21691, "\u5143": 1769, "reactor": 13308, "##\u300d": 30168, "so": 2061, "innovations": 15463, "ammunition": 9290, "spotted": 7282, "commissions": 13239, "inconsistent": 20316, "minnie": 26188, "conviction": 10652, "transparency": 16987, "display": 4653, "neither": 4445, "outbreak": 8293, "kingdom": 2983, "championed": 28683, "pontiac": 24538, "physician": 7522, "bring": 3288, "fury": 8111, "shelf": 11142, "1995": 2786, "grabbing": 9775, "pomeranian": 17717, "cane": 11942, "academics": 15032, "##logical": 9966, "scholarship": 6566, "203": 18540, "suv": 15620, "hollow": 8892, "tourism": 6813, "coronation": 12773, "##ropolis": 23248, "zachary": 19474, "philosopher": 9667, "using": 2478, "hunan": 27374, "vickers": 18571, "padres": 21577, "##oll": 14511, "\u0261": 1116, "coventry": 13613, "kv": 24888, "nicholson": 16955, "##logies": 21615, "booklet": 19271, "##ja": 3900, "##hore": 16892, "pueblo": 18273, "aubrey": 18961, "appearance": 3311, "1086": 28196, "prove": 6011, "monaco": 14497, "austin": 5899, "rattled": 19252, "eastbound": 24773, "interactive": 9123, "flirting": 20661, "##els": 9050, "pennant": 22690, "##\u1d9c": 30046, "willard": 19138, "[unused412]": 417, "presentation": 8312, "[unused826]": 831, "##lip": 15000, "arranger": 13981, "##\u4e0d": 30270, "sevens": 19463, "##gang": 24930, "hu": 15876, "suspects": 13172, "means": 2965, "suggest": 6592, "lt": 8318, "billions": 25501, "##kir": 23630, "##hei": 26036, "muzzle": 17750, "front": 2392, "humiliated": 26608, "entertaining": 14036, "reaches": 6561, "belgarath": 21256, "[unused840]": 845, "doorway": 7086, "glass": 3221, "[unused485]": 490, "obesity": 24552, "\u0584": 1239, "ordeal": 23304, "doubted": 12979, "##\u7cf9": 30460, "dinosaur": 15799, "[unused744]": 749, "##aire": 14737, "##stellar": 29028, "footage": 8333, "dracula": 18500, "rd": 16428, "##iu": 17922, "canonical": 18562, "waters": 5380, "[unused105]": 110, "rhyme": 20622, "collision": 12365, "tinted": 25577, "yun": 22854, "##nberg": 11144, "contact": 3967, "##lord": 19980, "tattooed": 26464, "tablets": 17596, "southampton": 11833, "##buro": 23670, "s": 1055, "58": 5388, "##tale": 22059, "cary": 20533, "2007": 2289, "[unused569]": 574, "authorities": 4614, "arkansas": 6751, "##\u5929": 30337, "peacefully": 21614, "[unused148]": 153, "sympathetic": 13026, "involvement": 6624, "thinking": 3241, "hinduism": 19632, "switzerland": 5288, "[unused372]": 377, "partners": 5826, "heavy": 3082, "##grave": 12830, "##oud": 19224, "borne": 15356, "matches": 3503, "piers": 16067, "##market": 20285, "wickets": 10370, "breathing": 5505, "explosive": 11355, "adams": 5922, "clown": 15912, "commonplace": 27550, "##rp": 14536, "lifetime": 6480, "transmit": 19818, "patient": 5776, "parody": 12354, "shortlisted": 21353, "glowing": 10156, "\u00a3100": 27708, "##yt": 22123, "alexandria": 10297, "[unused474]": 479, "cyril": 16049, "divides": 20487, "\u208a": 1557, "screen": 3898, "expense": 10961, "[unused617]": 622, "pup": 26781, "vietnamese": 9101, "buttons": 11287, "graphs": 19287, "##hearted": 27693, "streamlined": 29445, "glove": 15913, "patrols": 14703, "skirt": 9764, "mort": 22294, "genevieve": 20245, "years": 2086, "##ductive": 26638, "##glers": 25555, "##low": 8261, "taunton": 28181, "##tell": 23567, "sydney": 3994, "\u4eee": 1761, "##iko": 12676, "climbing": 8218, "developments": 8973, "subterranean": 28811, "capped": 13880, "800": 5385, "due": 2349, "cables": 15196, "willy": 16172, "##cting": 11873, "bacterial": 17341, "thugs": 24106, "nationalities": 24904, "[unused514]": 519, "\u72ac": 1908, "##age": 4270, "\u110e": 1465, "lin": 11409, "##lay": 8485, "bully": 20716, "##roy": 13238, "micah": 17665, "chick": 14556, "##erved": 25944, "##fold": 10371, "dyer": 23494, "admission": 9634, "##anial": 27532, "program": 2565, "harcourt": 22714, "rush": 5481, "witnesses": 9390, "##physics": 15638, "1720": 23535, "erect": 14908, "comfortably": 18579, "internet": 4274, "enthusiastic": 14727, "audible": 19525, "##\u0baa": 29924, "echoes": 17659, "##tt": 4779, "always": 2467, "malik": 14360, "ju": 18414, "firmly": 7933, "lazarus": 23623, "nationally": 9582, "##hiff": 25798, "264": 21611, "##ch": 2818, "[unused85]": 86, "enthusiasts": 20305, "biodiversity": 17194, "##ite": 4221, "##vich": 12933, "pitted": 25895, "privateer": 26790, "relationships": 6550, "hugely": 27564, "lottery": 15213, "tung": 27079, "crushing": 14527, "padua": 24941, "##kill": 15872, "towels": 24213, "cunningham": 13652, "mitochondrial": 23079, "sandwiches": 22094, "compulsory": 14770, "constantly": 7887, "smiling": 5629, "codex": 15763, "##enity": 20693, "rotary": 16933, "new": 2047, "revisited": 24354, "henry": 2888, "munoz": 23685, "99": 5585, "proprietary": 16350, "trench": 14185, "refrigerator": 18097, "approximately": 3155, "youth": 3360, "[unused401]": 406, "entertainment": 4024, "[unused495]": 500, "greenland": 16128, "kneeling": 16916, "speechless": 25146, "cluster": 9324, "\u0131": 1104, "balanced": 12042, "expand": 7818, "bout": 10094, "buff": 23176, "\u099f": 1359, "implementations": 24977, "[unused660]": 665, "sloane": 17558, "wingspan": 9635, "joker": 19318, "gasps": 23813, "##gating": 16961, "flair": 22012, "##thi": 15222, "##\u2228": 30130, "anal": 20302, "gujarat": 14288, "##\u8857": 30472, "phillips": 8109, "dorm": 19568, "##\u026c": 29687, "##ayton": 29319, "neville": 14871, "wages": 12678, "organist": 16397, "##\u043f": 29746, "dozens": 9877, "livestock": 11468, "[unused925]": 930, "[unused466]": 471, "compared": 4102, "appeal": 5574, "##schen": 23796, "alligator": 28833, "quantity": 11712, "ik": 20912, "##\u5c71": 30357, "##od": 7716, "1664": 28485, "##witz": 15362, "##\u09a4": 29898, "sands": 13457, "monster": 6071, "transferring": 14391, "##lis": 6856, "distracting": 25012, "dai": 18765, "exceed": 13467, "[unused351]": 356, "individually": 14258, "consulate": 19972, "kidney": 14234, "[unused186]": 191, "asthma": 26180, "##ago": 23692, "migration": 9230, "##\u3080": 30205, "economy": 4610, "collection": 3074, "##thal": 24090, "##burgh": 15496, "foundation": 3192, "gardener": 19785, "[MASK]": 103, "357": 26231, "730": 28004, "shamrock": 28782, "##tzer": 29546, "summary": 12654, "exports": 14338, "\u043f": 1194, "##\u00bf": 29666, "[unused784]": 789, "pulmonary": 21908, "synthesizer": 13564, "conglomerate": 22453, "contractual": 27948, "reputed": 22353, "palms": 9486, "##iv": 12848, "24th": 13386, "##jun": 19792, "[unused552]": 557, "##nology": 21020, "preparing": 8225, "thumb": 7639, "dolly": 19958, "chin": 5413, "banning": 21029, "dangers": 16796, "ross": 5811, "allergic": 27395, "rhetoric": 17871, "##cor": 27108, "##inated": 15833, "##inating": 19185, "literature": 3906, "##\u0bbf": 29932, "numbers": 3616, "\u02b8": 1144, "iceland": 10399, "modernism": 27254, "airline": 8582, "early": 2220, "occurred": 4158, "##\u7701": 30446, "culture": 3226, "rowland": 20539, "##ha": 3270, "gravely": 28070, "matilda": 17981, "mohawk": 22338, "asa": 17306, "##rated": 9250, "under": 2104, "earnest": 17300, "\u00bc": 1091, "##lee": 10559, "##illa": 9386, "exeter": 12869, "fiction": 4349, "enabled": 9124, "##fed": 25031, "italianate": 25302, "##nais": 28020, "##jected": 24455, "\u0437": 1187, "##minster": 24431, "deployment": 10813, "brat": 28557, "gilmore": 22999, "jen": 15419, "\u1167": 1474, "fischer": 13042, "determine": 5646, "warmed": 17336, "shining": 9716, "##hdi": 22960, "##vik": 13309, "shone": 14707, "bu": 20934, "absorption": 16326, "##etta": 16549, "##\u2265": 30136, "goaltender": 21437, "telugu": 12180, "\u03c1": 1171, "sniffed": 18013, "\u30b9": 1707, "creating": 4526, "##actic": 28804, "battery": 6046, "asturias": 26798, "bourgeois": 22846, "mentioned": 3855, "##jm": 24703, "daniel": 3817, "alt": 12456, "##ungen": 23239, "subjected": 13532, "waited": 4741, "wendell": 24526, "##ausen": 25701, "moat": 25266, "pew": 29071, "threats": 8767, "rapidly": 5901, "##ther": 12399, "trainers": 21992, "wildlife": 6870, "1640": 21533, "##cake": 17955, "vale": 10380, "choir": 6596, "himself": 2370, "ionic": 24774, "overhaul": 18181, "aviator": 24035, "skinned": 19937, "delaney": 22101, "connectivity": 20831, "[unused920]": 925, "##\u02bbi": 26444, "\u09a8": 1366, "got": 2288, "easier": 6082, "vintage": 13528, "##lla": 4571, "photographers": 17008, "##rk": 8024, "##lar": 8017, "dj": 6520, "longevity": 26906, "sufi": 21845, "suspend": 28324, "theatres": 13166, "##\u4eac": 30281, "des": 4078, "1697": 28690, "32nd": 20628, "##ab": 7875, "\u09b8": 1376, "urged": 9720, "##lom": 21297, "##amo": 22591, "constant": 5377, "\u05dd": 1254, "sideways": 12579, "adolescent": 20274, "ah": 6289, "cox": 9574, "emperor": 3750, "##oum": 24778, "vera": 12297, "[unused314]": 319, "hadn": 2910, "moffat": 28528, "##mmon": 24521, "[unused766]": 771, "##hurst": 10510, "distance": 3292, "comet": 15699, "truman": 15237, "[unused497]": 502, "mannheim": 25116, "a2": 22441, "dorchester": 27252, "placement": 11073, "##rew": 15603, "robot": 8957, "\u0274": 1124, "enchanted": 22454, "##lib": 29521, "thickness": 14983, "losing": 3974, "ferrari": 13632, "haji": 28174, "stalls": 19753, "unofficial": 11982, "bought": 4149, "outskirts": 12730, "##eni": 18595, "dl": 21469, "chong": 24008, "[unused522]": 527, "monitored": 17785, "pronounced": 8793, "##\u306c": 30195, "victories": 9248, "shadows": 6281, "##tility": 18724, "ghana": 9701, "parliament": 3323, "fools": 18656, "roles": 4395, "lined": 7732, "jake": 5180, "bear": 4562, "arching": 27335, "ours": 14635, "##taken": 25310, "ongoing": 7552, "aviv": 12724, "gi": 21025, "inputs": 20407, "ejected": 22607, "guadalupe": 23529, "abdominal": 21419, "##\u0964": 29880, "##saka": 29289, "[unused978]": 983, "slovene": 18326, "##chenko": 25872, "commando": 15054, "farmers": 6617, "provisional": 10864, "anarchist": 18448, "roughly": 5560, "stanis\u0142aw": 26133, "calderon": 28129, "investigation": 4812, "##\u093f": 29877, "[unused561]": 566, "freddy": 19343, "haryana": 23261, "pale": 5122, "bomb": 5968, "considered": 2641, "1923": 4927, "deformation": 29130, "##ici": 28775, "ghent": 24202, "lots": 7167, "boat": 4049, "cain": 11557, "resistant": 13070, "scandinavia": 20612, "boards": 7923, "please": 3531, "prince": 3159, "implementation": 7375, "##rily": 11272, "filmfare": 25648, "drew": 3881, "pianos": 27864, "shaky": 15311, "suspicion": 10928, "someplace": 24956, "salzburg": 18369, "##chen": 8661, "confluence": 13693, "hands": 2398, "##ischen": 24488, "senses": 9456, "ballad": 11571, "trolls": 27980, "book": 2338, "witches": 12566, "##tua": 26302, "ma": 5003, "taxpayers": 26457, "clicked": 13886, "beef": 12486, "proud": 7098, "truth": 3606, "floppy": 28491, "abbreviated": 12066, "ported": 27650, "\u03c0": 1170, "##grass": 19673, "sweets": 26844, "decorative": 11584, "antarctica": 12615, "##tow": 18790, "##dit": 23194, "cinematic": 21014, "intuitive": 29202, "##ington": 7853, "rubbing": 10137, "value": 3643, "comparable": 12435, "##crats": 23423, "funds": 5029, "raoul": 22063, "disagreement": 18185, "##hana": 15788, "reissued": 14805, "era": 3690, "brakes": 13627, "##rest": 28533, "nearer": 20388, "merton": 28169, "highlights": 11637, "60": 3438, "demonstrators": 28337, "stipulated": 25729, "floyd": 12305, "##leg": 23115, "tires": 13310, "##ado": 9365, "proportions": 19173, "crap": 10231, "paolo": 14174, "foul": 12487, "twisting": 12814, "rations": 29559, "inquired": 24849, "lead": 2599, "controls": 7711, "hospitals": 8323, "builders": 16472, "mora": 26821, "##\u3061": 30188, "elections": 3864, "fairfax": 17833, "bags": 8641, "tumble": 28388, "iona": 22347, "catfish": 23723, "subcommittee": 18052, "regretted": 18991, "1899": 6166, "aristocracy": 22706, "\u82b1": 1940, "experience": 3325, "[unused234]": 239, "nations": 3741, "causal": 28102, "goes": 3632, "embryo": 28086, "universe": 5304, "cheerful": 18350, "vowed": 18152, "remade": 26943, "airports": 13586, "##25": 17788, "##\u3059": 30184, "##ima": 9581, "denim": 26762, "lesions": 22520, "\u0252": 1111, "outcomes": 13105, "versailles": 18346, "partnered": 12404, "patents": 13979, "jenkins": 11098, "pianist": 9066, "##tlan": 28922, "magma": 28933, "attraction": 8432, "lombardy": 27728, "eureka": 21142, "##meric": 25531, "ohio": 4058, "\u0250": 1109, "ui": 21318, "##ament": 24996, "heritage": 4348, "dangerous": 4795, "washing": 12699, "telegram": 23921, "vanguard": 18332, "ferrara": 28635, "motorola": 29583, "pee": 21392, "magnus": 10045, "blurred": 18449, "silly": 10021, "aggregator": 24089, "arrogant": 15818, "forms": 3596, "##nl": 20554, "##km": 22287, "trigger": 9495, "dow": 23268, "##ige": 25538, "hogan": 14851, "hampton": 11615, "surprised": 4527, "bone": 5923, "becca": 22140, "insulation": 25710, "205": 16327, "client": 7396, "[unused619]": 624, "decreasing": 16922, "27th": 15045, "strands": 14119, "altitudes": 21973, "shock": 5213, "dentistry": 26556, "parry": 20803, "dreaming": 12802, "coffee": 4157, "blame": 7499, "##morphic": 18078, "\u10d9": 1446, "thursday": 9432, "##udy": 20217, "swift": 9170, "##igraphy": 23132, "streaks": 21295, "pensacola": 26073, "1853": 8933, "applications": 5097, "roared": 14242, "proctor": 28770, "elite": 7069, "lucknow": 23571, "[unused595]": 600, "arun": 28217, "stomach": 4308, "lac": 18749, "complain": 17612, "##cture": 14890, "quote": 14686, "telecommunication": 25958, "valve": 10764, "analogy": 23323, "executed": 6472, "##anna": 25789, "\u30a3": 1694, "yankee": 17652, "##\u306e": 30197, "##uan": 13860, "rabbi": 7907, "[unused246]": 251, "mother": 2388, "mature": 9677, "ciudad": 20759, "##31": 21486, "hope": 3246, "serbs": 16757, "##rso": 25301, "[unused200]": 205, "edwards": 7380, "damaging": 15011, "immediate": 6234, "episodes": 4178, "frontal": 19124, "branched": 21648, "petersen": 22615, "aragon": 16146, "grim": 11844, "noelle": 22336, "##\u11af": 30022, "respectable": 19416, "zoo": 9201, "vita": 19300, "##ree": 9910, "740": 25833, "labrador": 18604, "ignore": 8568, "consequently": 8821, "heats": 18559, "contributes": 16605, "economically": 15318, "\u00a1": 1067, "sabre": 22002, "chase": 5252, "drank": 10749, "varieties": 9903, "kitten": 18401, ",": 1010, "183": 18677, "peers": 12746, "wince": 29585, "groaning": 24781, "homosexual": 15667, "modelled": 23364, "\u0454": 1212, "276": 25113, "whenever": 7188, "robinson": 6157, "framing": 20241, "latter": 3732, "campbell": 6063, "holly": 9079, "dresses": 14464, "sites": 4573, "##rity": 15780, "isle": 8842, "native": 3128, "##cano": 23803, "thermal": 9829, "canopy": 14582, "garnered": 13056, "##ult": 11314, "patent": 7353, "##\u222a": 30132, "\u03c7": 1177, "##\u0996": 29890, "##dridge": 21482, "restricting": 26996, "miller": 4679, "purposes": 5682, "apartments": 9620, "hack": 20578, "amy": 6864, "##tose": 22282, "shrieked": 22383, "gmina": 7061, "pack": 5308, "thick": 4317, "##print": 16550, "##jet": 15759, "butte": 25024, "##va": 3567, "##bino": 21891, "milan": 6954, "vidal": 29259, "harpsichord": 26504, "##kell": 18690, "norwegian": 5046, "mission": 3260, "hermitage": 24708, "1824": 11617, "viper": 17947, "handbook": 14812, "##tracted": 24301, "##nham": 20465, "plunge": 25912, "vaughn": 18220, "imprint": 15738, "auditor": 20964, "##rdan": 26992, "housed": 7431, "sharon": 10666, "bribes": 29117, "interpreter": 19555, "repairing": 26296, "zeppelin": 22116, "##tain": 18249, "reformed": 9114, "\u30a1": 1692, "3rd": 3822, "chooses": 15867, "iqbal": 28111, "unicorn": 21830, "rhymes": 24468, "[unused41]": 42, "entourage": 25342, "chew": 21271, "canvas": 10683, "rotterdam": 15632, "kw": 6448, "hooks": 18008, "painfully": 16267, "##rino": 17815, "##rogated": 26565, "terminating": 23552, "sponsoring": 29396, "polls": 14592, "almost": 2471, "activity": 4023, "[unused415]": 420, "turnpike": 17116, "yawned": 27626, "wreck": 12006, "ensuing": 13831, "distortion": 20870, "##edd": 22367, "revelation": 11449, "##oga": 18170, "gunners": 29000, "salaries": 20566, "pixel": 22138, "technicians": 20202, "##tat": 29336, "reactors": 22223, "conservative": 4603, "banded": 25264, "eliminate": 11027, "drums": 3846, "apostles": 19178, "mouth": 2677, "misery": 14624, "nurse": 6821, "americana": 25988, "##kei": 29501, "albania": 10407, "650": 13757, "##tton": 15474, "##skie": 23955, "woolf": 29572, "##dies": 18389, "responsibility": 5368, "rolls": 9372, "valerie": 14264, "##vs": 15088, "podcast": 16110, "champ": 24782, "conversion": 7584, "60s": 20341, "commerce": 6236, "armchair": 29372, "[unused138]": 143, "[unused788]": 793, "trombone": 13914, "listeners": 13810, "m\u00b2": 7030, "##\u0283": 29696, "predominantly": 9197, "##md": 26876, "malicious": 24391, "tense": 9049, "ta": 11937, "california": 2662, "##mie": 9856, "signs": 5751, "mohammad": 12050, "contracts": 8311, "johns": 11545, "romano": 22070, "cas": 25222, "melancholy": 22247, "211": 19235, "[unused841]": 846, "hammered": 25756, "##alle": 24164, "shortened": 12641, "packets": 23730, "regression": 26237, "##analysis": 25902, "adam": 4205, "symmetrical": 23476, "rooms": 4734, "homer": 11525, "senate": 4001, "shaft": 9093, "arbitrary": 15275, "mecca": 21340, "##\u2218": 30126, "garage": 7381, "intercontinental": 18725, "directorate": 13634, "[unused560]": 565, "nosed": 29338, "##tream": 25379, "##zzo": 12036, "roth": 12211, "jagger": 25827, "##les": 4244, "schwartz": 16756, "diaspora": 18239, "enroll": 25612, "strain": 10178, "rewards": 19054, "##dham": 17661, "symptoms": 8030, "ufo": 24321, "320": 13710, "battista": 28422, "grayson": 17556, "ems": 29031, "astronauts": 25881, "del": 3972, "##\u300f": 30170, "sentinel": 16074, "help": 2393, "theology": 8006, "anglia": 24217, "flower": 6546, "controlled": 4758, "##ination": 12758, "humanoid": 28051, "mountains": 4020, "##\u4e0b": 30269, "##fe": 7959, "##ao": 7113, "lung": 11192, "aide": 14895, "1830": 9500, "##sable": 19150, "escapes": 12976, "southend": 26104, "\u0564": 1222, "##group": 17058, "[unused958]": 963, "##\u25cf": 30146, "collarbone": 29600, "##dson": 25112, "emanuel": 21135, "names": 3415, "whig": 21632, "nautical": 11339, "belief": 6772, "##\u03bf\u03c2": 15297, "thirsty": 24907, "reluctant": 11542, "##tung": 21847, "##her": 5886, "marquette": 24223, "thread": 11689, "escort": 8620, "##zes": 11254, "gutierrez": 20836, "archduke": 27463, "assault": 6101, "protective": 9474, "sheath": 21867, "reject": 15454, "74": 6356, "ceased": 7024, "mic": 23025, "##\u03c4": 29734, "610": 19827, "##set": 13462, "manson": 21440, "##nu": 11231, "plaster": 15673, "harley": 13653, "synthetic": 12553, "development": 2458, "b": 1038, "response": 3433, "harmonica": 16527, "suddenly": 3402, "put": 2404, "##pped": 11469, "eleanor": 10508, "hearth": 22885, "[unused88]": 89, "softness": 27012, "##\u064a": 14498, "artistic": 6018, "commissioned": 4837, "##form": 14192, "frs": 25188, "harrison": 6676, "tribunal": 12152, "##\u4ebb": 30283, "elisabeth": 12877, "pills": 15345, "target": 4539, "flexed": 24244, "herbs": 17561, "rents": 28206, "restarted": 25606, "##lidae": 21595, "bathed": 24614, "##rao": 25667, "bis": 20377, "chet": 25157, "##go": 3995, "marx": 13518, "nut": 17490, "##xa": 18684, "##tres": 19168, "##\u2078": 30077, "currie": 20667, "recognised": 7843, "bounce": 17523, "fragile": 13072, "[unused430]": 435, "spat": 14690, "lawn": 10168, "curvature": 25045, "dem": 17183, "organizational": 13296, "anthony": 4938, "cbe": 15852, "gottfried": 26142, "routinely": 19974, "climb": 7105, "exploding": 20728, "compensation": 9430, "trembling": 10226, "accordion": 19060, "annie": 8194, "update": 10651, "hips": 6700, "insider": 25297, "mp": 6131, "scout": 7464, "symbolism": 22050, "[unused290]": 295, "hapoel": 24208, "greg": 6754, "staple": 18785, "speculative": 23250, "option": 5724, "##uity": 18518, "operate": 5452, "subsidiary": 7506, "em": 7861, "proficient": 27029, "##erson": 18617, "holden": 9988, "clinton": 7207, "##wig": 16279, "purely": 11850, "policemen": 19809, "integral": 9897, "comics": 5888, "##trip": 24901, "##omo": 19506, "debut": 2834, "lilly": 14765, "##cher": 7474, "sexuality": 13798, "swiped": 24452, "whereas": 6168, "sparse": 20288, "\u0e21": 1415, "wexford": 23121, "novice": 23131, "caledonian": 27449, "[unused517]": 522, "##ander": 12243, "followers": 8771, "friedman": 18486, "wounds": 8710, "duet": 11979, "##ew": 7974, "pasha": 14292, "inactive": 16389, "proves": 16481, "violating": 20084, "ornamental": 18200, "vineyards": 20597, "pays": 12778, "mostly": 3262, "gruff": 27038, "##eers": 22862, "##\u0142": 18818, "racing": 3868, "90s": 17233, "rites": 17105, "tapes": 13324, "\u02e4": 1154, "characterized": 7356, "##combe": 14149, "##olved": 16116, "decrees": 28966, "denied": 6380, "##lva": 22144, "##ood": 17139, "welles": 23447, "gable": 13733, "##ccus": 27631, "accommodate": 8752, "##rre": 14343, "assumption": 11213, "harold": 7157, "patricia": 10717, "##arm": 27292, "king": 2332, "octagonal": 22340, "[unused765]": 770, "##rist": 15061, "kan": 22827, "alternatives": 15955, "##ime": 14428, "\u82f1": 1941, "\u0431": 1181, "kei": 26679, "fluids": 20989, "confuse": 28679, "sparkle": 26831, "##ered": 6850, "principality": 18018, "[unused875]": 880, "roster": 9238, "operatic": 22534, "bulldogs": 15120, "rocking": 14934, "judge": 3648, "satire": 18312, "andre": 7213, "buffy": 18467, "weights": 15871, "##khov": 25495, "stay": 2994, "1708": 27337, "gregg": 18281, "illusions": 24883, "\u308b": 1687, "similar": 2714, "deaf": 12419, "hermann": 12224, "twice": 3807, "nestor": 25397, "hispanic": 6696, "aged": 4793, "gunshot": 22077, "giro": 19226, "co": 2522, "compare": 12826, "##hr": 8093, "##ito": 9956, "economist": 11708, "heaving": 23907, "tailored": 21727, "##escu": 19434, "##ffs": 21807, "##ts": 3215, "stick": 6293, "burnett": 13829, "genocide": 14052, "##ste": 13473, "mysterious": 8075, "mri": 27011, "##lto": 23223, "predecessor": 8646, "seated": 8901, "journals": 9263, "things": 2477, "founders": 8759, "\u0442": 1197, "ashton": 13772, "occasion": 6686, "probation": 19703, "choreography": 16967, "transition": 6653, "russo": 17023, "spring": 3500, "bach": 10384, "##ups": 22264, "incurred": 22667, "centennial": 15483, "relatively": 4659, "baden": 12189, "fai": 26208, "##elle": 14774, "newsletter": 17178, "progressed": 12506, "##hers": 22328, "syndicate": 16229, "constructing": 15696, "##pani": 26569, "dad": 3611, "jump": 5376, "relegation": 9591, "[unused357]": 362, "prophecy": 14951, "1847": 9176, "##emon": 26941, "galleries": 11726, "essential": 6827, "cringed": 23952, "lanes": 10914, "filmmakers": 16587, "##ials": 26340, "production": 2537, "armenian": 7508, "fruits": 10962, "heinrich": 10952, "##lwyn": 29287, "nietzsche": 28898, "gibbons": 22194, "shutter": 28180, "excuse": 8016, "##book": 8654, "prevalence": 20272, "smart": 6047, "trustees": 9360, "guys": 4364, "philosophy": 4695, "archers": 23118, "louisville": 11577, "fascinating": 17160, "butler": 7055, "showered": 23973, "northwestern": 7855, "##ger": 4590, "##hering": 22658, "##mani": 20799, "##bilities": 14680, "kapoor": 17129, "beverages": 21705, "##gin": 11528, "##\u20ac": 30102, "facing": 5307, "breeds": 15910, "relationship": 3276, "gershwin": 25600, "streaming": 11058, "palatinate": 18990, "awkwardly": 18822, "tel": 10093, "contend": 27481, "alison": 12684, "grain": 8982, "\u7687": 1917, "confessions": 21444, "tolkien": 23602, "puppy": 17022, "succeeds": 21645, "acquisitions": 19530, "##umen": 27417, "261": 24441, "statute": 11671, "bitten": 19026, "advent": 13896, "unpleasant": 16010, "editorial": 8368, "arroyo": 23882, "honestly": 9826, "pike": 12694, "joyce": 11830, "##64": 21084, "##65": 26187, "dhaka": 16479, "bertie": 20743, "researching": 20059, "baskets": 25946, "##f": 2546, "keep": 2562, "definitions": 15182, "foreman": 18031, "##istan": 23137, "debra": 28762, "mating": 15100, "trucks": 9322, "respond": 6869, "processor": 13151, "russians": 12513, "lacked": 10858, "maneuvers": 23802, "christine": 10941, "##rey": 15202, "rest": 2717, "computational": 15078, "vent": 18834, "##iate": 13143, "yokohama": 20507, "totaled": 23596, "##lun": 26896, "##eed": 13089, "fated": 27442, "aquino": 24183, "batch": 14108, "buy": 4965, "cranes": 27083, "cello": 10145, "jason": 4463, "ecosystem": 16927, "flows": 6223, "##kara": 16566, "negligence": 27988, "grandfather": 5615, "cargo": 6636, "##\u0bc7": 29934, "returning": 4192, "veil": 15562, "ives": 23945, "##cken": 19766, "centralized": 22493, "##pipe": 24548, "usher": 20774, "enter": 4607, "abbot": 11428, "drained": 11055, "admiring": 24588, "\u2666": 1626, "jaime": 14519, "healthy": 7965, "##\u10d7": 29980, "##\u3093": 30217, "sunglasses": 17072, "instances": 12107, "invest": 15697, "assassins": 18364, "steamer": 18027, "[unused553]": 558, "vista": 13005, "sufficient": 7182, "uttered": 20947, "outfit": 11018, "willow": 11940, "trials": 7012, "bourne": 15803, "mina": 19808, "metropolitan": 4956, "coa": 28155, "ancestral": 14947, "lumber": 13891, "finley": 29194, "autism": 19465, "disqualified": 14209, "277": 25578, "\u110b": 1463, "wand": 23967, "nile": 15179, "failures": 15428, "1820s": 28504, "##hil": 19466, "##sing": 7741, "[unused637]": 642, "til": 18681, "##masters": 27751, "musical": 3315, "dodd": 21258, "wedding": 5030, "tenure": 7470, "eater": 28496, "lightning": 7407, "##mut": 28120, "peach": 18237, "##iring": 24771, "byte": 24880, "battered": 17548, "##ife": 29323, "##aki": 8978, "premise": 18458, "oldies": 26826, "maison": 26420, "##bra": 10024, "##uche": 19140, "libby": 19533, "[unused662]": 667, "clutches": 29497, "##sive": 12742, "consolidate": 24939, "pilgrims": 17992, "[unused380]": 385, "##nton": 15104, "\u0921": 1321, "npr": 21411, "##hire": 20908, "pune": 16920, "resume": 13746, "sentiment": 15792, "running": 2770, "conde": 24707, "##\u0e15": 29947, "##\u51fa": 30300, "specializing": 14055, "##rsten": 19020, "[unused798]": 803, "2012": 2262, "alloys": 28655, "promotes": 14067, "1896": 6306, "accumulated": 14830, "indoor": 7169, "amplifiers": 28633, "##ye": 6672, "insight": 12369, "appeals": 9023, "contracting": 21012, "abigail": 15983, "leans": 12671, "##\u209a": 30097, "moments": 5312, "freaks": 29526, "dish": 9841, "##ndi": 16089, "##eis": 17580, "##\u02c8": 29715, "##phic": 17926, "toss": 10055, "fingertips": 12206, "preface": 18443, "protections": 28548, "horsemen": 25431, "asahi": 29465, "boundaries": 7372, "eduard": 20424, "[unused828]": 833, "[unused429]": 434, "jiang": 20613, "##miento": 28883, "\u20b1": 1575, "##park": 14432, "nottinghamshire": 20126, "huh": 9616, "knocked": 6573, "capital": 3007, "teammate": 10809, "wrecked": 18480, "pattern": 5418, "##\u3078": 30201, "##ions": 8496, "friars": 24037, "printers": 23557, "##ful": 3993, "1844": 9730, "collecting": 9334, "##bella": 21700, "##6": 2575, "theodore": 10117, "theory": 3399, "316": 23980, "##un": 4609, "##\u03c5": 29735, "gloves": 11875, "bo": 8945, "preschool": 23655, "214": 19936, "oblast": 10379, "[unused753]": 758, "bonfire": 28698, "gatherings": 21403, "hurriedly": 23878, "##imating": 22835, "survivor": 12084, "outraged": 23558, "aj": 19128, "muttered": 6250, "stating": 5517, "isil": 19600, "manipulate": 17708, "brother": 2567, "frantically": 16460, "combine": 11506, "##acion": 21736, "##tead": 14565, "drones": 24633, "shortest": 20047, "gesture": 9218, "clary": 13145, "sorbonne": 28452, "duties": 5704, "governed": 9950, "dubai": 11558, "ignorant": 21591, "##28": 22407, "##uron": 21017, "proposition": 14848, "##ailed": 17440, "mildly": 19499, "starved": 26042, "italia": 13052, "##\u30a3": 30220, "winston": 10180, "helm": 16254, "##kee": 20553, "relocating": 26811, "psychologist": 15034, "##acio": 21361, "\u27e9": 1630, "niccolo": 27033, "##pies": 13046, "question": 3160, "potter": 10693, "glenn": 9465, "saskatchewan": 10068, "telangana": 23764, "charitable": 11128, "widow": 7794, "serbia": 7238, "measuring": 9854, "##top": 14399, "clap": 28618, "chad": 9796, "hint": 9374, "\u2264": 1608, "mccann": 28641, "##ols": 27896, "##nnis": 27803, "nouvelle": 25207, "prisoner": 7267, "##iman": 18505, "theater": 4258, "[unused191]": 196, "tube": 7270, "\u661f": 1866, "heels": 8265, "[unused874]": 879, "nonstop": 25493, "1891": 6607, "restaurant": 4825, "fulfill": 13883, "relocated": 7448, "##ffed": 15388, "plump": 26731, "##55": 24087, "smoking": 9422, "priscilla": 25193, "eight": 2809, "routledge": 21180, "##sen": 5054, "jericho": 17309, "monsieur": 21380, "pedestrians": 24946, "caliph": 22733, "##islaus": 25678, "appearances": 3922, "trunk": 8260, "##merie": 28677, "##\u6751": 30404, "\u0452": 1211, "tap": 11112, "##ask": 19895, "campos": 26925, "vodka": 21092, "appealed": 12068, "milford": 22622, "defence": 4721, "boris": 11235, "##ox": 11636, "##ctus": 22675, "montagu": 26241, "dortmund": 23912, "monks": 9978, "overture": 25052, "geoffrey": 11023, "murdered": 7129, "likewise": 10655, "escorted": 13127, "feed": 5438, "505": 28952, "understanding": 4824, "militias": 29271, "##iers": 10136, "wheels": 7787, "e": 1041, "displeasure": 28606, "##ol": 4747, "brow": 8306, "[unused945]": 950, "109": 11518, "##60": 16086, "javier": 13824, "meanings": 15383, "mecklenburg": 22007, "wondering": 6603, "croft": 28983, "[unused655]": 660, "pedestrian": 14662, "qaeda": 18659, "makeup": 5789, "bun": 21122, "greenhouse": 16635, "contains": 3397, "1721": 27689, "ruse": 26307, "neo": 9253, "##ieving": 25587, "spatial": 13589, "criminals": 12290, "##rte": 19731, "fellowship": 7881, "jury": 6467, "monarch": 11590, "##har": 8167, "racecourse": 15948, "rivals": 9169, "sainte": 16947, "academia": 16926, "pentagon": 20864, "good": 2204, "evenly": 18030, "creators": 17277, "darryl": 22821, "spices": 21729, "freeman": 11462, "counterpart": 13637, "##fort": 13028, "wed": 21981, "picks": 11214, "##\u5fe0": 30378, "regulations": 7040, "##ham": 3511, "\u4ee3": 1760, "bulky": 27446, "1810": 11786, "reconciliation": 16088, "booster": 23715, "underside": 17313, "##nitz": 22792, "arias": 25905, "blunt": 14969, "##\u304a": 30176, "##sor": 21748, "shootout": 18297, "193": 19984, "flashlight": 15257, "bravery": 16534, "##36": 21619, "gleaming": 18242, "amend": 27950, "sensitivity": 14639, "##zy": 9096, "##chua": 26200, "reilly": 13875, "rules": 3513, "##ulia": 20922, "##iated": 15070, "inc": 4297, "cruise": 8592, "intently": 16170, "steward": 17946, "pdf": 11135, "interventions": 19388, "##or": 2953, "racetrack": 28435, "promotion": 4712, "hong": 4291, "*": 1008, "29": 2756, "naming": 10324, "sustained": 8760, "competing": 6637, "maccabi": 24055, "strongly": 6118, "\u53f2": 1790, "##slow": 26338, "roller": 11220, "der": 4315, "[unused845]": 850, "angelica": 19458, "astonishing": 26137, "##pina": 26787, "yuki": 24924, "167": 16785, "\u00a35": 27813, "##hong": 19991, "\u11b8": 1488, "aristotle": 17484, "##jevic": 26782, "territory": 3700, "kemp": 20441, "claus": 19118, "constrained": 27570, "drafting": 21168, "infections": 15245, "manga": 8952, "nausea": 19029, "reelected": 20847, "subordinate": 15144, "\u11ab": 1485, "minds": 9273, "##ws": 9333, "scheduled": 5115, "rebellious": 22614, "swirling": 16499, "scribe": 27789, "impressed": 7622, "##iff": 13355, "dee": 9266, "##laid": 24393, "cupping": 25076, "publishers": 8544, "telling": 4129, "redesignated": 11836, "roanoke": 25899, "fairbanks": 24502, "hedge": 17834, "programmes": 8497, "ed": 3968, "households": 3911, "tails": 17448, "cheng": 15898, "wedge": 17632, "##\u03c7": 29737, "venues": 9356, "dissertation": 14481, "bacon": 11611, "swirl": 28693, "##nick": 13542, "##bon": 11735, "vishnu": 17647, "##ache": 15395, "buckingham": 17836, "##ined": 21280, "caps": 9700, "slave": 6658, "trainee": 26758, "##nare": 26148, "battalion": 4123, "predominant": 21047, "mikhail": 11318, "belongings": 20033, "adolescents": 25947, "[unused2]": 3, "interest": 3037, "##bala": 25060, "brien": 9848, "bolt": 10053, "danced": 10948, "dramatically": 12099, "subcontinent": 26125, "whatever": 3649, "textile": 12437, "[unused506]": 511, "january": 2254, "stages": 5711, "torque": 15894, "maverick": 27187, "##hopper": 27330, "memorial": 3986, "elsewhere": 6974, "practiced": 9051, "arrived": 3369, "praises": 27128, "choose": 5454, "\u1110": 1467, "ending": 4566, "##antly": 15706, "\u203a": 1533, "judges": 6794, "##tained": 28055, "falls": 4212, "reserve": 3914, "##amy": 24079, "275": 17528, "##iii": 28954, "1890s": 13678, "billing": 25640, "molina": 25601, "##ulata": 18060, "arches": 13540, "tractor": 16358, "##rmin": 27512, "##ishly": 19983, "barns": 25684, "[unused899]": 904, "manchu": 26650, "mel": 11463, "hitting": 7294, "italian": 3059, "brief": 4766, "carlisle": 13575, "india": 2634, "f": 1042, "epidemic": 16311, "gareth": 20243, "lessons": 8220, "betting": 19244, "[unused454]": 459, "##\u0987": 29885, "happiness": 8404, "eastward": 17318, "##ythe": 26688, "##ush": 20668, "coupled": 11211, "barriers": 13500, "sinatra": 19643, "humiliation": 21171, "mohamed": 14467, "##tick": 26348, "hardy": 9532, "installations": 14111, "##drome": 29171, "lp": 6948, "name": 2171, "##nsk": 25564, "##nding": 15683, "poke": 26202, "picnic": 12695, "charter": 6111, "olympic": 4386, "medals": 6665, "implement": 10408, "dex": 20647, "##plate": 15725, "##\u043b": 29436, "whether": 3251, "driveway": 11202, "hillary": 18520, "algiers": 22947, "##sk": 6711, "astro": 28625, "corvette": 22687, "hilly": 22800, "cash": 5356, "various": 2536, "##ilis": 24411, "otter": 22279, "##girl": 15239, "263": 25246, "discs": 15303, "busted": 23142, "showcased": 22443, "train": 3345, "gasped": 8535, "pleased": 7537, "valleys": 12467, "cc": 10507, "mongols": 22235, "witch": 6965, "##acies": 20499, "hatfield": 26853, "vito": 25550, "ozone": 26443, "##\u0442": 22919, "mistake": 6707, "##cio": 9793, "##pressive": 27484, "squads": 20191, "tags": 22073, "sucks": 19237, "##tance": 26897, "esther": 14631, "approached": 5411, "##drick": 24092, "flung": 14016, "propagation": 20594, "partial": 7704, "slips": 17433, "forge": 15681, "provisions": 8910, "hospital": 2902, "mothers": 10756, "dogs": 6077, "\u00b2": 1082, "unarmed": 23206, "furlongs": 26602, "northeast": 4794, "##ym": 24335, "fun": 4569, "tablet": 13855, "##org": 21759, "1685": 25053, "shipments": 24636, "minneapolis": 11334, "frightened": 10363, "obedience": 22645, "straits": 18849, "cult": 8754, "bowie": 14598, "meath": 26856, "doctrines": 23252, "##ul": 5313, "fame": 4476, "collier": 20466, "fighters": 7299, "powerplant": 19526, "row": 5216, "bari": 22466, "##reen": 28029, "confusion": 6724, "pension": 11550, "waking": 12447, "supplement": 12448, "woody": 13703, "disability": 11980, "##lc": 15472, "##ba": 3676, "##\u11bc": 30025, "subunit": 24312, "##skaya": 23070, "three": 2093, "lsu": 21849, "##wan": 7447, "cheating": 16789, "colombia": 7379, "##away": 9497, "permanently": 8642, "eki": 23174, "##cao": 20808, "faculties": 18658, "##atz": 20501, "sauce": 12901, "ripped": 9157, "rocked": 14215, "##glass": 15621, "reed": 7305, "explained": 4541, "##now": 19779, "##\u06ba": 29843, "##yam": 14852, "weighing": 15243, "trajectory": 22793, "pt": 13866, "distinct": 5664, "vegetarian": 23566, "romanian": 7056, "##heater": 27847, "450": 10332, "realities": 22213, "rufus": 18316, "[unused48]": 49, "figures": 4481, "cory": 18342, "unlawful": 22300, "consensus": 10465, "frazier": 26551, "bavaria": 11606, "fierce": 9205, "distinguish": 10782, "youngest": 6587, "highways": 10292, "hirsch": 28127, "inch": 4960, "##lez": 28060, "wrist": 7223, "sleek": 21185, "[unused933]": 938, "##cum": 24894, "genie": 22519, "##idium": 28742, "euro": 9944, "castle": 3317, "expose": 14451, "grammy": 8922, "[unused247]": 252, "frustrating": 25198, "jurisprudence": 24697, "##oto": 11439, "addressing": 12786, "repeatedly": 8385, "35th": 20198, "arch": 7905, "loading": 10578, "\u201e": 1525, "56": 5179, "cannes": 14775, "dramatic": 6918, "dimly": 25361, "chat": 11834, "##gration": 29397, "explore": 8849, "coughed": 19055, "eton": 21687, "mistakenly": 20706, "lowell": 15521, "resentment": 20234, "##logram": 24915, "subdistrict": 24150, "retreating": 17512, "\u30d2": 1719, "satan": 16795, "1965": 3551, "##its": 12762, "##yra": 19563, "##\u5b9a": 30348, "##don": 5280, "kit": 8934, "##xt": 18413, "##lding": 24573, "sava": 28350, "known": 2124, "13th": 6122, "conform": 23758, "genuine": 10218, "bermuda": 13525, "##rwood": 20941, "populations": 7080, "sol": 14017, "lastly": 22267, "pitching": 14696, "orphanage": 18504, "parcels": 28998, "##stituting": 21532, "impromptu": 29213, "learners": 26262, "156": 16734, "##leaf": 19213, "##30": 14142, "batteries": 10274, "1834": 10700, "\u1d9c": 1511, "malaya": 19979, "kept": 2921, "guiding": 14669, "dependence": 18642, "##9": 2683, "kettle": 22421, "drivers": 6853, "principals": 27928, "missionaries": 11743, "sweaty": 19889, "smoky": 20629, "postdoctoral": 29272, "newfoundland": 11944, "earle": 23888, "fourth": 2959, "pumps": 15856, "commenting": 15591, "smelled": 9557, "atrium": 26204, "##\u85e4": 30470, "cyclic": 23750, "convey": 16636, "discussion": 6594, "poured": 8542, "hartman": 26766, "extend": 7949, "kaiser": 15676, "oversee": 17467, "feedback": 12247, "netball": 25034, "framework": 7705, "layne": 22452, "massif": 24875, "jackson": 4027, "org": 8917, "attractions": 13051, "##\u4e0a": 30268, "complaints": 10821, "##ents": 11187, "##\u6bd4": 30416, "[unused90]": 91, "##abas": 27537, "scouts": 10158, "tavern": 13090, "roaming": 24430, "offered": 3253, "1746": 24507, "woken": 22795, "fuss": 28554, "derek": 7256, "##hall": 9892, "\u0289": 1131, "somehow": 5064, "literal": 18204, "##fc": 11329, "java": 9262, "xii": 14371, "corrugated": 27186, "regularly": 5570, "##lford": 23211, "specifications": 15480, "plight": 24525, "##fleet": 27657, "intelligent": 9414, "##\u2297": 30140, "secrets": 7800, "exemplified": 28593, "##ett": 6582, "aztec": 25245, "reformation": 13708, "headlined": 25214, "goddamn": 16477, "mutter": 23457, "marius": 20032, "[unused253]": 258, "fundamentally": 24670, "resemblance": 14062, "bobbed": 29579, "bce": 10705, "##uaries": 22579, "mori": 22993, "##\u30a4": 30221, "joachim": 17286, "darted": 14051, "[unused323]": 328, "hines": 25445, "cute": 10140, "##\u7f8e": 30461, "seduce": 23199, "libretto": 17621, "benefits": 6666, "biscuits": 27529, "buick": 28865, "jay": 6108, "consonant": 18265, "##linger": 23101, "madame": 10602, "opposes": 29158, "sous": 27411, "blue": 2630, "attempts": 4740, "moses": 9952, "zone": 4224, "palais": 22113, "[unused5]": 6, "anya": 21728, "clifton": 16271, "resisting": 22363, "climbed": 6589, "facade": 8508, "solution": 5576, "educating": 25088, "parting": 20254, "the": 1996, "sixteen": 7032, "[unused231]": 236, "11th": 6252, "##tl": 19646, "homme": 26574, "rail": 4334, "nature": 3267, "playboy": 18286, "spectacle": 21177, "##\u5408": 30318, "phosphorus": 25473, "tonic": 28157, "egg": 8288, "##\u0dbd": 29942, "erskine": 27139, "drinking": 5948, "130": 7558, "erosion": 14173, "nightfall": 28018, "crunch": 24514, "definitely": 5791, "denominations": 17384, "overlapping": 20567, "games": 2399, "ban": 7221, "##pot": 11008, "findings": 9556, "anthology": 9637, "intercepted": 16618, "mandy": 18193, "revenues": 12594, "##gawa": 21188, "##rricular": 21231, "##caster": 25490, "acquisition": 7654, "segment": 6903, "[unused611]": 616, "alps": 13698, "apologize": 12134, "##nagar": 14346, "ethical": 12962, "designation": 8259, "optimistic": 21931, "forwards": 19390, "ultimatum": 29227, "##\u30ed": 30261, "stares": 14020, "somewhere": 4873, "instinctively": 16607, "clergy": 11646, "\u028c": 1134, "synth": 24203, "seekers": 24071, "olivia": 7710, "directions": 7826, "ipswich": 15435, "##fr": 19699, "##gia": 10440, "relentless": 21660, "rooted": 15685, "seeds": 8079, "holiday": 6209, "inwardly": 28710, "##hic": 16066, "reyes": 12576, "commemorates": 25530, "responsive": 26651, "880": 26839, "implied": 13339, "bucks": 14189, "tudor": 15588, "grove": 7676, "jared": 8334, "settled": 3876, "seductive": 23182, "funded": 6787, "purchase": 5309, "took": 2165, "\u767a": 1914, "grill": 18651, "dump": 15653, "premiership": 11264, "##wer": 13777, "hutchinson": 17165, "kepler": 28219, "squeak": 29552, "##lian": 15204, "archery": 21383, "[unused914]": 919, "fitted": 7130, "smoked": 20482, "##vie": 13469, "whites": 12461, "electronically": 28926, "[unused117]": 122, "nerve": 9113, "##\u0127": 29672, "coincidence": 16507, "##work": 6198, "1997": 2722, "##llary": 24435, "ropes": 14607, "hammond": 11309, "##mobile": 17751, "portrayal": 13954, "##ate": 3686, "lifting": 8783, "spartan": 20670, "lists": 7201, "##xin": 20303, "##\u6d77": 30428, "hay": 10974, "3": 1017, "considering": 6195, "helen": 6330, "purification": 28406, "1665": 27676, "ab": 11113, "transformed": 8590, "savings": 10995, "##|": 29641, "ro": 20996, "swung": 7671, "##\u30b7": 30232, "filtering": 22910, "abandonment": 22290, "enactment": 26465, "input": 7953, "##ium": 5007, "screenwriter": 11167, "[unused36]": 37, "agrees": 10217, "adrenaline": 14963, "men": 2273, "memorials": 22899, "rose": 3123, "tam": 17214, "crow": 11465, "wiping": 14612, "\u0995": 1353, "modified": 6310, "[unused691]": 696, "my": 2026, "pyrenees": 22696, "##:": 29627, "##orous": 25373, "focused": 4208, "latham": 28737, "reclaim": 24104, "##eak": 25508, "hormone": 18714, "surviving": 6405, "cream": 6949, "camille": 16675, "hillside": 18573, "##ifies": 14144, "miners": 11257, "##rch": 11140, "logs": 15664, "thwarted": 28409, "sulfate": 26754, "syndrome": 8715, "##\u0927": 29862, "saratoga": 23136, "antoine": 12445, "##hol": 14854, "trance": 16588, "wolves": 8588, "strangled": 21384, "source": 3120, "stricken": 16654, "bonding": 19882, "charcoal": 18872, "muscular": 13472, "invade": 18445, "agency": 4034, "portrays": 17509, "islamabad": 26905, "kilkenny": 17131, "##yan": 7054, "tack": 26997, "##itan": 25451, "stroked": 11699, "icc": 16461, "reel": 15934, "handle": 5047, "instant": 7107, "##ag": 8490, "networks": 6125, "towards": 2875, "ignited": 22395, "aware": 5204, "asbestos": 29191, "specially": 11974, "\u2ebc": 1633, "##est": 4355, "britten": 29429, "uppsala": 25720, "indicators": 20390, "##gata": 26589, "descendants": 8481, "shiva": 12535, "rounding": 26939, "disadvantaged": 27322, "leaks": 29324, "prefect": 19402, "spaced": 19835, "ahmad": 10781, "##imus": 19315, "seizure": 18634, "lyric": 13677, "ant": 14405, "lecture": 8835, "selector": 27000, "bruins": 18159, "dictionary": 9206, "respects": 17475, "equivalent": 5662, "##\u6b63": 30414, "##yman": 17906, "[unused679]": 684, "##\u305d": 30186, "##ller": 10820, "##riety": 27840, "dimitri": 15953, "lexington": 14521, "renewal": 14524, "grabbed": 4046, "retiring": 9150, "33": 3943, "decision": 3247, "\u7537": 1912, "launching": 12106, "[unused373]": 378, "slept": 7771, "institut": 17126, "f1": 20069, "cover": 3104, "glitter": 27566, "reacted": 14831, "[unused120]": 125, "galway": 14370, "illicit": 25049, "islands": 3470, "##\u0bbe": 29931, "say": 2360, "museums": 9941, "enemies": 6716, "##enna": 24397, "plotted": 27347, "military": 2510, "retention": 20125, "##lor": 10626, "donetsk": 29151, "relational": 28771, "cliff": 7656, "[unused570]": 575, "attribute": 17961, "##\u05d5": 29792, "janeiro": 11497, "v": 1058, "adding": 5815, "fine": 2986, "churning": 26765, "elevator": 7764, "favored": 12287, "[unused657]": 662, "mabel": 19486, "thumped": 28963, "stacked": 16934, "##sum": 17421, "larkin": 25570, "winery": 23910, "hive": 26736, "demolition": 12451, "##gill": 19791, "1934": 4579, "allan": 8926, "engaged": 5117, "ty": 5939, "felipe": 17095, "##kat": 24498, "campo": 22339, "hepatitis": 28389, "##yna": 18279, "\u09b7": 1375, "##dote": 23681, "##igate": 28731, "severed": 16574, "consolidated": 10495, "love": 2293, "##cr": 26775, "apart": 4237, "sprinter": 19938, "##oe": 8913, "##ritan": 25279, "[unused632]": 637, "##pressing": 24128, "reverted": 16407, "westphalia": 22952, "isabelle": 13942, "steals": 15539, "panicked": 16035, "similarity": 14402, "wrought": 18481, "einstein": 15313, "extras": 26279, "\u570b": 1800, "visionary": 28036, "delgado": 26532, "conjunction": 9595, "##\u208a": 30086, "proclaimed": 10116, "denton": 23906, "whoa": 23281, "##\u00bb": 29663, "caught": 3236, "reg": 19723, "congresses": 24460, "sahib": 23513, "rug": 20452, "statistical": 7778, "appointed": 2805, "ur": 24471, "kinase": 21903, "ripe": 22503, "cobra": 16604, "buys": 23311, "##que": 4226, "worn": 6247, "dome": 8514, "##tis": 7315, "peasant": 14539, "hidden": 5023, "##gm": 21693, "##inia": 23309, "francesco": 11400, "governor": 3099, "artefacts": 25762, "illustration": 14614, "[unused245]": 250, "hallway": 6797, "contributions": 5857, "##ride": 15637, "\u30ef": 1736, "caucasus": 16512, "##champ": 25450, "##neer": 19755, "bad": 2919, "prem": 26563, "expecting": 8074, "stretches": 14082, "adjunct": 20621, "ethanol": 22886, "mueller": 26774, "confess": 18766, "##\u798f": 30452, "looks": 3504, "justin": 6796, "assisting": 13951, "flyers": 16217, "blending": 23293, "[unused959]": 964, "##bn": 24700, "radios": 22229, "shutting": 17521, "rutherford": 18472, "offshore": 12195, "pod": 17491, "spence": 22186, "initially": 3322, "diesel": 7937, "desperate": 7143, "crowded": 10789, "turns": 4332, "emotions": 6699, "servicing": 26804, "rihanna": 25439, "less": 2625, "rouge": 12801, "\u0f60": 1433, "ramps": 24943, "visitor": 10367, "##ward": 7652, "##zard": 26154, "cola": 15270, "configuration": 9563, "dartmouth": 16960, "dodgers": 13391, "darmstadt": 28381, "##nikov": 22576, "##dance": 25514, "association": 2523, "carrying": 4755, "personally": 7714, "alike": 11455, "cones": 23825, "guarantee": 11302, "dies": 8289, "third": 2353, "insects": 9728, "disagreed": 18335, "nakamura": 23981, "barons": 21487, "racism": 14398, "fen": 21713, "bullock": 25200, "elevated": 8319, "moreno": 17921, "##eering": 20550, "truce": 18415, "##pes": 10374, "##makers": 12088, "cree": 27831, "licenses": 15943, "rescue": 5343, "alfonso": 13591, "##space": 23058, "##kala": 26907, "guardians": 14240, "hitch": 27738, "halves": 23672, "stereo": 12991, "\u8eca": 1954, "taxonomic": 27691, "educator": 11490, "neared": 20832, "##itis": 13706, "bridget": 19218, "express": 4671, "precision": 11718, "drafts": 28967, "##raf": 27528, "princess": 4615, "spores": 23763, "isolate": 27152, "occupants": 18837, "mural": 15533, "starboard": 25211, "##herton": 27949, "rebels": 8431, "waterloo": 13784, "##\u0dba": 29940, "spectacular": 12656, "rumored": 22710, "09": 5641, "honourable": 17164, "erica": 19295, "##gano": 29451, "##llation": 20382, "wee": 16776, "sabha": 11200, "##rai": 14995, "northampton": 15944, "flying": 3909, "\u0436": 1186, "##\u2286": 30138, "1913": 5124, "republished": 24476, "notified": 19488, "human": 2529, "reciprocal": 28309, "##ntation": 23436, "##mates": 15416, "peel": 14113, "consulted": 17535, "cooke": 16546, "cricket": 4533, "##oses": 27465, "##val": 10175, "surgeons": 16804, "weapons": 4255, "audit": 15727, "sailed": 7434, "supervised": 13588, "nothin": 24218, "vitro": 25714, "31st": 17089, "illegitimate": 18102, "[unused546]": 551, "chung": 15972, "basis": 3978, "complex": 3375, "hazard": 15559, "encore": 19493, "opt": 23569, "##\u00b6": 29660, "adaptation": 6789, "##rnet": 26573, "rob": 6487, "raised": 2992, "[unused760]": 765, "[unused904]": 909, "patel": 20455, "leith": 29011, "implemented": 7528, "##owa": 21293, "from": 2013, "##cast": 10526, "2002": 2526, "ask": 3198, "crashed": 8007, "[unused478]": 483, "spare": 8622, "sensitive": 7591, "hindus": 18221, "##ulo": 18845, "iced": 28248, "##ple": 10814, "prospective": 17464, "39": 4464, "investigates": 28062, "campuses": 13696, "mimi": 20705, "instruction": 7899, "saudi": 8174, "workforce": 14877, "christi": 21359, "##ctor": 16761, "bitterly": 19248, "reservoirs": 22535, "timber": 7227, "strokes": 13692, "[unused932]": 937, "##ose": 9232, "visit": 3942, "pulitzer": 17618, "##\u10d8": 29981, "lok": 13660, "il": 6335, "precise": 10480, "sovereign": 11074, "##xide": 19491, "##mus": 7606, "provocative": 26422, "consultative": 28581, "contractors": 16728, "imagine": 5674, "##\u9580": 30494, "awakening": 16936, "nightly": 22390, "indiana": 5242, "discussing": 10537, "thereof": 21739, "obscene": 27744, "exist": 4839, "argent": 23157, "contrasted": 22085, "concessions": 20638, "[unused963]": 968, "laced": 17958, "expensive": 6450, "galicia": 19017, "##ya": 3148, "zoe": 11199, "jeff": 5076, "learnt": 20215, "basics": 24078, "huff": 21301, "paterson": 19162, "kelly": 5163, "converge": 28314, "[unused882]": 887, "[unused939]": 944, "artemis": 19063, "tract": 12859, "cantonese": 22241, "panels": 9320, "indirect": 14958, "##utable": 23056, "jammed": 21601, "earn": 7796, "defeats": 14222, "[unused233]": 238, "fences": 21549, "##zz": 13213, "installed": 5361, "sequences": 10071, "cookie": 17387, "leak": 17271, "deux": 24756, "quintet": 18109, "##tism": 17456, "##tor": 4263, "formation": 4195, "\u963f": 1971, "deacon": 14845, "##cea": 21456, "wealthy": 7272, "como": 18609, "reduces": 13416, "plaza": 8232, "governments": 6867, "\u0bae": 1389, "\u2295": 1612, "etat": 17997, "infants": 16725, "##lle": 6216, "repealed": 21492, "conception": 13120, "stumbled": 9845, "[unused886]": 891, "leather": 5898, "mandela": 26887, "landowner": 20270, "##rds": 17811, "\u30e0": 1725, "##yle": 12844, "chewing": 17492, "newbury": 29457, "ceded": 19705, "praying": 14488, "peppers": 23582, "##ging": 4726, "clutching": 14197, "\u1d35": 1493, "releasing": 8287, "assyrian": 19950, "##dae": 6858, "ludwig": 10302, "ripping": 17039, "turbines": 17396, "rippled": 26862, "interception": 17385, "##\u5c07": 30354, "granite": 9753, "##\u207b": 30079, "wayne": 6159, "traffic": 4026, "pretended": 14688, "##hosh": 26643, "slater": 17916, "received": 2363, "hygiene": 19548, "##ello": 15350, "rector": 10935, "paralysis": 26287, "mate": 6775, "discussions": 10287, "##tam": 15464, "##ono": 17175, "fungus": 16622, "cultivated": 13237, "hobby": 17792, "##dor": 7983, "expo": 16258, "duc": 26363, "michel": 8709, "kai": 11928, "05": 5709, "apologies": 25380, "manhattan": 7128, "[unused928]": 933, "nu": 16371, "christina": 12657, "[unused806]": 811, "itself": 2993, "alley": 8975, "independents": 23756, "[unused783]": 788, "hail": 16889, "bulls": 12065, "\u0641": 1291, "...": 2133, "##werk": 29548, "##nob": 25083, "mused": 22335, "cora": 17195, "##tie": 9515, "provide": 3073, "\u20b9": 1576, "promoting": 7694, "##rley": 12866, "wesley": 11482, "controversies": 25962, "emblem": 16199, "##\u1110": 30003, "##romatic": 23645, "##pling": 14353, "walkway": 19467, "tt": 23746, "unmarked": 25779, "infrastructure": 6502, "russ": 18072, "smoothed": 17966, "courtyard": 10119, "nationalists": 17934, "relocate": 20102, "##ly": 2135, "scented": 25738, "monica": 9018, "garment": 19002, "##\u092a": 29864, "##\u1172": 30016, "might": 2453, "boardwalk": 29496, "cousin": 5542, "muslims": 7486, "attach": 22476, "service": 2326, "synonym": 10675, "official": 2880, "revelations": 22191, "suck": 11891, "510": 23475, "1809": 12861, "underneath": 7650, "airship": 27636, "630": 23609, "##bert": 8296, "genus": 3562, "##em": 6633, "included": 2443, "wider": 7289, "49": 4749, "[unused642]": 647, "tunic": 23002, "62": 5786, "camilla": 26902, "305": 20405, "stab": 17079, "descends": 23328, "1799": 13839, "delightful": 26380, "gunner": 14850, "##\u4f8d": 30291, "twitch": 19435, "group": 2177, "reacting": 24868, "chairman": 3472, "##uder": 29190, "mobilized": 27526, "macbeth": 25182, "yen": 18371, "[unused0]": 1, "remarried": 19316, "memorable": 13432, "bolshevik": 24477, "bryce": 19757, "isn": 3475, "mala": 28935, "motivated": 12774, "successor": 6332, "malaria": 19132, "drill": 12913, "junk": 18015, "training": 2731, "bland": 20857, "159": 18914, "unconventional": 23693, "glad": 5580, "encoded": 12359, "disasters": 18665, "##udes": 22087, "catalyst": 16771, "nervous": 6091, "ren": 14916, "kindergarten": 11793, "withdrawal": 10534, "##ape": 24065, "##vious": 24918, "israelis": 28363, "analogue": 21800, "invasions": 23536, "recurring": 10694, "palo": 24326, "cochin": 28982, "leaflets": 27306, "\u2c7c": 1631, "##kins": 14322, "reflected": 7686, "springer": 17481, "doom": 12677, "##ji": 4478, "thankful": 18836, "registers": 18687, "potion": 26722, "##iger": 17071, "speaks": 8847, "farmer": 7500, "\u044c": 1207, "coulter": 28293, "41": 4601, "phases": 12335, "256": 17273, "whispers": 11054, "classes": 4280, "peeking": 28222, "thought": 2245, "collaborating": 20295, "1666": 27407, "trader": 17667, "zane": 6944, "barbed": 25007, "initial": 3988, "directorial": 21635, "councillors": 13189, "siren": 19558, "rev": 7065, "##wright": 26460, "[unused501]": 506, "forbidden": 10386, "##zog": 28505, "harbor": 6496, "darcy": 17685, "greece": 5483, "endured": 16753, "facial": 13268, "spell": 6297, "repeating": 15192, "[unused974]": 979, "turing": 28639, "crewe": 22188, "counted": 8897, "captives": 21496, "greensboro": 27905, "dominican": 10104, "specify": 20648, "##rrick": 24999, "climates": 24734, "1st": 3083, "sanjay": 29590, "1914": 4554, "##coll": 26895, "sloan": 19024, "conserve": 27749, "natalie": 10829, "nodding": 11863, "sidewalk": 11996, "##jon": 14339, "[unused965]": 970, "grinding": 16153, "##mina": 22311, "[unused809]": 814, "intersects": 17349, "impact": 4254, "##ater": 24932, "##rative": 18514, "##ahl": 28083, "groom": 18087, "\u10d7": 1444, "dissolved": 8314, "nichols": 15746, "roche": 20162, "left": 2187, "dealers": 16743, "##pper": 18620, "1873": 7612, "##wn": 7962, "[unused468]": 473, "\u4eba": 1756, "##pate": 17585, "##nne": 10087, "clapton": 24705, "1967": 3476, "##mt": 20492, "##mouth": 14359, "yu": 9805, "##hat": 12707, "contemporaries": 16682, "planning": 4041, "##inski": 19880, "inventions": 21644, "xiang": 27735, "attends": 23933, "soared": 29127, "ale": 15669, "somali": 16831, "kits": 18628, "catch": 4608, "crouch": 21676, "argyll": 27365, "##iso": 19565, "##iga": 13340, "##missible": 26770, "stared": 3592, "piano": 3682, "agrarian": 23226, "##ulus": 11627, "pools": 12679, "eyebrows": 8407, "##ding": 4667, "graz": 26918, "1723": 26621, "##elia": 13902, "dates": 5246, "untouched": 22154, "paused": 5864, "##cuit": 28168, "adaptations": 17241, "##elli": 13348, "nell": 20970, "retro": 22307, "##\uff08": 30513, "burmese": 14468, "administrative": 3831, "mirage": 21483, "##ppel": 27877, "woodland": 11051, "incomes": 29373, "lam": 16983, "##ila": 11733, "indefinite": 25617, "##pins": 27915, "heartland": 27399, "grimly": 22561, "opponent": 7116, "##\u0575": 29777, "da": 4830, "1940": 3878, "abbott": 14455, "parlor": 18746, "aground": 29406, "fitzroy": 21870, "descent": 6934, "[unused992]": 997, "##lal": 13837, "lay": 3913, "delicately": 28814, "weathered": 28445, "curtiss": 26431, "supported": 3569, "kuwait": 13085, "paw": 22195, "herr": 23506, "106": 10114, "empty": 4064, "send": 4604, "##xes": 20156, "tilted": 9939, "programme": 4746, "maj": 16686, "sadly": 13718, "##atus": 15590, "baptist": 7550, "handheld": 27291, "homogeneous": 24854, "boulevard": 8459, "manifestation": 24491, "samuel": 5212, "\u0987": 1349, "floods": 14295, "##pala": 19636, "mario": 7986, "hurts": 13403, "sphere": 10336, "tangent": 27250, "productions": 5453, "##pods": 22925, "congressman": 12295, "upgrading": 25925, "mp3": 23378, "incredible": 9788, "disclosed": 21362, "progressively": 20519, "helpful": 14044, "##aman": 23093, "transfers": 15210, "amalgamation": 21968, "random": 6721, "2019": 10476, "allies": 6956, "newtown": 26382, "witchcraft": 21599, "nano": 28991, "preventing": 10723, "alcohol": 6544, "raked": 22438, "ricky": 11184, "silently": 8601, "##\u092c": 29865, "triple": 6420, "##biotic": 26591, "##\u30ec": 30260, "romeo": 12390, "pads": 19586, "\u6ca2": 1898, "indices": 29299, "sensation": 8742, "enslaved": 22216, "\u05d4": 1245, "airways": 13095, "consistency": 18700, "essendon": 25149, "##imated": 20592, "ponder": 29211, "pp": 4903, "cure": 9526, "judy": 12120, "##heads": 13038, "crucial": 10232, "banker": 13448, "noir": 15587, "band": 2316, "sociological": 24846, "useless": 11809, "##\u00bc": 29664, "rhythms": 17900, "blockbuster": 27858, "excitement": 8277, "dempsey": 28165, "silvio": 28107, "prayed": 14283, "myself": 2870, "launched": 3390, "##yar": 13380, "municipality": 3250, "[unused455]": 460, "aura": 15240, "tri": 13012, "trail": 4446, "capture": 5425, "extraordinary": 9313, "hind": 17666, "224": 19711, "\u00b9\u2044\u2082": 18728, "hurdle": 27630, "minimum": 6263, "governing": 8677, "##via": 9035, "attract": 9958, "choosing": 10549, "motorcycles": 18580, "tanker": 20135, "prior": 3188, "signal": 4742, "##ight": 18743, "larvae": 9673, "dam": 5477, "1715": 22606, "memo": 24443, "##\u5e78": 30367, "universally": 21186, "##fen": 18940, "##bian": 15599, "communications": 4806, "wembley": 16538, "con": 9530, "stuffing": 28652, "exponential": 27258, "johannesburg": 15976, "190": 11827, "tunes": 13281, "##als": 9777, "backs": 10457, "musa": 23154, "alessandro": 17956, "##\u6708": 30398, "heated": 9685, "redhead": 26705, "moist": 11052, "pausing": 20490, "covering": 5266, "##\u662d": 30394, "10th": 6049, "relates": 14623, "##bbe": 19473, "paperback": 13611, "238": 22030, "##breakers": 27623, "##mare": 24376, "\u308a": 1686, "##eh": 11106, "grandma": 13055, "fighting": 3554, "compassionate": 29353, "limiting": 14879, "pinnacle": 26007, "lawsuit": 9870, "rusty": 13174, "ravine": 23188, "arising": 17707, "icao": 18055, "cullen": 19925, "sulawesi": 29078, "##\u10e1": 29988, "scent": 6518, "cs": 20116, "depends": 9041, "alpine": 10348, "##\u0645": 22192, "horrors": 22812, "##izan": 27334, "1682": 29478, "mine": 3067, "philosophers": 17586, "[unused966]": 971, "managerial": 24465, "[unused312]": 317, "readings": 15324, "##inations": 22045, "fiat": 18550, "buenos": 9204, "##dom": 9527, "shop": 4497, "angrily": 14136, "metres": 3620, "pines": 17527, "continuum": 22961, "##section": 29015, "butcher": 14998, "warning": 5432, "coup": 8648, "##m": 2213, "ports": 8831, "1831": 10937, "install": 16500, "##uous": 8918, "fantastic": 10392, "dickson": 22076, "notices": 14444, "##57": 28311, "oblique": 20658, "\u0ca8": 1400, "researches": 27338, "hal": 11085, "landowners": 20152, "##ule": 9307, "animator": 25132, "morality": 16561, "adaptive": 19293, "1860s": 15914, "nails": 10063, "##\u6c38": 30422, "again": 2153, "##tour": 21163, "jefferson": 7625, "abd": 19935, "fewer": 8491, "object": 4874, "rhapsody": 29395, "cy": 22330, "tor": 17153, "monique": 26194, "splitting": 14541, "plato": 18858, "\u3053": 1655, "at": 2012, "besides": 4661, "dune": 21643, "phone": 3042, "fountains": 23497, "##mar": 7849, "hoax": 28520, "##ught": 18533, "##\u0e19": 29949, "colton": 21000, "upstate": 29530, "consortium": 12360, "niagara": 15473, "##\u00a3": 29646, "##mour": 20360, "249": 23628, "##lous": 15534, "##rno": 19139, "vanuatu": 27625, "sidewalks": 28386, "patio": 19404, "yorkshire": 7018, "vu": 24728, "mystery": 6547, "machinery": 10394, "antigua": 26023, "331": 27533, "crimea": 21516, "\u5b9a": 1822, "##\u00a4": 29647, "grandparents": 14472, "atv": 29108, "manila": 9011, "convenient": 14057, "##pt": 13876, "##sities": 24279, "ripley": 25231, "insanity": 19272, "##rson": 17753, "collections": 6407, "firstly": 15847, "midlands": 13256, "tai": 13843, "inexpensive": 23766, "[unused435]": 440, "specialized": 7772, "[unused684]": 689, "bedrock": 28272, "agnes": 11166, "bragg": 23678, "influenza": 24442, "##uded": 13936, "originates": 16896, "turret": 14493, "##ra\u00dfe": 27807, "shoving": 15866, "##{": 29640, "sorry": 3374, "laude": 21602, "josef": 12947, "bran": 24905, "sake": 8739, "coma": 16571, "passive": 13135, "belongs": 7460, "modeling": 11643, "culminated": 16943, "whore": 17219, "##gical": 26715, "toledo": 13163, "beautiful": 3376, "hip": 5099, "demons": 7942, "hurried": 9520, "launch": 4888, "tells": 4136, "##ference": 25523, "transplant": 22291, "apron": 20376, "coinage": 25396, "[unused87]": 88, "rebecca": 9423, "fright": 25966, "bitterness": 22364, "surround": 15161, "##otted": 26174, "##keepers": 24764, "recognizes": 14600, "salty": 23592, "##ept": 23606, "speeches": 13867, "club": 2252, "disputes": 11936, "##ky": 4801, "airplay": 15341, "breuning": 18177, "exiles": 27127, "##wave": 16535, "aided": 11553, "mortality": 13356, "bright": 4408, "visions": 12018, "isolation": 12477, "encourages": 16171, "across": 2408, "neutron": 20393, "prosecution": 11537, "soundtracks": 24245, "mccoy": 16075, "hiring": 14763, "rumbled": 22257, "johnson": 3779, "royalist": 20796, "securities": 12012, "luke": 5355, "album": 2201, "campaign": 3049, "compiling": 21953, "beaver": 13570, "ira": 11209, "##yuan": 17236, "relieve": 15804, "treasures": 17605, "establish": 5323, "##cite": 17847, "hop": 6154, "enough": 2438, "##eses": 23072, "nor": 4496, "48": 4466, "single": 2309, "##ead": 13775, "divorce": 8179, "follow": 3582, "fuller": 12548, "##\u2016": 30054, "[unused793]": 798, "plasma": 12123, "rayon": 26810, "connacht": 27062, "printer": 15041, "\u0563": 1221, "gunn": 22079, "subdivided": 15369, "sprawling": 24199, "banquet": 19032, "scars": 13521, "electors": 19165, "scholarly": 12683, "##gon": 7446, "##rgan": 16998, "concerned": 4986, "pots": 18911, "gmbh": 18289, "unused": 15171, "incredibly": 11757, "expenditure": 20700, "##\u6c5f": 30423, "teaming": 27025, "iron": 3707, "opted": 12132, "kenneth": 8856, "##izes": 10057, "contributed": 5201, "colonial": 5336, "[unused190]": 195, "burials": 23109, "##oic": 19419, "oxygen": 7722, "fran": 23151, "##lem": 16930, "[unused856]": 861, "skinner": 17451, "presenting": 10886, "traveled": 6158, "heroin": 19690, "2000s": 8876, "leicestershire": 20034, "[unused424]": 429, "headlines": 19377, "soloists": 27516, "alta": 23647, "ang": 17076, "retaliation": 18695, "penguins": 18134, "ut": 21183, "concrete": 5509, "##building": 25820, "anders": 15387, "constellation": 15300, "measured": 7594, "casket": 25864, "elbows": 13690, "##shi": 6182, "lucha": 25390, "##ratic": 23671, "##ten": 6528, "##nction": 27989, "pursuant": 27081, "##feng": 24383, "matt": 4717, "macedonian": 13037, "headquartered": 9403, "necks": 26082, "marriage": 3510, "blackish": 22032, "##df": 20952, "corsica": 27047, "saturdays": 18860, "volta": 26089, "sometime": 8811, "ended": 3092, "##\u2089": 30085, "gaps": 16680, "[unused906]": 911, "hampshire": 7035, "copyright": 9385, "disdain": 25134, "portray": 17279, "teaches": 12011, "assent": 27195, "255": 20637, "messiah": 22112, "experiences": 6322, "elderly": 9750, "receiver": 8393, "hobbs": 23748, "##opers": 27342, "##orn": 9691, "shorter": 7820, "ga": 11721, "##ignment": 24838, "52nd": 26898, "##bio": 26282, "late": 2397, "##col": 25778, "adherence": 29235, "indo": 11424, "solar": 5943, "##hs": 7898, "[unused871]": 876, "englishman": 25244, "1982": 3196, "ski": 8301, "##iva": 11444, "zhao": 15634, "ud": 20904, "mainland": 8240, "mythological": 21637, "every": 2296, "centrally": 25497, "linguist": 22978, "vikings": 13468, "fixtures": 17407, "flee": 10574, "gettysburg": 22577, "samples": 8168, "rhys": 13919, "systemic": 22575, "reefs": 21484, "winger": 16072, "monarchs": 19799, "pam": 14089, "bibliography": 24751, "##overs": 24302, "survivors": 8643, "mutiny": 19306, "sanctuary": 8493, "bingo": 27137, "dc": 5887, "problems": 3471, "retribution": 25928, "que": 10861, "begs": 27591, "##ning": 5582, "obe": 15578, "advantages": 12637, "1951": 4131, "weight": 3635, "cowboy": 11762, "##\u53e4": 30315, "##sky": 5874, "harbour": 7440, "florence": 7701, "hostages": 19323, "chances": 9592, "shareholder": 18668, "##\u5fc3": 30375, "nicola": 17388, "12": 2260, "shooters": 28310, "vehicle": 4316, "[unused802]": 807, "teaser": 27071, "velvet": 10966, "\u3092": 1690, "\u092c": 1329, "pair": 3940, "renovation": 10525, "kowalski": 28874, "clip": 12528, "##week": 28075, "adventure": 6172, "[unused106]": 111, "revue": 17480, "nt": 23961, "prison": 3827, "analytics": 25095, "diagnosed": 11441, "burst": 6532, "devices": 5733, "relation": 7189, "natalia": 21521, "lowe": 14086, "rf": 21792, "authored": 8786, "##\u1d2c": 30026, "sarah": 4532, "friend": 2767, "pierre": 5578, "##tu": 8525, "sincere": 18006, "anand": 18887, "##\u592a": 30338, "smackdown": 22120, "[unused507]": 512, "##sville": 9337, "[unused807]": 812, "nintendo": 10022, "organisms": 11767, "cheekbones": 27181, "inner": 5110, "emancipation": 22656, "flinch": 23224, "##las": 8523, "count": 4175, "stalin": 13125, "dots": 14981, "##dda": 25062, "##thic": 23048, "complexity": 11619, "hovered": 18190, "cancel": 17542, "ua": 25423, "##rg": 10623, "country": 2406, "shitty": 28543, "mortgage": 14344, "helmets": 22674, "[unused264]": 269, "extravagant": 27856, "curb": 13730, "##hani": 23573, "ware": 16283, "[unused291]": 296, "theoretical": 9373, "champs": 29008, "##gy": 6292, "messing": 22308, "mundane": 24684, "absence": 6438, "voltage": 10004, "\u30e5": 1729, "##\u30ca": 30241, "models": 4275, "[unused559]": 564, "[unused94]": 95, "cordoba": 17986, "feathers": 12261, "muttering": 22581, "denny": 14465, "panzer": 16946, "supervising": 21238, "liquidation": 28763, "dvds": 22477, "blitz": 22312, "##puram": 17809, "scrolling": 28903, "according": 2429, "dams": 17278, "##sco": 9363, "wars": 5233, "everett": 15160, "##rave": 22401, "[unused226]": 231, "##mic": 7712, "attended": 3230, "##lter": 21928, "serra": 22737, "certification": 10618, "##\u1103": 29993, "cote": 17155, "on": 2006, "##itz": 8838, "##\u5bae": 30350, "kidnapping": 15071, "spear": 12341, "irene": 12855, "1992": 2826, "seems": 3849, "##\u5b50": 30342, "71": 6390, "reviewers": 15814, "##tr": 16344, "drummer": 7101, "##points": 26521, "\u68ee": 1882, "something": 2242, "##core": 17345, "unbelievable": 23653, "abduction": 23415, "catalina": 22326, "##rove": 17597, "##notes": 20564, "##oes": 22504, "asset": 11412, "rasped": 28459, "assists": 8456, "grandpa": 15310, "##osomal": 27642, "phrases": 15672, "aberdeen": 12080, "##\u57ce": 30330, "##phila": 26083, "freestyle": 9817, "arises": 18653, "illuminating": 27816, "cop": 8872, "65": 3515, "saxophone": 8283, "gaunt": 27534, "sentai": 28650, "##titles": 27430, "corpses": 18113, "arabic": 5640, "proponent": 22488, "pantheon": 24152, "##nus": 10182, "mathematics": 5597, "[unused315]": 320, "eng": 25540, "##at": 4017, "soto": 22768, "##eve": 18697, "\u53e3": 1788, "ti": 14841, "[unused756]": 761, "popularized": 20339, "detonated": 28110, "town": 2237, "rear": 4373, "alien": 7344, "sheldon": 19369, "bookstore": 21785, "bribery": 27748, "##ppet": 29519, "labeled": 12599, "affecting": 12473, "[unused645]": 650, "##board": 6277, "zen": 16729, "ashamed": 14984, "makers": 11153, "each": 2169, "overdose": 26641, "##phy": 21281, "##ality": 23732, "categories": 7236, "yoga": 13272, "bled": 23919, "borrowed": 11780, "valor": 27314, "##\u5f35": 30370, "pandit": 29331, "laboratory": 5911, "wins": 5222, "explicitly": 12045, "closest": 7541, "perennial": 14638, "surveillance": 9867, "##imeters": 28136, "\u300d": 1642, "ousted": 28368, "knotted": 27039, "cardiff": 10149, "ashore": 16145, "vary": 8137, "revolutionary": 6208, "collective": 7268, "##gold": 21270, "##ppa": 13944, "[unused154]": 159, "uneasy": 15491, "mann": 10856, "events": 2824, "lexi": 16105, "emergency": 5057, "##cu": 10841, "##llah": 18599, "##race": 22903, "clockwise": 22839, "wei": 11417, "html": 16129, "and": 1998, "bazaar": 22774, "valuation": 26004, "\u9580": 1968, "bombs": 9767, "hertfordshire": 18889, "##onia": 12488, "vienna": 6004, "jeremy": 7441, "sophomore": 13758, "reece": 24227, "ai": 9932, "shouldered": 29383, "johor": 25268, "bodyguards": 25681, "acquired": 3734, "leonid": 27316, "barangay": 20937, "respect": 4847, "##zong": 13150, "treat": 7438, "sociology": 11507, "dimension": 9812, "briefcase": 21793, "deepened": 20183, "##\u00a7": 29650, "cyprus": 9719, "##cm": 27487, "##list": 9863, "beetles": 14538, "nyc": 16392, "conclusion": 7091, "atheist": 23503, "captain": 2952, "into": 2046, "paranoia": 27890, "renew": 20687, "nate": 8253, "hallways": 28274, "estuary": 18056, "remake": 12661, "nike": 18368, "rave": 23289, "substantially": 12381, "luggage": 17434, "expenditures": 22697, "dispose": 27764, "julien": 19290, "##itic": 18291, "georgian": 9166, "172": 18253, "made": 2081, "defendant": 13474, "blizzard": 21689, "maris": 23787, "##zoo": 23221, "245": 21005, "omar": 13192, "##rook": 25399, "swedish": 4467, "solemnly": 26294, "##uated": 16453, "##\u090f": 29850, "##oting": 20656, "output": 6434, "puppet": 13997, "##enes": 28553, "georgetown": 12982, "bohemian": 18063, "marcos": 14810, "unicef": 29073, "php": 25718, "grounded": 16764, "touching": 7244, "athlete": 8258, "defamation": 27652, "emphasis": 7902, "involve": 9125, "ellie": 10707, "##iza": 21335, "##\u0e01": 29945, "ferdinand": 9684, "obstruction": 27208, "irrigation": 12442, "townships": 13991, "bloody": 6703, "borders": 6645, "pasture": 20787, "mixer": 23228, "crop": 10416, "1750": 18171, "##bird": 9001, "##arte": 24847, "newcomer": 16866, "twinned": 25901, "##\u516c": 30298, "##\u10d9": 29982, "advantage": 5056, "stride": 18045, "enormous": 8216, "kiss": 3610, "quarrel": 26260, "zimmerman": 27946, "rabbit": 10442, "tin": 9543, "regarded": 5240, "loretta": 28493, "anna": 4698, "diseases": 7870, "eighties": 27690, "glider": 18788, "dangerously": 20754, "emission": 15760, "southeast": 4643, "trustee": 13209, "##34": 22022, "##hm": 14227, "synchronized": 25549, "##ggio": 20650, "braid": 24148, "feeds": 14172, "1939": 3912, "refusal": 13948, "interred": 13917, "severely": 8949, "durable": 25634, "taluk": 23140, "\u09b2": 1373, "scrapped": 14553, "rockefeller": 16696, "flotilla": 17150, "ultrasound": 27312, "fronted": 23291, "##gles": 17125, "convened": 19596, "[unused709]": 714, "legendary": 8987, "##\u11b8": 30024, "\u66f2": 1870, "animals": 4176, "##vyn": 23487, "stepped": 3706, "##mming": 25057, "botanical": 13194, "metz": 24424, "patriots": 11579, "usable": 24013, "sociologist": 25106, "reclaimed": 23119, "handgun": 28497, "##\u094b": 29879, "bernstein": 18862, "1940s": 7675, "accounts": 6115, "property": 3200, "30": 2382, "##\u0e07": 29946, "riverside": 12497, "sour": 14768, "##aar": 26526, "vacuum": 11641, "wisconsin": 5273, "benedict": 12122, "##fb": 26337, "patterson": 12424, "dorothy": 9984, "anyway": 4312, "confront": 14323, "cracked": 9630, "simpler": 16325, "##formed": 29021, "catastrophe": 25539, "risk": 3891, "versatile": 22979, "mindanao": 23669, "##vant": 18941, "prevent": 4652, "admiration": 17005, "prepared": 4810, "correctly": 11178, "depending": 5834, "##oslav": 23085, "rustic": 27471, "[unused985]": 990, "[unused341]": 346, "\u0192": 1108, "told": 2409, "dahl": 27934, "pouch": 21445, "thereby": 8558, "##b": 2497, "cochran": 28506, "elementary": 4732, "km": 2463, "rot": 18672, "##olt": 27914, "supposed": 4011, "vet": 29525, "ratification": 27369, "monsoon": 19183, "##osi": 20049, "landmark": 8637, "##udi": 21041, "shrub": 15751, "##oit": 28100, "coastal": 5780, "##pine": 19265, "onboard": 27120, "sunset": 10434, "participants": 6818, "telecommunications": 12108, "oricon": 22237, "aleppo": 22973, "[unused686]": 691, "engravings": 28611, "beginnings": 16508, "##stand": 21515, "melvin": 20993, "\u25a0": 1617, "##nic": 8713, "overturned": 17068, "cher": 24188, "beer": 5404, "range": 2846, "\u5149": 1770, "disruption": 20461, "restore": 9239, "annabelle": 24722, "kala": 26209, "coca": 16787, "##oons": 27174, "##\u043e": 14150, "confidently": 28415, "##mberg": 29084, "auf": 21200, "gillian": 22358, "sammy": 14450, "\u7af9": 1933, "pickering": 27078, "##rich": 13149, "327": 28469, "dei": 14866, "bottled": 26071, "relinquished": 26566, "##open": 26915, "engraving": 23501, "\u0444": 1199, "engined": 21235, "##gins": 16529, "motel": 14901, "##vine": 20534, "levine": 17780, "reign": 5853, "sucking": 13475, "r": 1054, "##lich": 18337, "##ental": 21050, "income": 3318, "broke": 3631, "reservoir": 8071, "bay": 3016, "slowing": 18068, "marrow": 24960, "1762": 20827, "##tee": 17389, "trafford": 26894, "bang": 9748, "##\u02e1": 29716, "80": 3770, "##15": 16068, "landscaping": 28404, "powell": 8997, "pledged": 16970, "chief": 2708, "sawmill": 24744, "whitehall": 28361, "lumpur": 17761, "modeled": 14440, "emmanuel": 14459, "cockpit": 13828, "##lina": 13786, "cowboys": 11666, "##media": 16969, "unesco": 12239, "jersey": 3933, "\u30a8": 1698, "bellamy": 25544, "feature": 3444, "[unused467]": 472, "\u2084": 1551, "realms": 18814, "vertices": 18984, "saved": 5552, "materialized": 27075, "trade": 3119, "emperors": 19655, "pages": 5530, "##led": 3709, "wires": 14666, "##dant": 28210, "##agger": 27609, "chili": 20238, "card": 4003, "checking": 9361, "granny": 19794, "exactly": 3599, "negotiating": 18875, "democracy": 7072, "##vos": 19862, "##rta": 13320, "emerging": 8361, "##fahan": 28975, "bandwidth": 20235, "enclosure": 17539, "stephenson": 19789, "crambidae": 21585, "peaceful": 9379, "periodical": 21802, "lending": 18435, "formats": 11630, "##ddy": 14968, "##\u03b7\u03c2": 29155, "brush": 8248, "blazing": 17162, "sesame": 23605, "-": 1011, "chao": 22455, "##ss": 4757, "##\u043c": 29745, "situation": 3663, "bloomfield": 25584, "rani": 21617, "##eto": 18903, "reproductive": 15124, "trout": 13452, "reconcile": 21063, "##vron": 28588, "pedersen": 27409, "mansfield": 15352, "##bles": 13510, "hostilities": 17601, "##eptive": 22048, "boring": 11771, "upon": 2588, "servants": 8858, "existing": 4493, "auschwitz": 24363, "mississippi": 5900, "afterlife": 25115, "husky": 18758, "dissatisfaction": 28237, "treasurer": 10211, "critics": 4401, "overthrow": 16857, "##itive": 13043, "nodded": 3368, "mornings": 16956, "jessie": 10934, "upgrade": 12200, "pink": 5061, "palmer": 8809, "##gence": 17905, "wheat": 10500, "enabling": 12067, "##vitt": 28656, "##channel": 26058, "satisfied": 8510, "opening": 3098, "##rol": 13153, "twists": 21438, "idiot": 10041, "##\u266d": 24102, "bird": 4743, "efficient": 8114, "[unused578]": 583, "string": 5164, "occur": 5258, "bianca": 18051, "valid": 9398, "etc": 4385, "supremacy": 22006, "sachs": 22818, "friction": 15012, "[unused344]": 349, "##tet": 22513, "altogether": 10462, "klein": 12555, "33rd": 20883, "serviced": 22858, "sampled": 18925, "nursery": 13640, "49th": 25726, "baylor": 23950, "charts": 6093, "[unused635]": 640, "##mona": 21781, "organ": 5812, "compound": 7328, "accent": 9669, "reasons": 4436, "delhi": 6768, "1783": 15331, "chewed": 18362, "##\u661f": 30392, "delegate": 11849, "##stems": 29189, "merritt": 26701, "projectile": 25921, "finding": 4531, "##he": 5369, "verify": 20410, "armstrong": 9143, "rhineland": 21640, "dominique": 18165, "insert": 19274, "air": 2250, "period": 2558, "len": 18798, "fabric": 8313, "##mbo": 13344, "darwin": 11534, "suffered": 4265, "yusuf": 23495, "countdown": 18144, "noteworthy": 19144, "scrape": 26988, "[unused473]": 478, "lao": 18805, "2010": 2230, "sabine": 18578, "##yi": 10139, "grady": 19011, "salisbury": 13817, "frequency": 6075, "congregation": 7769, "divert": 27345, "teaching": 4252, "\u0985": 1347, "weekdays": 19759, "province": 2874, "obtaining": 11381, "##fer": 7512, "realistic": 12689, "breed": 8843, "##80": 17914, "relieved": 7653, "wrists": 12150, "darrell": 23158, "##\u026a": 29685, "honey": 6861, "armed": 4273, "clover": 25133, "handcuffs": 28338, "\u30ed": 1735, "jews": 5181, "neolithic": 19061, "cardinals": 9310, "shale": 18488, "\u2078": 1542, "\u2075": 1539, "engulfed": 24692, "protestant": 8330, "presses": 14616, "tabloid": 24173, "\u043c": 1191, "##town": 4665, "##\u8fb6": 30482, "energy": 2943, "##ures": 14900, "##ttered": 14795, "ministerial": 18645, "\u0446": 1201, "raider": 27826, "hen": 21863, "isa": 18061, "tangle": 24453, "accompaniment": 22205, "buddhist": 7992, "william": 2520, "gardens": 5822, "id": 8909, "electronic": 4816, "transgender": 16824, "froze": 10619, "[unused528]": 533, "cheat": 21910, "##lice": 13231, "equally": 8053, "##grade": 24170, "aunt": 5916, "chieftain": 26625, "dawn": 6440, "crops": 8765, "##titled": 21309, "miracle": 9727, "fair": 4189, "mg": 11460, "##meral": 28990, "##strel": 26877, "##yla": 23943, "dim": 11737, "reactive": 22643, "appears": 3544, "\u5ddd": 1835, "pri": 26927, "plead": 25803, "dwyer": 29394, "##sus": 13203, "levels": 3798, "\u1169": 1475, "1793": 12387, "##\u793e": 30450, "blazed": 25590, "garden": 3871, "melted": 12501, "1825": 11384, "310": 17196, "cores": 25562, "##torium": 24390, "archaeologists": 19254, "supervisor": 12366, "##\u624c": 30385, "fallon": 16443, "inhibition": 23586, "shattered": 10909, "brodie": 27379, "billboard": 4908, "ancient": 3418, "mushrooms": 23827, "nw": 22064, "[unused387]": 392, "regina": 12512, "russia": 3607, "swaying": 21826, "l": 1048, "##\u0440": 16856, "prospects": 16746, "construct": 9570, "advancing": 10787, "journey": 4990, "organising": 21317, "guessing": 16986, "##scan": 29378, "##ty": 3723, "fontana": 27182, "communities": 4279, "##lier": 14355, "cared": 8725, "splits": 19584, "facility": 4322, "newly": 4397, "##mur": 20136, "[unused803]": 808, "robbie": 12289, "[unused355]": 360, "ipad": 25249, "##phones": 19093, "##clusive": 23633, "strange": 4326, "hospice": 29277, "marks": 6017, "tragedy": 10576, "pitchers": 23232, "arthur": 4300, "paisley": 23321, "secular": 10644, "carly": 18431, "[unused704]": 709, "##\u30a1": 30218, "absorbed": 9063, "cutter": 16343, "mateo": 19327, "nick": 4172, "reich": 14365, "\u0932": 1334, "brooding": 28902, "contender": 20127, "paxton": 27765, "harvey": 7702, "##lassified": 24938, "repertory": 21099, "\u116a": 1476, "compounds": 10099, "melee": 27868, "##anus": 20849, "satisfaction": 9967, "mojo": 28017, "##log": 21197, "cho": 16480, "##ore": 5686, "##trix": 29184, "michelle": 9393, "barren": 20225, "aviation": 5734, "mysore": 20761, "demonic": 23170, "##\u0f60": 29969, "##\u043a": 23925, "##\u00d7": 26306, "##aith": 22465, "taliban": 16597, "irony": 19728, "griffith": 14135, "mini": 7163, "coleman": 11608, "befriended": 23386, "kaye": 23686, "##\u2020": 30061, "basalt": 26343, "reuters": 26665, "palma": 23985, "accuse": 26960, "nikolay": 28494, "anime": 8750, "kristina": 28802, "delegation": 10656, "migrant": 20731, "prefer": 9544, "##\u02b2": 29707, "##ct": 6593, "stuff": 4933, "flanks": 23547, "forth": 5743, "##ern": 11795, "unharmed": 28150, "arise": 13368, "[unused941]": 946, "vault": 11632, "yearly": 12142, "dakota": 7734, "juliette": 24696, "[unused510]": 515, "crimean": 20516, "replies": 14054, "lucas": 6326, "organizing": 10863, "explodes": 27583, "plainly": 24250, "smiled": 3281, "elliptical": 27213, "concludes": 14730, "laughed": 4191, "rings": 7635, "##gpur": 25758, "\u2228": 1603, "smirk": 15081, "traditional": 3151, "##ema": 14545, "overtook": 28920, "privileged": 21598, "poets": 9736, "ethan": 6066, "winged": 14462, "departments": 7640, "ravens": 17272, "argentina": 5619, "likes": 7777, "ultraviolet": 26299, "paved": 12308, "##arty": 23871, "moran": 17866, "comrades": 19033, "catholics": 10774, "oppose": 15391, "hatred": 11150, "pops": 16949, "schooner": 21567, "genetically": 19345, "##nted": 14706, "\u30b1": 1703, "sale": 5096, "##rians": 23543, "nail": 13774, "annum": 28907, "experiment": 7551, "##\u5b97": 30347, "copper": 6967, "\u044e": 1209, "plane": 4946, "##lins": 24412, "toronto": 4361, "##kari": 20224, "organised": 7362, "\u51fa": 1774, "propped": 16863, "##athan": 29246, "dismounted": 29580, "adults": 6001, "antoinette": 28429, "215": 17405, "navigator": 20532, "ether": 28855, "wing": 3358, "throwing": 6886, "##utus": 23998, "boating": 23639, "develop": 4503, "241": 22343, "dislike": 18959, "##\u0915": 29851, "imprisonment": 10219, "##ril": 15928, "osman": 28609, "slowed": 9784, "##lock": 7878, "keller": 16155, "vin": 19354, "illusion": 12492, "murdering": 21054, "[unused86]": 87, "wards": 11682, "gastropod": 10953, "trailing": 12542, "##46": 21472, "\u0649": 1299, "[unused984]": 989, "180": 8380, "inception": 12149, "\u22c5": 1614, "viewer": 13972, "##oia": 25463, "ae": 29347, "napkin": 20619, "fitz": 27706, "amplifier": 22686, "pacific": 3534, "temptation": 17232, "jacksonville": 13057, "el": 3449, "##aged": 18655, "##oteric": 29112, "obsidian": 29042, "manufacturing": 5814, "retail": 7027, "##\u8033": 30463, "found": 2179, "skeleton": 13526, "##fect": 25969, "leap": 11679, "nazi": 6394, "traveling": 7118, "stucco": 27443, "minerva": 27383, "newscasts": 24482, "##vani": 27760, "podium": 14502, "##xley": 20959, "max": 4098, "##tier": 17579, "##heimer": 18826, "cited": 6563, "wagner": 10304, "guaranteed": 12361, "##\u4e3b": 30273, "acc": 16222, "[unused241]": 246, "##neo": 23585, "amounts": 8310, "##arding": 29154, "commits": 27791, "cooperative": 10791, "[unused285]": 290, "life": 2166, "baha": 13253, "[unused243]": 248, "perfection": 15401, "reeves": 17891, "sunrise": 13932, "ll": 2222, "\u9577": 1967, "worm": 15485, "##pool": 16869, "loft": 19459, "shuffle": 23046, "faux": 29276, "pedal": 15749, "\u30de": 1723, "##wad": 26016, "pei": 26850, "printing": 8021, "lu": 11320, "coughing": 21454, "##ulio": 24825, "segunda": 19071, "piled": 17835, "##basket": 25351, "historia": 19891, "elisa": 29490, "oleg": 25841, "hate": 5223, "paralympic": 17029, "sumo": 28193, "arose": 10375, "##minating": 27932, "selma": 28112, "assure": 14306, "doyle": 11294, "[unused71]": 72, "\u540c": 1794, "division": 2407, "hoop": 27669, "fey": 23864, "##any": 19092, "big": 2502, "feminism": 20050, "blackout": 26717, "rope": 8164, "shoreline": 17721, "adorned": 19189, "elites": 27021, "##\u03c9": 29739, "##por": 17822, "stripping": 23987, "maddie": 17805, "##dal": 9305, "higgins": 13466, "gloria": 10778, "haifa": 21303, "##piece": 11198, "pioneering": 13280, "grammatical": 24402, "socket": 22278, "das": 8695, "dependent": 7790, "earl": 4656, "##mism": 26725, "retreat": 7822, "clue": 9789, "latino": 7402, "deafening": 28840, "enforcement": 7285, "##mento": 23065, "rods": 19485, "##\u1161": 30006, "##cius": 25393, "worth": 4276, "assist": 6509, "afrikaans": 28673, "aging": 12520, "[unused47]": 48, "##og": 8649, "avalanche": 18846, "##sham": 21010, "celebration": 7401, "memorabilia": 28663, "\u694a": 1883, "racist": 16939, "sweet": 4086, "##rdy": 17460, "remy": 22712, "##reate": 29313, "denise": 15339, "moan": 13673, "bertha": 25079, "cfa": 28125, "##bing": 10472, "beauty": 5053, "##eti": 20624, "illustrating": 28252, "inaccurate": 24949, "perry": 6890, "1865": 6725, "asiatic": 23983, "hardin": 27522, "respected": 9768, "1736": 28192, "exhaustion": 15575, "mana": 24951, "environment": 4044, "concerts": 6759, "ok": 7929, "strategic": 6143, "chancel": 16482, "billings": 26124, "##\u062f": 15394, "circumstance": 25652, "sequels": 25815, "dance": 3153, "jase": 18626, "kato": 27496, "pit": 6770, "##ast": 14083, "breath": 3052, "drawing": 5059, "homo": 24004, "lift": 6336, "followed": 2628, "activate": 20544, "1625": 26263, "tick": 16356, "bit": 2978, "damp": 10620, "definition": 6210, "\u3084": 1682, "\u00b9": 1088, "barges": 27712, "ep": 4958, "captains": 15755, "[unused909]": 914, "139": 16621, "syrup": 23353, "employ": 12666, "destroy": 6033, "ars": 29393, "4a": 26424, "angle": 6466, "acids": 12737, "cam": 11503, "boxers": 18508, "described": 2649, "##ople": 27469, "sino": 19432, "clean": 4550, "perrin": 28106, "france": 2605, "##tate": 12259, "differential": 11658, "empire": 3400, "162": 17832, "##bard": 21458, "##dan": 7847, "machines": 6681, "based": 2241, "exists": 6526, "##jian": 27685, "explosives": 14792, "marge": 25532, "consort": 13440, "##\u0459": 29762, "jagged": 18187, "shredded": 29022, "edna": 21051, "syn": 19962, "##scu": 28817, "##\u53f8": 30317, "\u2154": 1582, "dedication": 12276, "##vius": 26055, "taste": 5510, "verity": 22178, "##lau": 17298, "reese": 15883, "seasoned": 28223, "ambiguity": 27637, "henri": 8863, "straw": 13137, "daly": 18509, "grade": 3694, "registering": 25719, "madhya": 20841, "tatar": 29241, "chill": 10720, "##nets": 22781, "\u201a": 1522, "summoned": 11908, "studied": 3273, "painted": 4993, "community": 2451, "1925": 4849, "##maker": 8571, "diagnosis": 11616, "ioc": 25941, "news": 2739, "constructive": 26157, "##gra": 17643, "hurricane": 7064, "##\u044a": 29755, "helium": 22764, "judaism": 13725, "growth": 3930, "##rst": 12096, "executing": 23448, "unpaid": 23850, "likelihood": 16593, "185": 15376, "simultaneously": 7453, "pigeons": 27567, "toro": 23790, "princely": 22771, "happens": 6433, "uniting": 26112, "attained": 12754, "doll": 10658, "taft": 19911, "##pm": 9737, "##ele": 12260, "eats": 20323, "##gers": 15776, "syllable": 16353, "125": 8732, "\u2606": 1621, "##~": 29643, "tom": 3419, "##ida": 8524, "enthusiastically": 24935, "reviewed": 8182, "practitioner": 18742, "submitted": 7864, "##nna": 9516, "##fia": 22749, "chatham": 16727, "sami": 17015, "aus": 17151, "1930": 4479, "parameters": 11709, "billed": 14843, "condo": 25805, "[unused192]": 197, "wooden": 4799, "carnage": 27450, "##dd": 14141, "dod": 26489, "chassis": 11832, "##bury": 4917, "newer": 10947, "##\u09ac": 29904, "terms": 3408, "gymnast": 25055, "troy": 9553, "computers": 7588, "rehabilitation": 11252, "ashford": 26545, "##liga": 14715, "devised": 14917, "wilkinson": 16237, "bolted": 18088, "dirk": 17594, "treatment": 3949, "howell": 18473, "##typical": 27086, "renamed": 4096, "caller": 20587, "paste": 19351, "##verance": 21998, "wallis": 24029, "quilt": 27565, "rica": 11509, "1767": 21502, "transmitted": 11860, "##43": 23777, "caressed": 21473, "\u6c38": 1896, "extensive": 4866, "##mology": 20570, "castillo": 19371, "1959": 3851, "##tters": 24168, "taxes": 7773, "unrelated": 15142, "##ente": 15781, "1855": 8492, "[unused296]": 301, "porcelain": 17767, "flavor": 14894, "##lik": 18393, "##gated": 11644, "##ost": 14122, "confident": 9657, "character": 2839, "##ulate": 9869, "credibility": 21553, "arte": 16185, "##orra": 24285, "\u2091": 1561, "##\u2295": 30139, "exodus": 16388, "ethnicity": 18240, "##\u05d1": 29789, "grupo": 26678, "nas": 17235, "italians": 16773, "paula": 13723, "grew": 3473, "##\u5bbf": 30352, "illegally": 17800, "improves": 24840, "regulated": 12222, "immortality": 20107, "ir": 20868, "[unused67]": 68, "episode": 2792, "[unused463]": 468, "burgundy": 18383, "##waite": 29601, "##sts": 12837, "hopes": 8069, "boot": 9573, "calcutta": 13419, "##\u0635": 29826, "##rier": 16252, "ec": 14925, "encryption": 21999, "vocabulary": 16188, "cramer": 29433, "##\u90fd": 30487, "founder": 3910, "lyrical": 16376, "##ever": 22507, "circuit": 4984, "##\u30d8": 30247, "32": 3590, "grins": 20237, "\u2207": 1595, "drilling": 15827, "##nsen": 29428, "saxon": 10038, "tsar": 17608, "characterization": 23191, "piss": 18138, "pavement": 14271, "formed": 2719, "tower": 3578, "##nical": 20913, "howled": 27489, "threads": 16457, "greaves": 27808, "creates": 9005, "contributor": 12130, "vacancy": 15619, "[unused128]": 133, "galician": 28830, "cheung": 22632, "11": 2340, "budget": 5166, "gloss": 27068, "kawasaki": 27324, "[unused423]": 428, "heraldic": 28867, "tony": 4116, "holds": 4324, "fluent": 19376, "[unused14]": 15, "contests": 15795, "meteorological": 20557, "##rization": 26910, "telegraph": 10013, "##\u0438\u0438": 15414, "bonn": 19349, "cheshire": 13789, "##bly": 6321, "lawsuits": 20543, "peas": 26072, "loan": 5414, "nun": 16634, "##ggles": 24989, "splashed": 22055, "brody": 19631, "moaned": 12557, "canyon": 8399, "sparrow": 19479, "professionally": 12145, "##nation": 9323, "commemorate": 13415, "element": 5783, "##tani": 17681, "[unused166]": 171, "adopting": 16151, "vicar": 12340, "suffering": 6114, "simplified": 11038, "convictions": 20488, "commonwealth": 5663, "dinners": 29236, "##\u307b": 30202, "understand": 3305, "mb": 16914, "##cars": 20745, "compiled": 9227, "feminine": 12320, "##tsk": 29064, "##night": 15864, "deputy": 4112, "cleveland": 6044, "wilcox": 23926, "manifest": 19676, "pottery": 11378, "cemeteries": 20973, "misunderstood": 28947, "mcnamara": 28340, "appear": 3711, "civil": 2942, "payroll": 26854, "80s": 16002, "diplomacy": 17610, "guyana": 18786, "juniors": 16651, "punched": 11696, "jacob": 6213, "trace": 7637, "component": 6922, "patterns": 7060, "[unused533]": 538, "ballard": 21896, "ska": 24053, "##ned": 7228, "nightmare": 10103, "##bag": 16078, "pictures": 4620, "tale": 6925, "stakes": 7533, "scar": 11228, "periodicals": 21855, "[unused763]": 768, "blink": 12373, "entrance": 4211, "octopus": 24318, "hutton": 20408, "equal": 5020, "cartoon": 9476, "calculus": 19276, "##ink": 19839, "hicks": 17221, "##\u30af": 30228, "##use": 8557, "##50": 12376, "emory": 25853, "suns": 19352, "[unused748]": 753, "yd": 21076, "institute": 2820, "nominees": 17853, "maldives": 25059, "\u064a": 1300, "[unused834]": 839, "sighed": 5489, "penned": 17430, "sited": 28603, "shocks": 28215, "confines": 25722, "et": 3802, "conference": 3034, "tearing": 13311, "##loid": 27710, "downhill": 19448, "treasure": 8813, "##cloth": 23095, "texans": 23246, "##issa": 21205, "##as": 3022, "##rries": 26801, "muffled": 15783, "roosevelt": 8573, "shan": 17137, "clair": 17936, "##41": 23632, "suffix": 16809, "frankfurt": 9780, "inclined": 13050, "marion": 10115, "example": 2742, "\u3044": 1647, "ye": 6300, "testing": 5604, "starvation": 22611, "strata": 22913, "##ando": 28574, "periodically": 18043, "1796": 13885, "exclusion": 15945, "th": 16215, "canberra": 13107, "##cans": 26642, "legacy": 8027, "cease": 13236, "flickering": 20046, "shit": 4485, "sum": 7680, "gaped": 23832, "##mps": 25370, "strode": 11885, "tatiana": 22725, "\u03b8": 1162, "sultanate": 21308, "##written": 15773, "hungary": 5872, "jj": 29017, "1655": 28438, "accompanying": 10860, "exercises": 11110, "ric": 26220, "##taking": 17904, "pancakes": 28470, "##\u0642": 29834, "frustrated": 10206, "centenary": 17705, "discovers": 9418, "jed": 24401, "##iste": 27870, "blend": 12586, "\u03c5": 1175, "quotes": 16614, "[unused573]": 578, "sad": 6517, "eponymous": 15248, "hundred": 3634, "health": 2740, "fact": 2755, "yearning": 29479, "[unused823]": 828, "females": 3801, "bree": 21986, "grants": 8624, "curl": 15390, "touchdowns": 10183, "baptiste": 17329, "find": 2424, "sentenced": 7331, "charities": 15430, "##ili": 18622, "younger": 3920, "##ari": 8486, "chaired": 12282, "publishing": 4640, "tully": 25724, "\u0996": 1354, "beetle": 7813, "confusing": 16801, "flaming": 19091, "stroking": 14943, "whispered": 3990, "coordinates": 12093, "benign": 28378, "walsall": 29054, "steamship": 23869, "motorsports": 20711, "##\u6728": 30401, "[unused102]": 107, "whitley": 27007, "vast": 6565, "alternating": 15122, "reasoning": 13384, "##ille": 10484, "##ris": 6935, "[unused163]": 168, "aback": 26575, "##jan": 8405, "peck": 18082, "scores": 7644, "silesia": 21872, "lobster": 27940, "beaux": 20290, "comment": 7615, "slam": 9555, "smith": 3044, "lithium": 22157, "sectional": 27197, "nickelodeon": 20814, "tying": 15233, "compliant": 24577, "##pon": 26029, "##\u30e2": 30253, "subsistence": 27667, "##eric": 22420, "wastewater": 28269, "basel": 14040, "nigel": 12829, "cecilia": 18459, "musicals": 20103, "patrice": 29527, "austrian": 6161, "##cion": 10446, "##\u2010": 30048, "millions": 8817, "[unused797]": 802, "snapping": 15790, "##bies": 20536, "westfield": 26584, "##dable": 20782, "capita": 8353, "tainted": 26392, "statues": 11342, "nicolas": 9473, "boo": 22017, "infinitely": 25773, "refer": 6523, "heron": 22914, "confronted": 12892, "amanda": 8282, "intimacy": 20893, "direction": 3257, "milk": 6501, "##tum": 11667, "plants": 4264, "##stown": 13731, "##suke": 16867, "##rous": 13288, "##atory": 14049, "sergeant": 6722, "nina": 9401, "later": 2101, "##non": 8540, "arsenic": 29596, "installing": 23658, "airborne": 10519, "##aur": 21159, "1998": 2687, "linda": 8507, "meet": 3113, "humans": 4286, "poked": 16826, "keating": 25865, "rented": 12524, "organic": 7554, "pang": 20657, "##\u0cb0": 29937, "sessions": 6521, "greenwood": 16827, "[unused602]": 607, "flock": 19311, "175": 12862, "business": 2449, "##hita": 23935, "##care": 16302, "nobleman": 18487, "##bahn": 16052, "voluntary": 10758, "crumpled": 19814, "newscast": 20306, "##icative": 25184, "##zam": 20722, "tuberculosis": 15877, "parameter": 16381, "##leton": 19263, "sewer": 22365, "##om": 5358, "civilian": 6831, "giggling": 21783, "approaching": 8455, "speed": 3177, "utrecht": 18361, "glazed": 19724, "##mics": 22924, "vacated": 15348, "1820": 11102, "inheritance": 12839, "160": 8148, "certificate": 8196, "##ail": 12502, "ki": 11382, "\u6cd5": 1901, "##swick": 27720, "jazz": 4166, "points": 2685, "spectators": 12405, "penultimate": 25512, "##urg": 12514, "stewart": 5954, "tendency": 11765, "burrows": 22009, "##kind": 18824, "seminary": 8705, "lola": 15137, "questioning": 11242, "separates": 18600, "##tner": 18885, "pauses": 19623, "bowler": 14999, "electro": 16175, "##lf": 10270, "expectation": 17626, "wehrmacht": 23443, "unsuccessfully": 11551, "tissues": 14095, "drains": 18916, "354": 27878, "anchored": 14453, "methyl": 25003, "viktor": 13489, "sarawak": 21546, "phylogenetic": 23192, "\u00b6": 1086, "leaders": 4177, "detail": 6987, "##hyllum": 27750, "monitors": 15410, "negro": 12593, "stabbing": 21690, "##uid": 21272, "\u1d56": 1504, "clarkson": 18648, "\u0e22": 1416, "eighth": 5964, "islamist": 27256, "skilled": 10571, "##ility": 15148, "corporal": 14265, "french": 2413, "\u4e16": 1745, "lenin": 17497, "##rasia": 27839, "1737": 26738, "tanner": 12780, "##\u0634": 29825, "irish": 3493, "substantive": 27737, "analyst": 12941, "epic": 8680, "[unused511]": 516, "provincial": 4992, "felicity": 27357, "acute": 11325, "suburb": 7575, "##rled": 27501, "ignores": 26663, "mediterranean": 7095, "libya": 12917, "##cap": 17695, "until": 2127, "prisoners": 5895, "guillermo": 21070, "\u4e4b": 1749, "flees": 24776, "##\u2090": 30089, "##\u1d4f": 30037, "1649": 26538, "wilde": 18575, "rake": 26008, "[unused907]": 912, "1692": 28622, "missouri": 5284, "gem": 17070, "kimball": 26659, "vitamin": 17663, "gonzalez": 10121, "sandy": 7525, "frown": 11330, "mcdowell": 25005, "burnt": 11060, "##kur": 18569, "##\u79cb": 30455, "##hale": 15238, "cia": 9915, "asked": 2356, "##ear": 14644, "##pass": 15194, "desperately": 9652, "learned": 4342, "oslo": 9977, "upgraded": 9725, "ba": 8670, "among": 2426, "tuesday": 9857, "criminal": 4735, "arthritis": 27641, "##mine": 11233, "became": 2150, "draught": 25349, "jimmy": 5261, "##\u3048": 30175, "disc": 5860, "##dee": 26095, "gym": 9726, "virtually": 8990, "passionate": 13459, "gamble": 18503, "1910s": 28088, "100th": 16919, "nordic": 13649, "##chule": 20269, "synod": 15374, "dammit": 20878, "olympics": 3783, "##insky": 20894, "1880": 6756, "rye": 20926, "##icz": 18682, "60th": 20928, "shouts": 15701, "plates": 7766, "pill": 17357, "##erated": 16848, "tuned": 15757, "##rra": 11335, "##world": 11108, "##\u0905": 29847, "swat": 25414, "discontinued": 8944, "##\u30e1": 30252, "hug": 8549, "\u0582": 1238, "[unused371]": 376, "semester": 13609, "residing": 7154, "market": 3006, "contra": 24528, "grind": 23088, "delivery": 6959, "thankfully": 16047, "proof": 6947, "1903": 5778, "brandt": 19407, "parsons": 13505, "steamboat": 24897, "lash": 25210, "1700": 16601, "suites": 19796, "barefoot": 22985, "sean": 5977, "doctorate": 8972, "chuck": 8057, "beirut": 15335, "##ory": 10253, "arbor": 19679, "backup": 10200, "interact": 11835, "reproduction": 14627, "##\u062a": 29817, "##\u0f54": 29966, "\u897f": 1947, "gus": 12670, "too": 2205, "tonight": 3892, "lit": 5507, "##rence": 24413, "works": 2573, "pressured": 25227, "cp": 18133, "glare": 10982, "\u099a": 1356, "##\u05d4": 29128, "doctrine": 8998, "whisper": 7204, "mcpherson": 24332, "singapore": 5264, "##lean": 20898, "##cend": 23865, "attempting": 7161, "schleswig": 21173, "nrl": 20686, "referring": 7727, "rid": 9436, "tavi": 24283, "fast": 3435, "[unused115]": 120, "\u83ef": 1942, "happening": 6230, "##ald": 19058, "mathias": 20494, "tae": 22297, "naive": 15743, "##yk": 15922, "organizes": 22013, "concluded": 5531, "rigid": 11841, "menacing": 24060, "hazards": 22010, "ghz": 29066, "\u0580": 1237, "archives": 8264, "ottawa": 8166, "establishing": 7411, "analysts": 18288, "valves": 17355, "315": 22904, "48th": 27787, "malabar": 28785, "admissions": 20247, "##\u10da": 29983, "daughters": 5727, "vanished": 9955, "sizes": 10826, "concern": 5142, "weaponry": 22711, "drink": 4392, "originated": 7940, "galloway": 22372, "exercising": 28428, "bryant": 12471, "denounced": 17787, "875": 27658, "##ulsion": 23316, "geographic": 9183, "##ib": 12322, "corresponded": 27601, "##ep": 13699, "fray": 25975, "sheet": 7123, "eventually": 2776, "thrive": 25220, "foolish": 13219, "##sher": 19603, "viola": 10482, "##mise": 28732, "dfb": 28894, "[unused887]": 892, "\u306d": 1670, "##rrier": 27051, "persecution": 14522, "kn": 14161, "curved": 9203, "aires": 9149, "insist": 18292, "donald": 6221, "sash": 24511, "recommend": 16755, "bent": 6260, "hays": 29051, "##ctric": 22601, "motifs": 17366, "##id": 3593, "atlantic": 4448, "register": 4236, "interpretations": 15931, "##hawks": 16043, "pounded": 13750, "dust": 6497, "guillaume": 20061, "cerro": 25498, "ortiz": 19439, "si": 9033, "benefit": 5770, "contraction": 21963, "device": 5080, "[unused354]": 359, "##yse": 23274, "##dak": 23597, "convicts": 24948, "##nished": 28357, "spokane": 21878, "1880s": 12751, "bluegrass": 21286, "##ud": 6784, "eleventh": 11911, "\u1172": 1480, "\u00a310": 26812, "unauthorized": 24641, "makeshift": 19368, "morphology": 19476, "##di": 4305, "[unused743]": 748, "managed": 3266, "##ples": 21112, "president": 2343, "anwar": 28372, "assess": 14358, "result": 2765, "##sphere": 23874, "##bl": 16558, "abandoned": 4704, "##gina": 20876, "coaches": 7850, "regulation": 7816, "##fest": 14081, "##dman": 21804, "badges": 23433, "##bre": 13578, "compulsion": 27638, "\ufb01": 1984, "sanders": 12055, "miriam": 16925, "##jhl": 29001, "leash": 26834, "1828": 11517, "\u0646": 1296, "bret": 25626, "[unused695]": 700, "springfield": 10493, "sara": 7354, "jian": 29214, "limitation": 22718, "mirza": 18366, "##nder": 11563, "flour": 13724, "sharif": 20351, "##ored": 19574, "temporary": 5741, "1950": 3925, "carnegie": 11298, "greeting": 14806, "meanwhile": 5564, "beating": 6012, "1814": 10977, "continues": 4247, "rupert": 14641, "protocols": 16744, "breach": 12510, "contractor": 13666, "symphony": 6189, "inappropriate": 15884, "##oso": 19137, "townsville": 27492, "##krishna": 23017, "persistent": 14516, "accompany": 12673, "##\u304b": 30177, "##encia": 27742, "##folding": 21508, "willoughby": 24919, "##rov": 12298, "1874": 7586, "##inatory": 28230, "##gne": 10177, "##act": 18908, "teenager": 10563, "abrupt": 18772, "enforcing": 27455, "longing": 15752, "skopje": 29255, "dan": 4907, "diversified": 24908, "necessitated": 29611, "truss": 24224, "elm": 17709, "bows": 21207, "fin": 10346, "variants": 10176, "touring": 6828, "driving": 4439, "favors": 21191, "license": 6105, "##rone": 20793, "##ates": 8520, "zack": 13658, "everyday": 10126, "negative": 4997, "##\u308d": 30215, "scans": 27404, "gallery": 3916, "analytic": 23521, "correspondence": 11061, "ahl": 18347, "distributor": 16632, "constraints": 14679, "hours": 2847, "oceanic": 18955, "entering": 5738, "\u00b3": 1083, "barracks": 10492, "##nger": 11392, "topped": 9370, "theorist": 24241, "occurrence": 14404, "unnatural": 21242, "##zuki": 24015, "receives": 8267, "hungry": 7501, "worthy": 11007, "dimensions": 9646, "social": 2591, "[unused990]": 995, "##nay": 16741, "##falls": 28067, "excited": 7568, "seemed": 2790, "taxpayer": 26980, "interrupted": 7153, "[unused638]": 643, "coli": 27441, "james": 2508, "thinner": 23082, "##ora": 6525, "sul": 21396, "barack": 13857, "##\u221a": 30127, "lining": 14834, "rite": 14034, "luca": 15604, "airfield": 9087, "germain": 19192, "magnesium": 24983, "po": 13433, "##boarding": 21172, "redding": 26687, "152": 15017, "compact": 9233, "##mun": 23041, "##af": 10354, "tennessee": 5298, "that": 2008, "1971": 3411, "alvarez": 16309, "proceeding": 18207, "##kovsky": 23829, "architecture": 4294, "bb": 22861, "demetrius": 28367, "forestry": 13116, "bump": 16906, "keys": 6309, "woman": 2450, "paz": 18183, "\u0f58": 1432, "nixon": 11296, "gag": 18201, "links": 6971, "##ff": 4246, "grey": 4462, "##\u209b": 30098, "1000": 6694, "\u4e09": 1741, "##llin": 21202, "helps": 7126, "jarrett": 24503, "##ob": 16429, "brick": 5318, "nights": 6385, "sixteenth": 14683, "intuition": 26406, "bench": 6847, "##mute": 26746, "##\u82b1": 30466, "dissatisfied": 25956, "neglect": 19046, "ties": 7208, "aachen": 29093, "supplies": 6067, "together": 2362, "earrings": 27212, "##uge": 22890, "sergio": 13983, "lehman": 28444, "glacial": 17381, "\u025b": 1115, "##grating": 28183, "##ook": 14659, "donnie": 28486, "selection": 4989, "therapy": 7242, "cyclist": 14199, "presents": 7534, "darkness": 4768, "straining": 21366, "pieces": 4109, "catholic": 3234, "throws": 11618, "theorem": 9872, "thessaloniki": 23162, "anastasia": 19447, "##itha": 26054, "carver": 20163, "fence": 8638, "outing": 26256, "##\u09b2": 29909, "tank": 4951, "##rgos": 22280, "broadcasting": 5062, "ankara": 20312, "##oc": 10085, "implying": 20242, "\u0936": 1336, "##ules": 16308, "[unused989]": 994, "parma": 19177, "##ried": 11998, "[unused418]": 423, "morally": 28980, "expertise": 11532, "##omi": 20936, "vermont": 8839, "burned": 5296, "bulge": 23708, "seller": 14939, "axel": 18586, "##head": 4974, "amino": 13096, "time": 2051, "anthropology": 12795, "##iness": 9961, "1651": 29077, "##ls": 4877, "realising": 27504, "aqueduct": 24016, "##chev": 16179, "meteor": 23879, "unsure": 12422, "crocodile": 21843, "rue": 13413, "constabulary": 23791, "\u02be": 1147, "grande": 9026, "efforts": 4073, "\u2033": 1532, "graveyard": 16685, "magna": 20201, "hilton": 15481, "wired": 17502, "##urance": 25863, "\u207a": 1544, "##tower": 23196, "challenging": 10368, "rotting": 22005, "\u304d": 1652, "spade": 23288, "##net": 7159, "189": 20500, "##taro": 28160, "[unused567]": 572, "focal": 15918, "procedural": 24508, "symbols": 9255, "##ue": 5657, "accelerated": 14613, "moths": 14885, "\u305f": 1661, "[unused107]": 112, "affiliation": 12912, "##ische": 13719, "\u5185": 1773, "duo": 6829, "escorting": 23831, "bother": 8572, "##helm": 24546, "##cos": 13186, "\u9fb8": 1983, "shepard": 22189, "spanned": 18212, "severity": 18976, "or": 2030, "articulated": 20742, "litres": 25783, "##eland": 25689, "persons": 5381, "##sfield": 15951, "beech": 21760, "locating": 26339, "upcoming": 9046, "##odon": 28716, "amateurs": 24361, "##wall": 9628, "hamlet": 8429, "raleigh": 15842, "researched": 18800, "memory": 3638, "recycling": 17874, "\u795e": 1925, "##ddle": 20338, "##iac": 20469, "ability": 3754, "boy": 2879, "stokes": 18716, "cried": 6639, "masculine": 14818, "designer": 5859, "unseen": 16100, "owls": 22388, "airplane": 13297, "livery": 18475, "reasoned": 24557, "wink": 16837, "clifford": 13894, "completely": 3294, "counties": 5721, "leave": 2681, "adobe": 18106, "##kic": 29493, "accuracy": 10640, "mach": 24532, "##si": 5332, "danielle": 18490, "tip": 5955, "rotor": 18929, "juvenile": 11799, "eliminating": 15349, "clayton": 11811, "\u0916": 1316, "codes": 9537, "tangible": 24600, "flea": 26735, "hurting": 11878, "stables": 16232, "##rin": 6657, "\u1d3a": 1494, "##ctic": 13306, "ground": 2598, "entire": 2972, "##\u0437": 29744, "49ers": 18156, "vehicles": 4683, "##tle": 9286, "##\u4f1a": 30289, "cottages": 18918, "estonia": 10692, "recently": 3728, "brethren": 17937, "diplomat": 11125, "directors": 5501, "##n": 2078, "branch": 3589, "##orth": 28610, "trapped": 7567, "accomplish": 14570, "usually": 2788, "suffrage": 15178, "aside": 4998, "laws": 4277, "##kawa": 13069, "woods": 5249, "plank": 24000, "mandal": 24373, "##redo": 23417, "indexed": 25331, "hasan": 17000, "monmouth": 20433, "famine": 15625, "variant": 8349, "staten": 24161, "20": 2322, "stamps": 12133, "fascist": 14870, "mined": 21846, "went": 2253, "worry": 4737, "sneak": 13583, "subsequently": 3525, "ignored": 6439, "even": 2130, "##je": 6460, "##ych": 17994, "mer": 21442, "withdrew": 6780, "electrode": 28688, "[unused112]": 117, "##ville": 3077, "8": 1022, "succeed": 9510, "liberty": 7044, "stratford": 17723, "stolen": 7376, "failure": 4945, "adele": 17623, "gundam": 26152, "coated": 15026, "##meo": 26247, "mckenzie": 18506, "astonished": 22741, "commissioners": 12396, "picasso": 22457, "[unused156]": 161, "brings": 7545, "##nce": 5897, "##lles": 20434, "##500": 29345, "##wr": 13088, "horror": 5469, "defend": 6985, "don": 2123, "crossroads": 16760, "colony": 5701, "amusement": 9778, "##hli": 27766, "[unused27]": 28, "distinction": 7835, "bai": 21790, "mobile": 4684, "alphabet": 12440, "sms": 22434, "disturb": 22995, "rosary": 28291, "finalist": 9914, "##wo": 12155, "bruised": 18618, "##te": 2618, "wwe": 11700, "##sal": 12002, "tombstone": 26671, "##mata": 21022, "##0s": 16223, "scots": 12196, "graham": 5846, "continents": 17846, "separation": 8745, "[unused232]": 237, "niece": 12286, "campaigned": 16196, "emeritus": 12372, "##houses": 15666, "marsh": 9409, "geologist": 21334, "[unused284]": 289, "##\u0433": 29741, "search": 3945, "veracruz": 23741, "##rail": 15118, "buffer": 17698, "##ums": 18163, "operating": 4082, "swayed": 20122, "##aus": 20559, "ruben": 19469, "graduate": 4619, "specialization": 28031, "ink": 10710, "haute": 18535, "##endez": 28787, "investments": 10518, "monkey": 10608, "##dder": 20791, "##bridge": 6374, "rehearsals": 24760, "colonies": 8355, "##ana": 5162, "provoked": 19157, "137": 14989, "\u3078": 1675, "marked": 4417, "##path": 15069, "bees": 13734, "[unused515]": 520, "ralph": 6798, "updates": 14409, "##it": 4183, "secondary": 3905, "##osis": 12650, "##sto": 16033, "withdrawing": 21779, "1956": 3838, "\u0bb3": 1393, "liz": 9056, "prototypes": 19599, "architectural": 6549, "mandolin": 17687, "cells": 4442, "oath": 11292, "traditionally": 6964, "authority": 3691, "stu": 24646, "bipolar": 29398, "##dek": 24463, "##plify": 28250, "minute": 3371, "##rigue": 27611, "grandmother": 7133, "distress": 12893, "sunshine": 9609, "us": 2149, "incline": 27461, "eun": 26070, "monastery": 6408, "intervened": 21116, "athena": 21880, "confederation": 11078, "showers": 23442, "aloud": 12575, "##ault": 23505, "##glio": 29480, "remastered": 19484, "copy": 6100, "dried": 9550, "##ont": 12162, "quarries": 27069, "triggered": 13330, "##ilised": 21758, "##lby": 14510, "dangling": 18737, "##rval": 26585, "westward": 15165, "\u02bc": 1146, "##jah": 18878, "\u0254": 1112, "advocacy": 12288, "screening": 11326, "9th": 6280, "multi": 4800, "stade": 15649, "factors": 5876, "##\u060c": 29814, "enterprise": 6960, "[unused49]": 50, "cramped": 22766, "\u00bf": 1094, "promote": 5326, "odor": 19255, "abbess": 28010, "refused": 4188, "##\u02d0": 23432, "##\u06c1": 29845, "ticked": 26019, "comforting": 16334, "location": 3295, "gibbs": 15659, "springsteen": 26002, "##ope": 17635, "jeremiah": 17526, "shipment": 22613, "degree": 3014, "fluctuations": 28892, "\u2020": 1526, "transitions": 22166, "youths": 19634, "tortricidae": 27683, "viking": 12886, "##ywood": 26985, "farming": 7876, "\u0639": 1288, "glamorgan": 23861, "vatican": 12111, "financially": 13732, "disciplinary": 17972, "\u043e": 1193, "dieter": 27976, "ocean": 4153, "##drik": 28730, "countess": 11716, "230": 11816, "hd": 10751, "gloucester": 13370, "psychedelic": 18147, "offset": 16396, "nucleus": 13502, "johan": 13093, "once": 2320, "##cle": 14321, "hurled": 24025, "gaza": 14474, "trophy": 5384, "goodman": 14514, "designing": 12697, "siberia": 16881, "##jing": 29518, "prohibits": 25822, "chains": 8859, "guns": 4409, "expansive": 25145, "organization": 3029, "resemble": 13014, "formulated": 19788, "##rga": 28921, "\u0448": 1203, "neat": 15708, "##utive": 28546, "dom": 14383, "spilled": 13439, "comprehend": 22346, "resurrection": 15218, "anchors": 24674, "ji": 10147, "literary": 4706, "[unused986]": 991, "##lda": 15150, "awaiting": 15497, "weeds": 20777, "39th": 22702, "condemned": 10033, "drinks": 8974, "insisted": 7278, "nod": 7293, "tragic": 13800, "travel": 3604, "##lan": 5802, "lingering": 15304, "balkans": 19733, "##iom": 18994, "\u4e00": 1740, "##\u00a8": 29651, "##\u0438\u044f": 23483, "unsuitable": 25622, "reconstructed": 14858, "[unused833]": 838, "tanya": 19956, "championship": 2528, "##lowe": 27663, "kicker": 22652, "commodities": 21955, "##sa": 3736, "utopia": 26425, "##dya": 25838, "graeme": 21840, "defensive": 5600, "178": 19289, "budge": 24981, "hulk": 16009, "beaming": 27910, "antrim": 24142, "superstructure": 28391, "jess": 12245, "312": 21036, "sega": 16562, "pains": 20398, "tod": 28681, "microphone": 15545, "darby": 25844, "mix": 4666, "flashing": 12659, "alto": 10766, "##cula": 19879, "verlag": 14552, "booker": 16674, "deposit": 12816, "demonstrating": 14313, "melville": 20154, "bundles": 26825, "disappointment": 10520, "bosses": 23029, "coe": 24873, "talon": 19048, "blanchard": 26870, "##light": 7138, "##vey": 12417, "arithmetic": 20204, "franciscan": 19420, "wearing": 4147, "calcium": 13853, "horizon": 9154, "[unused350]": 355, "instructors": 19922, "lean": 8155, "morse": 17107, "dioceses": 26586, "prestigious": 8919, "watts": 11042, "1901": 5775, "odyssey": 18735, "\u0b95": 1382, "##1": 2487, "contrasts": 23347, "bobby": 6173, "ledge": 18283, "traders": 13066, "casinos": 27300, "[unused865]": 870, "hess": 23484, "screens": 12117, "restriction": 16840, "##\u09aa": 29903, "##\u2026": 30064, "pbs": 13683, "hated": 6283, "600": 5174, "drifted": 10070, "##dron": 19440, "##\u09a8": 29902, "voyages": 21993, "conveyed": 21527, "##42": 20958, "broughton": 29187, "##coe": 16288, "windmill": 25367, "cpu": 17368, "serving": 3529, "skull": 7412, "families": 2945, "lineman": 24062, "##tv": 9189, "oppression": 20489, "[unused549]": 554, "##\u5dff": 30363, "politely": 16954, "thomas": 2726, "##dermott": 29370, "knights": 7307, "coordinator": 10669, "1990s": 4134, "[unused425]": 430, "welch": 17939, "primitive": 10968, "push": 5245, "##eran": 23169, "sim": 21934, "simple": 3722, "uncanny": 28953, "sacks": 14918, "limerick": 15679, "##writer": 15994, "courtney": 14139, "tended": 11121, "knocks": 21145, "analog": 11698, "brass": 8782, "control": 2491, "also": 2036, "doubt": 4797, "pepper": 11565, "resonance": 17011, "##\u2212": 22543, "disrupt": 23217, "circular": 8206, "pacing": 15732, "##may": 27871, "solicitor": 15468, "lillian": 19344, "##acy": 15719, "sp": 11867, "rendition": 19187, "##zhi": 19436, "\u30ea": 1732, "vow": 19076, "##aca": 19629, "criticised": 10648, "giving": 3228, "[unused551]": 556, "##cta": 25572, "smashwords": 25151, "relevance": 21923, "temper": 12178, "arousal": 18905, "115": 10630, "stereotypes": 22807, "continue": 3613, "lutheran": 10034, "blinked": 7948, "lighthouse": 10171, "##yed": 20821, "inhaled": 15938, "gifted": 12785, "##\u0686": 29840, "psychology": 6825, "##page": 13704, "##fusion": 20523, "realise": 19148, "woodrow": 23954, "tao": 20216, "terri": 26568, "runaway": 19050, "addresses": 11596, "process": 2832, "side": 2217, "[unused550]": 555, "##abe": 16336, "\u4ecb": 1759, "royal": 2548, "someone": 2619, "[unused801]": 806, "free": 2489, "flawless": 27503, "cherry": 9115, "\u0dcf": 1408, "leisure": 12257, "##mora": 22122, "refuse": 10214, "brad": 8226, "\u9ad8": 1981, "\u306f": 1672, "honour": 6225, "##\u099c": 29894, "southwest": 4943, "##wyl": 27740, "companion": 7452, "##ucible": 21104, "pajamas": 27621, "really": 2428, "archaeological": 7611, "invariant": 23915, "\u5973": 1815, "unicode": 27260, "captured": 4110, "downs": 12482, "worsened": 27622, "##cology": 19824, "paced": 13823, "##quest": 15500, "directive": 16449, "suits": 11072, "[unused254]": 259, "[unused542]": 547, "southernmost": 21787, "reductions": 25006, "##\u10e3": 29990, "build": 3857, "acceptance": 9920, "232": 20666, "1713": 27016, "##\u2194": 30115, "dyed": 28432, "43": 4724, "[unused749]": 754, "ib": 21307, "celebrating": 12964, "##mara": 28225, "detection": 10788, "fig": 20965, "##quet": 12647, "##ching": 8450, "devastating": 14886, "resolving": 29304, "representing": 5052, "consultant": 8930, "montenegro": 13018, "convergence": 19143, "padded": 20633, "costa": 6849, "ingredients": 12760, "\u0281": 1128, "northward": 17192, "mystical": 17529, "mongolia": 13906, "dice": 18740, "higher": 3020, "format": 4289, "tobias": 16858, "friendships": 28956, "cheap": 10036, "##odle": 26156, "lasting": 9879, "ignacio": 22988, "loose": 6065, "270": 13756, "pointed": 4197, "rwanda": 17591, "[unused443]": 448, "##phonic": 27385, "how": 2129, "franco": 9341, "warner": 6654, "incentives": 21134, "raul": 16720, "sparsely": 24961, "amidst": 17171, "##nivorous": 29193, "rode": 8469, "##ification": 9031, "[unused541]": 546, "##\u653f": 30386, "jaenelle": 20757, "[unused516]": 521, "yeshiva": 22142, "nightstand": 23135, "medicine": 4200, "##storm": 19718, "philanthropy": 29291, "starters": 29400, "##cede": 22119, "cylinders": 18729, "cf": 12935, "turks": 12896, "tread": 29449, "inhibit": 26402, "##20": 11387, "farther": 8736, "=": 1027, "therapist": 19294, "warned": 7420, "websites": 11744, "those": 2216, "organism": 15923, "##eth": 11031, "norm": 13373, "lamar": 19756, "##hian": 14204, "volga": 26459, "following": 2206, "whereupon": 26090, "controversy": 6704, "##by": 3762, "##urne": 21737, "split": 3975, "abilities": 7590, "##pin": 8091, "##\u116a": 30012, "koreans": 24651, "ascending": 22316, "##lies": 11983, "welded": 29014, "mon": 12256, "standalone": 26609, "##\u2021": 30062, "tun": 27112, "bell": 4330, "digits": 16648, "sparked": 13977, "overland": 21400, "##tute": 24518, "mediated": 19872, "##min": 10020, "##script": 22483, "christian": 3017, "will": 2097, "sparhawk": 13709, "planets": 11358, "[unused539]": 544, "banco": 28678, "separately": 10329, "##chemical": 15869, "##pled": 21132, "raise": 5333, "boilers": 20412, "teens": 13496, "parc": 27985, "##esa": 22447, "lecturer": 9162, "khorasan": 23225, "baffled": 29088, "[unused926]": 931, "edit": 10086, "sanitation": 18723, "impressive": 8052, "infused": 29592, "preseason": 20038, "anxious": 11480, "labeling": 28847, "poems": 5878, "encouragement": 15846, "townspeople": 27938, "##ech": 15937, "donated": 6955, "apartheid": 17862, "trousers": 15292, "marianne": 19887, "wax": 13844, "##ki": 3211, "legion": 8009, "stems": 12402, "grimsby": 24470, "##gall": 22263, "sequence": 5537, "pba": 21563, "cai": 29080, "selective": 13228, "##boat": 11975, "stock": 4518, "valkyrie": 26696, "[unused558]": 563, "signals": 7755, "willed": 22705, "noses": 27518, "march": 2233, "medicines": 20233, "amplified": 26986, "adventist": 25696, "partnership": 5386, "ya": 8038, "##+": 29622, "carol": 8594, "lock": 5843, "dent": 21418, "notions": 21951, "batter": 23801, "landscapes": 12793, "hare": 14263, "##\u1107": 29996, "##back": 5963, "##24": 18827, "##\u028e": 29701, "mainline": 20575, "##sb": 19022, "stunning": 14726, "terraces": 25633, "utterly": 12580, "pete": 6969, "nouveau": 25272, "[unused672]": 677, "##thesis": 25078, "restricted": 7775, "duplicate": 24473, "##cence": 29320, "mcconnell": 28514, "[unused321]": 326, "##tius": 22638, "\u05ea": 1267, "molecule": 13922, "77": 6255, "suite": 7621, "ford": 4811, "reassigned": 18026, "folk": 5154, "ghostly": 24407, "hernandez": 13688, "back": 2067, "gerry": 14926, "stunt": 15412, "traded": 7007, "[unused343]": 348, "gustav": 13430, "collin": 22180, "monte": 10125, "slapped": 11159, "chilean": 12091, "1788": 15622, "##ees": 10285, "copenhagen": 9664, "stevenson": 13636, "bearded": 23905, "1949": 4085, "govern": 21208, "corners": 8413, "cn": 27166, "timeline": 17060, "chamber": 4574, "hotel": 3309, "gave": 2435, "riddle": 21834, "beach": 3509, "rosenthal": 29062, "ensign": 19890, "yearbook": 24803, "[unused379]": 384, "##yl": 8516, "marc": 7871, "catchment": 22865, "sears": 18493, "adapted": 5967, "##ocating": 27483, "della": 8611, "teller": 21322, "adriatic": 23400, "tenderness": 24605, "1836": 10081, "##\u0f56": 29967, "##bley": 29538, "smeared": 25400, "veterans": 8244, "1803": 12651, "depict": 17120, "[unused548]": 553, "##mans": 15154, "raaf": 22709, "emilio": 18644, "scholars": 5784, "##ill": 8591, "##evich": 16277, "##\u0993": 29888, "\u4e45": 1748, "61": 6079, "moose": 17716, "craving": 26369, "derelict": 28839, "h\u2082o": 24833, "ordnance": 14445, "jogging": 28233, "multiple": 3674, "##ingly": 15787, "modern": 2715, "##burg": 4645, "##orum": 20527, "##name": 18442, "which": 2029, "tabitha": 21581, "poe": 18922, "yes": 2748, "##sume": 23545, "\u30d5": 1720, "##ette": 7585, "slavic": 13838, "dysfunction": 28466, "exempt": 11819, "mag": 23848, "bowls": 15220, "renewable": 13918, "##hya": 17915, "gulped": 25411, "pursuit": 8463, "phoebe": 18188, "tory": 17117, "tagged": 26610, "##\u00be": 29665, "warrior": 6750, "viable": 14874, "##bund": 27265, "402": 28048, "##nca": 20909, "[unused915]": 920, "1859": 8165, "acted": 6051, "\u098f": 1351, "slacks": 27786, "shirt": 3797, "##tical": 14656, "swiftly": 12128, "sensory": 16792, "norwich": 12634, "tentacles": 24719, "##cturing": 19159, "[unused723]": 728, "frames": 11048, "gamer": 27911, "bulldog": 28628, "53": 5187, "miner": 18594, "governors": 11141, "navigable": 28538, "digit": 15340, "[unused364]": 369, "##stock": 14758, "bulging": 27569, "hard": 2524, "toxic": 11704, "jarvis": 21072, "exercised": 17747, "compensate": 19079, "##bians": 26376, "##fare": 17883, "outnumbered": 21943, "enduring": 16762, "feeling": 3110, "desirable": 16166, "pilgrim": 21214, "tried": 2699, "carries": 7883, "\u00f7": 1099, "derby": 7350, "flats": 14201, "##38": 22025, "##van": 6212, "##lena": 20844, "agent": 4005, "jose": 4560, "##iously": 19426, "##ge": 3351, "jurassic": 19996, "##cton": 28312, "[unused861]": 866, "regulars": 24945, "##nese": 14183, "treaties": 16013, "##nea": 22084, "functioned": 20903, "close": 2485, "lowlands": 26411, "40th": 16541, "disadvantage": 20502, "flanked": 15874, "raid": 8118, "vox": 29450, "services": 2578, "##sworth": 12255, "viruses": 18191, "ladder": 10535, "bilateral": 17758, "demolished": 7002, "##ensburg": 28812, "bishops": 8414, "depleted": 22595, "take": 2202, "knox": 11994, "aired": 4836, "##tology": 23479, "92": 6227, "miranda": 9392, "penis": 19085, "##ior": 25346, "beatrice": 14807, "hindwings": 15998, "ninth": 6619, "##uising": 28580, "maurice": 7994, "clips": 15281, "avoided": 9511, "##osaurus": 25767, "umar": 27981, "ate": 8823, "##oft": 15794, "irregular": 12052, "ferocious": 27863, "##\u56db": 30324, "[unused773]": 778, "dynasties": 23014, "elevators": 19406, "##26": 23833, "gaining": 8550, "##lift": 18412, "generally": 3227, "want": 2215, "costs": 5366, "poorly": 9996, "\u10dc": 1449, "##has": 14949, "##lma": 19145, "##tten": 25970, "deliveries": 23534, "corn": 9781, "geek": 29294, "flutter": 23638, "liberal": 4314, "exhibited": 8176, "wa": 11333, "##than": 21604, "invalid": 19528, "masterpiece": 17743, "\u0565": 1223, "dragoons": 28069, "intimate": 10305, "mantle": 16019, "licensed": 7000, "##\u03c2": 19579, "##rge": 20800, "roman": 3142, "geoff": 14915, "breeders": 20823, "##yama": 11613, "##cot": 24310, "token": 19204, "petrol": 17141, "##chio": 23584, "travelers": 15183, "houghton": 21234, "##akes": 20060, "\u0f42": 1426, "pebbles": 28962, "south": 2148, "patrolling": 24248, "solely": 9578, "memphis": 9774, "wiener": 25072, "##vre": 12229, "wage": 11897, "1774": 17593, "##hri": 26378, "[unused178]": 183, "##inian": 15830, "\u1161": 1470, "##ysis": 20960, "forgive": 9641, "##alo": 23067, "oliveira": 24263, "##ldon": 19932, "mongolian": 17855, "masonic": 21152, "##\u201c": 30058, "ethel": 19180, "replica": 15059, "crossings": 20975, "misleading": 22369, "clasp": 23465, "blackberry": 25935, "portico": 23104, "monroe": 9747, "vijay": 17027, "widowed": 22874, "costly": 17047, "weaker": 15863, "##shin": 17426, "changes": 3431, "308": 24232, "##py": 7685, "showtime": 23811, "##ico": 11261, "1850s": 16488, "trademark": 11749, "\u062e": 1277, "tracing": 16907, "delaware": 8452, "##eber": 22669, "7": 1021, "reworked": 27575, "addicted": 23042, "##oke": 11045, "assignments": 14799, "1819": 12552, "litigation": 15382, "\u0905": 1311, "[unused943]": 948, "##\u2098": 30096, "cause": 3426, "because": 2138, "sneaking": 20727, "\u7ae0": 1932, "##isation": 6648, "##\u1102": 29992, "##lm": 13728, "gets": 4152, "diane": 12082, "ends": 4515, "graceful": 19415, "rankings": 10385, "168": 16923, "##hoot": 23416, "[unused983]": 988, "parental": 18643, "cayman": 26164, "rowing": 12037, "\u060c": 1268, "climax": 14463, "billion": 4551, "justine": 26377, "breast": 7388, "##tra": 6494, "sicilian": 22584, "veins": 9607, "developed": 2764, "casablanca": 24592, "templar": 27850, "rainbow": 10098, "##\u30aa": 30225, "##sity": 17759, "footed": 28856, "##hak": 20459, "##udence": 29424, "##\u1105": 29994, "lea": 12203, "endeavour": 26911, "osborne": 16732, "filling": 8110, "spotlight": 17763, "recommendations": 11433, "refit": 27070, "konstantin": 23989, "mart": 20481, "hr": 17850, "milo": 20359, "##resh": 21898, "outlet": 13307, "[unused98]": 99, "containing": 4820, "##slin": 22908, "conan": 16608, "thor": 15321, "tx": 19067, "competitors": 10159, "pretend": 9811, "concerto": 10405, "##rut": 22134, "toe": 11756, "##le": 2571, "horrified": 14603, "sore": 14699, "fishing": 5645, "strengths": 20828, "height": 4578, "[UNK]": 100, "##usly": 27191, "##avs": 29553, "precedence": 23359, "cups": 10268, "##mbs": 29232, "salman": 28542, "intercourse": 23198, "camps": 7958, "saigon": 24001, "backseat": 19978, "fare": 13258, "reopened": 11882, "comparison": 7831, "##ology": 6779, "loads": 15665, "holiness": 27692, "welcoming": 18066, "xbox": 12202, "suppress": 16081, "affirmative": 27352, "##bay": 15907, "britney": 29168, "##ylus": 18871, "hermit": 24308, "conventional": 7511, "booming": 24716, "artifact": 20785, "envoy": 19918, "##oka": 12352, "syria": 7795, "norma": 20692, "dynamo": 17205, "##boy": 11097, "dealt": 9411, "libre": 21091, "nedra": 28240, "mourning": 16236, "atkinson": 18646, "adolph": 28564, "maguire": 26196, "\u056f": 1227, "rudolph": 18466, "expectations": 10908, "henrik": 18745, "##dling": 14423, "##ruff": 26919, "transports": 19003, "prentice": 23429, "paddy": 16063, "maps": 7341, "1837": 9713, "refuses": 10220, "pronunciation": 15498, "[unused428]": 433, "emery": 24294, "##ske": 17140, "day": 2154, "[unused603]": 608, "##hala": 19531, "lingered": 17645, "gratitude": 15531, "haynes": 21805, "equilibrium": 14442, "mold": 18282, "##rrado": 27933, "barnsley": 25139, "[unused7]": 8, "securing": 12329, "mercedes": 10793, "vampires": 6144, "[unused942]": 947, "hank": 9180, "rumors": 11256, "\u0636": 1285, "van": 3158, "reducing": 8161, "balkan": 17581, "holmes": 9106, "entitled": 4709, "##\u05e6": 29809, "lei": 26947, "wo": 24185, "341": 28358, "backstage": 20212, "##vy": 10736, "1645": 26081, "[unused901]": 906, "valle": 20171, "headache": 14978, "kraft": 26680, "##ama": 8067, "bill": 3021, "volley": 28073, "constituents": 24355, "playful": 18378, ")": 1007, "1996": 2727, "prescott": 20719, "\u0280": 1127, "crime": 4126, "[unused799]": 804, "logistical": 28961, "sheikh": 12840, "##dre": 16200, "mutual": 8203, "disappointed": 9364, "silent": 4333, "reaching": 4285, "massimo": 28080, "##\u52a0": 30305, "thirties": 26313, "participant": 13180, "outer": 6058, "specified": 9675, "##shot": 19040, "tugging": 17100, "winds": 7266, "consecration": 24730, "scarlett": 20862, "breakaway": 26321, "spawned": 18379, "coward": 16592, "recognizing": 14622, "[unused277]": 282, "forrest": 16319, "##\u0928": 29863, "complied": 26946, "chattanooga": 23351, "hill": 2940, "cu": 12731, "wanda": 20848, "cheers": 21250, "instinct": 12753, "##verse": 16070, "\u0578": 1232, "reissue": 17173, "originating": 14802, "ru": 21766, "chord": 13924, "wasted": 13842, "[unused385]": 390, "n": 1050, "unite": 15908, "assumptions": 17568, "\u0e01": 1409, "perspective": 7339, "writes": 7009, "florian": 29517, "dare": 8108, "\u00ac": 1078, "##icular": 21412, "interrupt": 17938, "##iji": 27821, "strauss": 16423, "288": 24841, "referee": 5330, "alteration": 26014, "cities": 3655, "arlington": 13929, "[unused230]": 235, "reuben": 17294, "trams": 19216, "seamus": 24993, "slippery": 22274, "##star": 14117, "blues": 5132, "flawed": 25077, "hang": 6865, "melodic": 17187, "criticizing": 21289, "cater": 23488, "define": 9375, "initials": 20381, "pd": 22851, "deciding": 10561, "##\u6b62": 30413, "growled": 8881, "##tya": 21426, "timothy": 10805, "robbers": 28019, "jade": 12323, "absolutely": 7078, "##cats": 19588, "alexa": 24969, "##\u2205": 30121, "mar": 9388, "optics": 21026, "legs": 3456, "driven": 5533, "\u09b9": 1377, "lyons": 16642, "chatting": 22331, "bonds": 9547, "assurance": 16375, "primetime": 18474, "[unused263]": 268, "rollins": 23502, "yan": 13619, "dyke": 22212, "lately": 9906, "[unused62]": 63, "demonstrates": 16691, "roderick": 28326, "rubber": 8903, "calculate": 18422, "artificial": 7976, "churchill": 10888, "faction": 10233, "rebel": 8443, "ek": 23969, "santana": 21158, "##osh": 17369, "##\u307e": 30203, "##tree": 13334, "##erton": 20995, "gliding": 20292, "sustainability": 15169, "pamphlet": 19899, "corrupted": 27279, "justify": 16114, "inning": 12994, "grossing": 18244, "observed": 5159, "rat": 9350, "##dale": 5634, "walnut": 18489, "pneumonia": 18583, "desperation": 15561, "coding": 16861, "grenades": 21914, "hunt": 5690, "##\u30cb": 30242, "##awa": 10830, ">": 1028, "rus": 22949, "##class": 26266, "pearl": 7247, "phased": 21718, "beneath": 4218, "##16": 16048, "environmental": 4483, "austria": 5118, "##gn": 16206, "squares": 14320, "\u3089": 1685, "747": 25374, "cruises": 23986, "yourselves": 25035, "office": 2436, "ncaa": 5803, "\u03ba": 1164, "perfectly": 6669, "[unused671]": 676, "armenians": 20337, "nationalism": 14594, "encircled": 25759, "##rites": 28884, "[unused949]": 954, "plantation": 10065, "momentarily": 16032, "gael": 28151, "loyal": 8884, "andrews": 9261, "equality": 9945, "##arat": 25879, "dart": 14957, "beings": 9552, "cdp": 8561, "gameplay": 11247, "concept": 4145, "##tock": 17406, "fumble": 19576, "aesthetic": 12465, "doesn": 2987, "weakness": 11251, "[unused741]": 746, "insurance": 5427, "eritrea": 26040, "\u5fc4": 1850, "##systems": 29390, "##cam": 28727, "diversion": 20150, "brazilian": 6142, "[unused1]": 2, "jozef": 23258, "##pants": 27578, "intersect": 29261, "ndp": 21915, "stellar": 17227, "tottenham": 18127, "1857": 8204, "whitish": 16800, "offences": 18421, "beginning": 2927, "ariel": 16126, "persistence": 28297, "grease": 21956, "shadowy": 22801, "killers": 15978, "halls": 9873, "abdullah": 14093, "outrageous": 25506, "##hold": 12640, "yard": 4220, "garth": 21523, "cites": 17248, "##ming": 6562, "wrestling": 4843, "taxation": 14952, "boutique": 24611, "entity": 9178, "case": 2553, "crawley": 28854, "##mins": 21266, "\u5e1d": 1838, "trip": 4440, "deported": 17929, "298": 27240, "cares": 14977, "##uru": 14129, "##oche": 23555, "##\u00a2": 29645, "##put": 18780, "lawyers": 9559, "play": 2377, "arterial": 25543, "aftermath": 10530, "receptionist": 23775, "##monium": 26387, "bio": 16012, "d": 1040, "handling": 8304, "\u2660": 1623, "lviv": 23814, "\u611b": 1853, "knots": 9439, "pupils": 7391, "ship": 2911, "virginia": 3448, "rutgers": 18607, "facilitated": 19601, "article": 3720, "smithsonian": 15720, "##man": 2386, "coloration": 28757, "216": 20294, "caucasian": 23368, "opined": 26084, "[unused816]": 821, "intercollegiate": 21587, "walden": 24834, "[unused565]": 570, "##inkles": 28562, "en": 4372, "microscopic": 26396, "38": 4229, "\u10d1": 1439, "systems": 3001, "biography": 8308, "gymnasium": 11288, "scouting": 14299, "[unused402]": 407, "solids": 26778, "blind": 6397, "inferior": 14092, "1672": 27253, "fifteenth": 16249, "quakers": 28301, "moors": 24812, "mainstream": 7731, "modifying": 29226, "boer": 19945, "weren": 4694, "reception": 7684, "##gley": 22971, "heart": 2540, "sustain": 15770, "caracas": 21675, "[unused481]": 486, "canning": 24549, "belmont": 17449, "atkins": 21087, "ile": 17869, "godfather": 23834, "analyzing": 20253, "[unused4]": 5, "magnet": 16853, "sadness": 12039, "##ogan": 21131, "rudd": 25298, "operation": 3169, "hilbert": 27434, "uta": 28981, "kurt": 9679, "rebounds": 11049, "attractive": 8702, "boyd": 12164, "backed": 6153, "[unused109]": 114, "spared": 16891, "plate": 5127, "sobbed": 25960, "york": 2259, "##hole": 11484, "protagonists": 21989, "write": 4339, "##andra": 29159, "reinforced": 11013, "implant": 27159, "##zzle": 17644, "method": 4118, "gina": 17508, "##hawk": 17998, "##\u305b": 30185, "unmistakable": 24219, "assuming": 10262, "jerry": 6128, "interstate": 7553, "rails": 15168, "mazda": 25286, "area": 2181, "volvo": 21074, "##\u4ee3": 30286, "analogous": 19639, "prayers": 12583, "bauer": 17838, "saxe": 24937, "lowest": 7290, "prom": 20877, "yang": 8675, "regrets": 23161, "pointe": 26119, "includes": 2950, "sharpe": 22147, "macdonald": 10406, "gothic": 7788, "adapt": 15581, "jaws": 16113, "brew": 24702, "problem": 3291, "color": 3609, "indifference": 25920, "maintaining": 8498, "thirds": 12263, "##ram": 6444, "deer": 8448, "mole": 16709, "highland": 10983, "##zquez": 22938, "##d": 2094, "ld": 25510, "shift": 5670, "[unused505]": 510, "migrated": 13447, "\u76f8": 1919, "##tyle": 27983, "operated": 3498, "##ify": 8757, "sketch": 11080, "[unused656]": 661, "reward": 10377, "[unused815]": 820, "captive": 12481, "combatants": 26622, "system": 2291, "##uary": 24384, "magazine": 2932, "balance": 5703, "##nor": 12131, "ritchie": 20404, "munchen": 25802, "mistaken": 13534, "grazing": 15400, "galaxies": 21706, "##usion": 14499, "cope": 11997, "##ators": 18926, "punjab": 9213, "subway": 10798, "bn": 24869, "awful": 9643, "bearing": 7682, "188": 19121, "silesian": 20453, "accurate": 8321, "traumatic": 19686, "trump": 8398, "karate": 16894, "spectrum": 8674, "flyer": 23821, "oman": 16640, "utc": 11396, "bracket": 21605, "##nel": 11877, "##lr": 20974, "soldier": 5268, "razor": 15082, "alfredo": 19423, "clasped": 16763, "print": 6140, "##\u9577": 30493, "[unused898]": 903, "payne": 13470, "##lot": 10994, "nk": 25930, "freak": 11576, "rape": 9040, "orchid": 15573, "petersburg": 8062, "fork": 9292, "\u0993": 1352, "17": 2459, "hide": 5342, "dug": 8655, "clarified": 20485, "elongated": 17876, "owes": 24381, "nash": 10594, "toby": 11291, "sobbing": 20040, "chambers": 8477, "confirming": 19195, "granville": 24926, "consumption": 8381, "121": 12606, "papal": 12156, "planet": 4774, "##ht": 11039, "eve": 6574, "twitched": 16767, "let": 2292, "expulsion": 18272, "saloon": 17078, "columnist": 13317, "cape": 4880, "premiered": 5885, "jurgen": 23171, "##\u21cc": 30118, "remedy": 19519, "cooperate": 17654, "waterways": 21938, "bells": 10118, "##nent": 21576, "retailer": 20196, "entertained": 21474, "##uation": 14505, "ussr": 10331, "ryder": 11731, "antonio": 4980, "centre": 2803, "nl": 17953, "kc": 21117, "tiger": 6816, "[unused893]": 898, "##\u30e3": 30254, "\u5357": 1785, "##lastic": 28723, "\u0927": 1326, "instrumental": 6150, "football": 2374, "shipbuilding": 16802, "\u2095": 1564, "yer": 20416, "byrd": 17845, "stood": 2768, "clinics": 17865, "\u2022": 1528, "pauline": 15595, "execute": 15389, "costing": 22173, "preaching": 17979, "foster": 6469, "marched": 9847, "mondays": 28401, "debated": 15268, "sal": 16183, "monitor": 8080, "##rdes": 26371, "nee": 7663, "spacecraft": 12076, "##\u0446": 29751, "clinched": 18311, "exhibits": 10637, "punjabi": 17498, "swap": 19948, "daddy": 8600, "damned": 9636, "##\u6e05": 30429, "loudly": 9928, "prose": 12388, "kindness": 16056, "mariana": 22097, "sinking": 10186, "##centric": 22461, "fi": 10882, "\u9673": 1972, "##cas": 15671, "perfume": 17013, "##lad": 27266, "nair": 22525, "soul": 3969, "##pour": 27757, "awhile": 19511, "steam": 5492, "##ek": 5937, "awesome": 12476, "associated": 3378, "##oom": 17650, "johnnie": 27716, "laughs": 11680, "los": 3050, "dye": 18554, "##ivate": 21466, "warming": 12959, "huge": 4121, "rahman": 14364, "##imate": 21499, "##plex": 19386, "massage": 21881, "##sov": 23230, "##saurus": 22244, "##illon": 20343, "perpetrators": 27675, "\u5408": 1792, "neue": 27713, "reliance": 17975, "##bright": 26614, "grazed": 26627, "hyper": 23760, "ferns": 25715, "##uc": 14194, "andres": 15614, "same": 2168, "diagnostic": 16474, "pain": 3255, "##cular": 15431, "promising": 10015, "pakistan": 4501, "liszt": 26273, "mastery": 26364, "witnessed": 9741, "moss": 10636, "cabins": 20321, "timmy": 27217, "kickoff": 25233, "guilty": 5905, "complications": 12763, "triumph": 10911, "##eration": 16754, "anthologies": 25675, "vicky": 22845, "midi": 22265, "appreciation": 12284, "subspecies": 11056, "communicate": 10639, "radius": 12177, "berkeley": 8256, "proceeds": 10951, "suppression": 16341, "reading": 3752, "polly": 17543, "cans": 18484, "##eman": 16704, "##adan": 26335, "vase": 18781, "##x": 2595, "103": 9800, "seaside": 20276, "anticipation": 11162, "opinion": 5448, "eclectic": 20551, "##14": 16932, "tender": 8616, "unemployment": 12163, "pamela": 17217, "##pheus": 22809, "aching": 14750, "##alis": 13911, "togo": 23588, "danube": 16212, "encompassed": 24058, "##lco": 22499, "gerard": 11063, "tajikistan": 23538, "sweep": 11740, "\u6c35": 1894, "##up": 6279, "doubts": 13579, "draft": 4433, "although": 2348, "canned": 27141, "providence": 11293, "strewn": 25259, "##\u25aa": 30145, "##sta": 9153, "23rd": 13928, "##cote": 19800, "3a": 23842, "bid": 7226, "musica": 21137, "descendant": 12608, "repetitive": 23563, "\u0923": 1322, "770": 29065, "navy": 3212, "lurched": 21977, "leases": 29597, "straight": 3442, "novgorod": 24338, "##\u30ea": 30258, "lena": 14229, "ljubljana": 21588, "backing": 5150, "run": 2448, "[unused894]": 899, "biochemistry": 22419, "zurich": 10204, "##ata": 6790, "##\u961d": 30496, "##mounted": 27632, "##pw": 28400, "probing": 28664, "warring": 28509, "glasgow": 6785, "##\u1d64": 30044, "##bi": 5638, "theirs": 17156, "rhone": 22351, "##aday": 28039, "##sie": 11741, "##kov": 7724, "allocated": 11095, "paralympics": 15600, "structural": 8332, "##\u0644": 23673, "cornwall": 10387, "iucn": 20333, "[unused89]": 90, "urban": 3923, "augustus": 11668, "accelerating": 29494, "carving": 18441, "whirled": 17097, "##ogical": 20734, "ieee": 15368, "##isson": 24077, "external": 6327, "infirmary": 23453, "\u3055": 1656, "satellite": 5871, "ferguson": 11262, "recruit": 13024, "staples": 24533, "ion": 10163, "##odes": 19847, "challenger": 12932, "wainwright": 25305, "##grapher": 18657, "1879": 7449, "##meyer": 24344, "planner": 24555, "\u539f": 1787, "goth": 25976, "guide": 5009, "##oese": 23379, "ode": 24040, "gods": 5932, "alberto": 12007, "charlotte": 5904, "albanian": 9408, "trio": 7146, "carts": 25568, "\u5f35": 1844, "beers": 18007, "##ways": 14035, "weighs": 21094, "\u1107": 1460, "##\u1100": 29991, "tributary": 8914, "connecting": 7176, "confinement": 21551, "meredith": 10635, "uncle": 4470, "etched": 20286, "##jo": 5558, "helplessly": 24942, "gordon": 5146, "##\u2015": 30053, "harvested": 22629, "pipes": 12432, "fastened": 24009, "harper": 8500, "##\u1d2e": 30027, "live": 2444, "sheds": 25999, "verona": 20197, "homes": 5014, "milestone": 19199, "creeping": 18266, "##kki": 24103, "pius": 14363, "lewis": 4572, "glue": 25238, "jace": 10352, "##ssion": 28231, "viewing": 10523, "somerville": 27209, "##\u30db": 30248, "fire": 2543, "##owski": 15249, "wonder": 4687, "whales": 17967, "auburn": 12704, "ecclesiastical": 12301, "combines": 13585, "packed": 8966, "##note": 22074, "romanesque": 17135, "1754": 22593, "zhu": 15503, "torpedoes": 18544, "groans": 27778, "bow": 6812, "jewellery": 21545, "toward": 2646, "naked": 6248, "smashing": 21105, "2018": 2760, "luton": 17807, "statements": 8635, "kang": 16073, "87": 6584, "stays": 12237, "ville": 20184, "male": 3287, "benson": 11999, "wheelchair": 13204, "domenico": 18638, "gorge": 14980, "\u6587": 1861, "##sty": 21756, "southbound": 19751, "wealthiest": 27809, "cologne": 10918, "factory": 4713, "investment": 5211, "marshal": 8610, "anarchy": 26395, "ambrose": 15675, "abdul": 10298, "straightened": 11168, "note": 3602, "film": 2143, "##worm": 22769, "bei": 21388, "##\u093e": 29876, "enemy": 4099, "playhouse": 17408, "prize": 3396, "spicy": 25482, "silence": 4223, "accordance": 10388, "lord": 2935, "##\u043e\u0432": 19259, "##hor": 16368, "pal": 14412, "manipulated": 20063, "assignment": 8775, "mara": 13955, "\u524d": 1776, "growling": 22413, "[unused486]": 491, "inhuman": 29582, "##avio": 28471, "ike": 25209, "reiterated": 28960, "\u8033": 1937, "[unused394]": 399, "exception": 6453, "##hari": 18428, "bea": 26892, "comparative": 12596, "bengals": 23227, "individual": 3265, "liga": 8018, "stella": 11894, "downstairs": 10025, "pont": 21179, "\u10dd": 1450, "helene": 20149, "optional": 11887, "possession": 6664, "##stered": 24167, "objects": 5200, "marcel": 13389, "##ridge": 9438, "owing": 11427, "displacement": 13508, "strides": 22215, "calgary": 10112, "\u09ac": 1368, "stability": 9211, "\u057f": 1236, "hydraulic": 14761, "without": 2302, "aix": 28443, "servers": 14903, "##ical": 7476, "governance": 10615, "steady": 6706, "australia": 2660, "##nies": 15580, "cycling": 9670, "acid": 5648, "violently": 14196, "forerunner": 23993, "ultimately": 4821, "##fted": 18915, "##\u540c": 30320, "conduct": 6204, "chico": 22136, "defense": 3639, "vikram": 29063, "conservation": 5680, "saving": 7494, "\u305d": 1660, "##\u2014": 30052, "\u0e2a": 1420, "does": 2515, "112": 11176, "prices": 7597, "heel": 12073, "strategy": 5656, "dementia": 28767, "##cision": 28472, "near": 2379, "sm": 15488, "katy": 17870, "##born": 10280, "entertainer": 21751, "annette": 22521, "urbana": 27929, "\u0bb2": 1392, "cod": 19429, "impress": 17894, "cap": 6178, "santiago": 8728, "edge": 3341, "clung": 14752, "belgian": 6995, "silvia": 27827, "sutra": 26567, "##sack": 25607, "cooling": 11520, "reprise": 16851, "hackett": 28630, "universities": 5534, "##\u1d40": 30031, "eagles": 8125, "pretending": 12097, "##room": 9954, "munich": 7469, "shuffled": 18764, "explanation": 7526, "pg": 18720, "[unused441]": 446, "automatic": 6882, "##ops": 11923, "cone": 13171, "constructed": 3833, "congestion": 20176, "gloom": 24067, "##optera": 25324, "newfound": 27608, "[unused368]": 373, "##vn": 16022, "peat": 23366, "wavelength": 19934, "indicative": 24668, "[unused3]": 4, "weapon": 5195, "peyton": 17931, "laptop": 12191, "qualification": 8263, "lester": 14131, "erased": 23516, "freaked": 22783, "point": 2391, "examination": 7749, "laboratories": 12030, "hms": 7220, "portraying": 17274, "complexes": 15420, "guildford": 26353, "[unused307]": 312, "kenny": 8888, "honorable": 13556, "viet": 19710, "\u1d48": 1498, "##ply": 22086, "fears": 10069, "grading": 26886, "bruce": 5503, "##cave": 27454, "##vite": 25217, "hugh": 6621, "plays": 3248, "psychiatric": 13691, "ja": 14855, "dubbed": 9188, "relevant": 7882, "broadway": 5934, "##ergy": 24395, "##rica": 14735, "archdiocese": 12658, "madagascar": 11934, "##\u3072": 30199, "##ista": 11921, "##\u03bf": 29730, "sect": 17831, "above": 2682, "flat": 4257, "dutch": 3803, "symphonic": 18957, "stevie": 17458, "##uka": 15750, "personalities": 12857, "##poo": 24667, "oriental": 11481, "clicks": 29225, "susannah": 20471, "##wi": 9148, "##layer": 24314, "von": 3854, "supplied": 8127, "1835": 10150, "salvage": 18340, "edith": 13257, "caliber": 15977, "##dler": 21222, "decorations": 14529, "olympus": 26742, "lively": 17133, "##orestation": 25794, "fatal": 10611, "mentions": 9704, "density": 4304, "outside": 2648, "savior": 24859, "breeze": 9478, "cds": 14340, "thirteenth": 14725, "chimed": 27460, "rohan": 28605, "aboriginal": 9757, "##ot": 4140, "agreement": 3820, "##\u66f8": 30397, "curtis": 9195, "evolution": 6622, "brianna": 25558, "begun": 5625, "crank": 27987, "breaks": 7807, "warships": 15964, "beck": 10272, "vibrations": 22755, "railroad": 4296, "unbroken": 29505, "nicholas": 6141, "[unused908]": 913, "facades": 28708, "midtown": 27219, "award": 2400, "easiest": 25551, "showing": 4760, "[unused110]": 115, "1695": 29140, "yield": 10750, "riches": 26768, "##ing": 2075, "proposals": 10340, "##is": 2483, "terrifying": 17082, "lazy": 13971, "dying": 5996, "kid": 4845, "##rium": 18802, "configured": 26928, "\u2015": 1518, "larson": 21213, "##dina": 18979, "##ssler": 23385, "malice": 28238, "##\u221e": 30128, "aquitaine": 24973, "##zi": 5831, "supporting": 4637, "lodge": 7410, "depictions": 20818, "##\u30df": 30250, "streaked": 21276, "feb": 13114, "##\u0430": 10260, "pinned": 11807, "bollywood": 16046, "gum": 16031, "##lide": 24198, "eternal": 10721, "##omba": 24991, "struggling": 8084, "##\u0bb2": 29928, "criteria": 9181, "sample": 7099, "orders": 4449, "[unused713]": 718, "gladstone": 21765, "christ": 4828, "crested": 25413, "chanting": 22417, "elaborate": 9603, "pumpkin": 25730, "awaited": 19605, "academies": 20994, "##you": 29337, "1944": 3646, "unpublished": 19106, "melanie": 13286, "conceptual": 17158, "bergman": 24544, "##iya": 8717, "##lington": 18722, "repay": 24565, "##ception": 24422, "##\u6211": 30381, "\u266d": 1627, "appointments": 14651, "##oop": 18589, "yarn": 27158, "jockey": 13989, "liter": 23675, "mcgraw": 24179, "cove": 11821, "##chang": 22305, "announcing": 13856, "tide": 10401, "##vah": 21927, "armour": 12371, "gunnery": 27919, "750": 9683, "\u2665": 1625, "##year": 29100, "##urized": 28405, "clinic": 9349, "\u00f8": 1100, "proxy": 24540, "##yad": 25152, "##uria": 27703, "\uff09": 1988, "und": 6151, "prayer": 7083, "jingle": 29262, "##\u738b": 30435, "libel": 26201, "\u8a01": 1949, "influenced": 5105, "diary": 9708, "##oko": 16366, "\u11af": 1486, "important": 2590, "wolf": 4702, "patton": 18090, "decimal": 26066, "gray": 3897, "tooth": 11868, "becky": 14407, "aluminium": 14794, "stripe": 18247, "clerical": 23106, "sanskrit": 11353, "##elial": 24587, "deck": 5877, "##cky": 17413, "hahn": 24266, "drumming": 22980, "alternatively": 14084, "baldwin": 10970, "regan": 16964, "england": 2563, "building": 2311, "clash": 13249, "karim": 25461, "shudder": 18261, "guernsey": 24640, "\u221e": 1601, "trading": 6202, "tnt": 24048, "rumor": 19075, "return": 2709, "laugh": 4756, "rabbis": 25602, "jennie": 27557, "loco": 28046, "\u02bb": 1145, "playoff": 7808, "brutally": 23197, "tough": 7823, "proposing": 21991, "hanover": 14393, "stylistic": 24828, "##cliff": 27580, "qin": 19781, "keyboard": 9019, "lebanese": 12592, "effectiveness": 12353, "swarm": 21708, "indicating": 8131, "##\u0e2d": 29957, "quadrant": 29371, "nightingale": 21771, "suppressed": 13712, "plc": 15492, "electricity": 6451, "dared": 15048, "##ield": 12891, "lids": 26122, "rican": 13641, "##ld": 6392, "[unused317]": 322, "cowan": 25752, "ernst": 10728, "[unused142]": 147, "lives": 3268, "derry": 17455, "12th": 5940, "labor": 4450, "arguing": 9177, "bonuses": 29563, "bred": 13680, "protesters": 13337, "childless": 26983, "##national": 25434, "jurisdictions": 17370, "##oric": 29180, "##sop": 28793, "\u05d0": 1241, "favorite": 5440, "contacts": 10402, "dalai": 28511, "\u090f": 1314, "painters": 12499, "oils": 20631, "##erate": 22139, "pi": 14255, "demise": 13614, "comical": 29257, "##eous": 14769, "plagued": 17808, "tariff": 23234, "streamed": 18498, "residues": 22644, "autumn": 7114, "[unused272]": 277, "competitor": 12692, "iphone": 18059, "werner": 14121, "biotechnology": 20353, "authorized": 9362, "##nche": 26091, "\u6e05": 1903, "propose": 16599, "am": 2572, "##rom": 21716, "spraying": 29035, "313": 22997, "##oped": 24174, "bytes": 27507, "hopped": 17230, "acquiring": 13868, "displayed": 6913, "polite": 13205, "##sai": 15816, "accelerate": 23306, "strictly": 9975, "##kney": 26993, "spa": 12403, "gains": 12154, "seldom": 15839, "##lish": 13602, "\u00b5": 1085, "##wise": 14244, "garner": 18661, "turkmenistan": 25432, "clit": 17962, "bee": 10506, "jackie": 9901, "malone": 16321, "[unused759]": 764, "hindu": 7560, "sellers": 19041, "mahogany": 23867, "resolve": 10663, "##cht": 10143, "preston": 8475, "tensions": 13136, "premium": 12882, "##ini": 5498, "##oda": 13390, "##\u8eca": 30480, "remember": 3342, "arboretum": 25197, "middlesex": 13654, "imperial": 4461, "adamant": 29502, "wrestler": 10706, "1798": 13036, "144": 14748, "\u0638": 1287, "writer": 3213, "threshold": 11207, "jennings": 14103, "96": 5986, "guerrero": 16938, "finest": 10418, "##sel": 11246, "app": 10439, "grunt": 20696, "reveal": 7487, "overs": 15849, "\u203f": 1534, "##sitor": 28307, "##\u03c1": 29732, "kinda": 17704, "pressure": 3778, "disguise": 14249, "tone": 4309, "sousa": 28535, "##apa": 22068, "helped": 3271, "details": 4751, "theft": 11933, "##kh": 10023, "##\u5206": 30301, "pony": 15606, "spectra": 29237, "utilizes": 21852, "supermarkets": 26676, "comprehension": 26683, "127": 13029, "scenarios": 16820, "inadequate": 14710, "liar": 16374, "krakow": 14576, "obey": 15470, "representatives": 4505, "spp": 26924, "bobbie": 27731, "courageous": 26103, "##estinal": 19126, "##yard": 14132, "##real": 22852, "vertical": 7471, "haiti": 12867, "##elman": 23830, "alexandre": 16971, "fielder": 25000, "\u751f": 1910, "sc": 8040, "liberalism": 26505, "grape": 14722, "supervisory": 26653, "turkey": 4977, "157": 17403, "flooded": 10361, "mighty": 10478, "panorama": 23652, "caesar": 11604, "##ated": 4383, "additionally": 5678, "##rified": 22618, "##mas": 9335, "overlap": 17702, "##rar": 19848, "[unused796]": 801, "kayla": 26491, "crosses": 7821, "hyundai": 25983, "weiss": 17889, "plaintiffs": 23953, "ore": 10848, "##suka": 26544, "brilliance": 28850, "verification": 22616, "yvonne": 21684, "##more": 5974, "alleged": 6884, "##\u30d2": 30245, "typing": 22868, "##sden": 27903, "[unused781]": 786, "lifeboat": 23450, "corbett": 24119, "lend": 18496, "##nto": 13663, "proteins": 8171, "##ador": 26467, "quad": 17718, "varied": 9426, "dax": 27116, "cavern": 16679, "nepali": 23418, "synthesized": 23572, "callie": 20072, "listing": 10328, "orioles": 18893, "skill": 8066, "accessibility": 23661, "bomber": 9472, "kathmandu": 28045, "asian": 4004, "\u0f62": 1434, "##hon": 8747, "hydroelectric": 18541, "##sner": 20479, "spider": 6804, "statutory": 15201, "##mium": 27759, "mercer": 13081, "shadowed": 25843, "owe": 12533, "continual": 27222, "seeing": 3773, "shadow": 5192, "fictional": 7214, "mathew": 25436, "methane": 24481, "narrowed": 8061, "allegiance": 14588, "##chee": 25923, "saturn": 14784, "committees": 9528, "guitarist": 5990, "[unused378]": 383, "##pole": 15049, "##lie": 8751, "1882": 7131, "humour": 17211, "mechanisms": 10595, "bernie": 15941, "heinz": 17655, "snuck": 24492, "shortage": 15843, "##lars": 28695, "crowd": 4306, "belgium": 5706, "##\u5d0e": 30360, "head": 2132, "mail": 5653, "appropriations": 22713, "inter": 6970, "prescription": 20422, "dallas": 5759, "lunatic": 26594, "coasts": 20266, "prints": 11204, "1957": 3890, "##sund": 25168, "hesitant": 20221, "\u4e8b": 1751, "##eau": 10207, "nestled": 22704, "te": 8915, "blamed": 11248, "slovenian": 16583, "ras": 20710, "components": 6177, "gunslinger": 29274, "ming": 11861, "copying": 24731, "imminent": 17566, "crusaders": 18831, "persuaded": 11766, "seventies": 26232, "##hma": 22444, "##irus": 26013, "m\u00b3": 14241, "minimal": 10124, "yankees": 11081, "nes": 24524, "[unused658]": 663, "chalk": 16833, "glover": 20012, "dogg": 28844, "prophets": 23172, "annexed": 13291, "transport": 3665, "banned": 7917, "freedoms": 22467, "resisted": 13335, "##leen": 24129, "sprang": 15627, "somethin": 27941, "sienna": 20210, "baseline": 26163, "combinations": 14930, "chichester": 23406, "sail": 9498, "newark": 12948, "siemens": 22108, "writ": 25697, "dialects": 11976, "##tar": 7559, "quebec": 5447, "[unused791]": 796, "##hesis": 24124, "listener": 19373, "checks": 14148, "comrade": 27661, "israel": 3956, "acquitted": 18538, "##sari": 22740, "barcelona": 7623, "own": 2219, "rests": 16626, "poor": 3532, "thong": 27468, "rotten": 11083, "stockholm": 8947, "\u0bc7": 1398, "1976": 3299, "jamie": 6175, "[unused59]": 60, "arts": 2840, "##stra\u00dfe": 24967, "informant": 28694, "indicated": 5393, "kernel": 16293, "grassroots": 23299, "sensed": 10596, "receptor": 10769, "mandated": 16714, "comfortable": 6625, "##mist": 23738, "##cina": 28748, "disney": 6373, "peters": 12420, "organizers": 18829, "abstraction": 24504, "agree": 5993, "##bba": 22414, "fly": 4875, "\u9752": 1975, "\u00b0": 1080, "##lea": 19738, "snacks": 27962, "solomon": 9168, "failed": 3478, "[unused930]": 935, "statesman": 17689, "ventura": 21151, "cosmetics": 25381, "subgroup": 20576, "elimination": 9614, "anticipating": 26481, "gertrude": 18734, "##\u1112": 30005, "issuing": 15089, "forthcoming": 16875, "##aghan": 26685, "##moto": 15319, "solving": 13729, "##ror": 29165, "lisa": 7059, "devotees": 22707, "1780": 15051, "decorated": 7429, "barak": 27739, "humble": 15716, "scanner": 26221, "##\u09a5": 29899, "kevin": 4901, "leukemia": 25468, "##chus": 16194, "correctional": 20873, "dal": 17488, "##band": 12733, "democrat": 7672, "##igh": 18377, "identifiable": 27800, "\u2217": 1598, "##00": 8889, "sponsorship": 12026, "##itung": 28813, "advances": 9849, "brittany": 12686, "happen": 4148, "leonard": 7723, "loaned": 13190, "##gul": 24848, "##ows": 15568, "living": 2542, "gwen": 11697, "##\u9673": 30498, "joins": 9794, "temporal": 15850, "taped": 19374, "indoors": 24274, "orange": 4589, "##ick": 6799, "1945": 3386, "[unused65]": 66, "bullying": 18917, "nfl": 5088, "offended": 15807, "champions": 3966, "mahal": 27913, "intersecting": 27294, "##bc": 9818, "follower": 22399, "importance": 5197, "educated": 5161, "\u0986": 1348, "##isch": 19946, "becomes": 4150, "##17": 16576, "evolutionary": 12761, "##tive": 6024, "heroine": 18869, "1938": 4260, "fool": 7966, "este": 28517, "munro": 20923, "revered": 23886, "arrivals": 25470, "faber": 21720, "unrest": 16591, "carleton": 22273, "1782": 16890, "giuseppe": 12574, "##dis": 10521, "dear": 6203, "feat": 8658, "troops": 3629, "possessed": 8679, "camouflage": 21356, "##version": 27774, "##iology": 20569, "label": 3830, "comparatively": 20172, "[unused201]": 206, "may": 2089, "##56": 26976, "her": 2014, "moods": 27824, "telecast": 28803, "guarding": 17019, "tufts": 25252, "completing": 7678, "##\u00b4s": 21932, "isotope": 28846, "##olis": 20872, "uses": 3594, "[unused891]": 896, "huron": 21899, "##rnik": 26437, "##yck": 28377, "##tens": 25808, "need": 2342, "##\u6709": 30399, "feels": 5683, "##unciation": 24101, "damascus": 16094, "remained": 2815, "semantics": 28081, "appearing": 6037, "[unused31]": 32, "520": 19611, "ceylon": 16447, "requests": 11186, "freely": 10350, "indira": 28232, "continuity": 13717, "yoon": 24863, "glendale": 27649, "##z": 2480, "rap": 9680, "boar": 24187, "explorer": 10566, "##tation": 12516, "boxed": 27554, "europeans": 13481, "fused": 19660, "##\u0263": 29683, "undead": 17315, "149": 17332, "tatum": 25913, "coefficients": 21374, "##\u22c5": 30141, "title": 2516, "clones": 24418, "madonna": 11284, "aka": 9875, "librarian": 13850, "porsche": 16099, "skyline": 21343, "##cope": 16186, "1629": 27882, "staggering": 26233, "[unused698]": 703, "punches": 17957, "axle": 17290, "wilfred": 26026, "coherent": 18920, "labourers": 24043, "norms": 17606, "when": 2043, "philanthropic": 25321, "shifter": 18189, "of": 1997, "pulsing": 23139, "immigrant": 11560, "jamestown": 27435, "persians": 27229, "exploits": 20397, "employed": 4846, "noctuidae": 24893, "poland": 3735, "packard": 24100, "##\u1d50": 30038, "ulster": 11059, "mermaid": 22322, "##rized": 18425, "hannover": 29209, "mapping": 12375, "marries": 19941, "geschichte": 28299, "z": 1062, "caring": 11922, "potassium": 18044, "curled": 8188, "leadership": 4105, "eurovision": 12714, "##hear": 26560, "napoleonic": 18813, "##\u5b87": 30345, "hawk": 9881, "ornaments": 24005, "economists": 22171, "bastards": 21123, "catalan": 13973, "exploring": 11131, "eugene": 8207, "\u056b": 1225, "usl": 22448, "coefficient": 19064, "engages": 24255, "manage": 6133, "sonny": 13584, "instruments": 5693, "##ott": 14517, "rule": 3627, "29th": 16318, "nexus": 26041, "dominating": 21949, "sentiments": 23541, "stockport": 26284, "1975": 3339, "internationale": 21339, "destroyed": 3908, "##weather": 28949, "##water": 5880, "##sur": 26210, "##elled": 21148, "windows": 3645, "worked": 2499, "manufactured": 7609, "caleb": 10185, "sheltered": 18304, "sufficiently": 12949, "##lynn": 27610, "blocked": 8534, "wouldn": 2876, "##\u208d": 30087, "basil": 14732, "##aea": 21996, "##ar": 2906, "officially": 3985, "administering": 28965, "##ened": 6675, "unreleased": 13270, "yukon": 19898, "##bson": 27355, "algorithms": 13792, "zach": 12397, "condom": 20910, "##sca": 15782, "morton": 11164, "contentious": 29308, "watched": 3427, "##\u3008": 30163, "sudden": 5573, "vhf": 27527, "bouts": 23666, "##eta": 12928, "waltz": 17569, "drive": 3298, "banks": 5085, "relocation": 18344, "follows": 4076, "espana": 20678, "cynical": 26881, "##scope": 26127, "then": 2059, "feelings": 5346, "ignoring": 9217, "wolverine": 22162, "flashback": 21907, "annapolis": 24889, "darren": 12270, "sir": 2909, "joo": 28576, "uncertainty": 12503, "##gai": 23805, "shot": 2915, "##nage": 27031, "shades": 13178, "##ind": 22254, "nemesis": 21363, "doha": 26528, "niall": 21889, "##\u0637": 29828, "##ages": 13923, "##\u00b1": 29657, "filmed": 6361, "schultz": 22378, "[unused519]": 524, "##nstein": 15493, "fruit": 5909, "hokkaido": 20826, "gaming": 10355, "spaghetti": 26666, "opposite": 4500, "##koff": 26126, "rounds": 6241, "locomotive": 8098, "##lation": 13490, "stationary": 17337, "validity": 16406, "endings": 21306, "fission": 27521, "jena": 27510, "##lster": 29576, "files": 6764, "girlfriends": 27408, "##eet": 15558, "##\u0580": 29784, "aquatics": 26649, "track": 2650, "guangdong": 21287, "[unused479]": 484, "attendant": 16742, "##cc": 9468, "surpassed": 15602, "##\u83ef": 30468, "bathrooms": 28942, "arctic": 10162, "reflective": 21346, "##\u03b9": 18199, "prevalent": 15157, "##ante": 12956, "treaty": 5036, "sizable": 25908, "sy": 25353, "enjoy": 5959, "ellis": 8547, "##abia": 29039, "##ivo": 20984, "bafta": 22284, "##ckey": 29183, "1946": 3918, "1802": 13515, "janet": 9965, "rows": 10281, "burning": 5255, "##gan": 5289, "zeke": 18270, "145": 13741, "vanilla": 21161, "biking": 28899, "treating": 12318, "##agne": 25440, "loans": 10940, "projects": 3934, "skipper": 23249, "chronological": 23472, "till": 6229, "weaver": 14077, "jp": 16545, "##een": 12129, "collects": 17427, "achieve": 6162, "sleeper": 24372, "keynote": 25569, "collaboration": 5792, "tracks": 3162, "##r": 2099, "artillery": 4893, "gentry": 20262, "70": 3963, "sevilla": 29363, "docks": 15093, "\u30d8": 1721, "respondents": 25094, "lectured": 19206, "vibrating": 24987, "cyclone": 11609, "squinted": 17425, "universal": 5415, "agustin": 26889, "stitches": 25343, "independence": 4336, "ceramic": 14692, "passport": 12293, "directs": 23303, "exemplary": 27792, "trinity": 7124, "henrietta": 20775, "##iferous": 23930, "compromise": 12014, "bumper": 21519, "hosts": 6184, "media": 2865, "\u2218": 1599, "aerodrome": 23843, "fleming": 13779, "ardent": 25314, "mn": 24098, "\u4f0a": 1762, "bar": 3347, "shoot": 5607, "assessed": 14155, "##uts": 16446, "colourful": 26102, "\u1166": 1473, "cruising": 22206, "celebrity": 8958, "slovak": 12747, "rankin": 25772, "ruling": 6996, "##\u00dfe": 17499, "lynch": 11404, "375": 18034, "nippon": 19364, "laszlo": 28226, "fraser": 9443, "##athlon": 17563, "bolsheviks": 28755, "voluntarily": 17912, "[unused96]": 97, "priests": 8656, "danny": 6266, "##\u30c6": 30239, "inferno": 21848, "remarkably": 17431, "\u5289": 1777, "evil": 4763, "##gee": 18372, "[unused706]": 711, "##nae": 17452, "classed": 27811, "recommended": 6749, "middleweight": 18741, "busiest": 20530, "capacities": 21157, "paint": 6773, "claudius": 25017, "frowns": 29303, "risky": 19188, "##tium": 16398, "jaguars": 24017, "[unused340]": 345, "dedicated": 4056, "seal": 7744, "literacy": 8433, "mega": 13164, "##lick": 25230, "pier": 10356, "russian": 2845, "clements": 28572, "bunk": 25277, "##[": 29634, "fled": 6783, "semiconductor": 20681, "pond": 8644, "##atable": 27892, "valley": 3028, "mask": 7308, "337": 28489, "rub": 14548, "competent": 17824, "##yr": 12541, "hurry": 9241, "##\uff1f": 30520, "migrate": 22806, "delivering": 12771, "##}": 29642, "grains": 17588, "##imeter": 19198, "allie": 16944, "https": 16770, "dial": 13764, "##ire": 7442, "dialect": 9329, "bose": 21299, "possesses": 14882, "preceding": 11003, "chaplin": 23331, "posters": 14921, "coins": 7824, "chicago": 3190, "consistently": 10862, "deliberately": 9969, "##bid": 17062, "##zziness": 29212, "##bed": 8270, "astronomical": 13674, "\u5b50": 1816, "##balance": 26657, "fixture": 15083, "breadth": 25291, "inspector": 7742, "discipline": 9009, "activities": 3450, "smoke": 5610, "soothing": 16684, "islanders": 16422, "alfred": 6152, "ash": 6683, "##ains": 28247, "##\u5341": 30309, "##\u6ca2": 30424, "##eke": 23941, "[unused310]": 315, "cd": 3729, "\u5fc3": 1849, "ignorance": 18173, "##zic": 27586, "icons": 18407, "y": 1061, "american": 2137, "1620": 24259, "wizards": 16657, "bombay": 11831, "calling": 4214, "fulfilled": 16829, "snack": 19782, "##\u05db": 29798, "##yang": 12198, "##\u0917": 29853, "pharmacy": 13882, "dna": 6064, "criterion": 19229, "fever": 9016, "classmates": 19846, "turnbull": 26439, "fingers": 3093, "restructuring": 18322, "\u00b4": 1084, "[unused652]": 657, "collapsing": 22724, "##nb": 27698, "##tery": 20902, "[unused499]": 504, "##rgy": 22637, "termed": 12061, "zero": 5717, "sacramento": 11932, "lifeless": 22185, "deter": 28283, "[unused776]": 781, "twilight": 13132, "saskatoon": 25447, "louis": 3434, "[unused431]": 436, "##dition": 20562, "cnn": 13229, "randy": 9744, "cougars": 26317, "heaviest": 26858, "kern": 22762, "##nam": 13129, "significance": 7784, "paradox": 20506, "bed": 2793, "battled": 19787, "linked": 5799, "allow": 3499, "protocol": 8778, "absorb": 16888, "##nath": 16207, "##mund": 25574, "brigadier": 9900, "invitational": 20129, "bethel": 19375, "ledger": 27106, "\u00b0f": 8157, "marilyn": 14749, "outdoor": 7254, "prompting": 15870, "spite": 8741, "[unused125]": 130, "brit": 28101, "everton": 18022, "410": 19151, "scramble": 25740, "cinnamon": 21229, "##ores": 16610, "blessing": 13301, "##idal": 16975, "administer": 21497, "radiated": 23000, "##-": 29624, "sirius": 23466, "infringement": 20701, "##rco": 29566, "searing": 25764, "bono": 23648, "\u05be": 1240, "undisclosed": 18206, "cipher": 27715, "vinyl": 8877, "snowy": 20981, "tasks": 8518, "[unused905]": 910, "mbc": 27262, "clearer": 24509, "selections": 16310, "ferries": 20157, "guilt": 8056, "##uit": 14663, "hackney": 28425, "lesbian": 11690, "marquess": 17391, "[unused512]": 517, "##eus": 10600, "trough": 23389, "aquarium": 18257, "kylie": 9008, "\u5dde": 1836, "palestine": 8976, "altitude": 7998, "arrays": 27448, "##sam": 21559, "clarence": 11805, "lid": 11876, "licensing": 13202, "movie": 3185, "ipod": 26322, "och": 28166, "guam": 16162, "deserts": 28858, "idf": 24011, "accommodation": 11366, "1729": 28449, "alert": 9499, "grades": 7022, "skins": 21049, "##uin": 20023, "##bara": 20709, "millimetres": 13388, "tones": 12623, "cass": 16220, "elliptic": 29413, "##personal": 28823, "500": 3156, "afar": 28978, "mack": 11349, "archival": 22796, "underwear": 14236, "scottish": 4104, "!": 999, "##tique": 28437, "theorists": 28442, "arabia": 9264, "legged": 15817, "heidi": 21372, "[unused108]": 113, "districts": 4733, "remembrance": 19451, "blinds": 28279, "[unused739]": 744, "##elin": 18809, "magnitude": 10194, "oilers": 19778, "##kou": 24861, "dockyard": 24874, "1688": 24082, "surrender": 7806, "07": 5718, "joey": 9558, "eagerly": 17858, "tucson": 17478, "hopeless": 20625, "rehab": 24497, "[unused123]": 128, "vibrant": 17026, "##fish": 7529, "##working": 21398, "remembering": 10397, "##bor": 12821, "uncertain": 9662, "automatically": 8073, "taller": 12283, "pro": 4013, "##movable": 25661, "industries": 6088, "governmental": 10605, "eu": 7327, "1991": 2889, "##guide": 28582, "neural": 15756, "rampage": 29216, "microwave": 18302, "\u300c": 1641, "distraction": 14836, "##\u884c": 30471, "navarre": 21260, "syndication": 26973, "\u4e2d": 1746, "##ices": 23522, "##xy": 18037, "concession": 16427, "barbados": 16893, "hezbollah": 25713, "extremely": 5186, "stare": 6237, "preserving": 15224, "documentary": 4516, "glasses": 7877, "center": 2415, "##ert": 8743, "foremost": 16097, "syndicated": 13889, "testimony": 10896, "sighing": 19381, "het": 21770, "detect": 11487, "gibraltar": 12272, "##\u0cbe": 29938, "called": 2170, "rocker": 24779, "papyrus": 29575, "##gli": 25394, "confined": 12302, "humanist": 24464, "##rth": 15265, "helsinki": 12331, "##isse": 23491, "alex": 4074, "\u2122": 1580, "sagged": 26719, "cis": 20199, "villain": 12700, "luciano": 24512, "clocks": 20940, "sickness": 15556, "##aries": 12086, "waterway": 23668, "wylie": 29152, "initiate": 17820, "outward": 15436, "##ege": 24746, "tenth": 7891, "scenes": 5019, "resembling": 15525, "murderer": 13422, "p": 1052, "shrink": 22802, "##vac": 24887, "bumps": 18548, "hardened": 15015, "delle": 24121, "##86": 20842, "[unused181]": 186, "##lind": 27164, "anonymous": 10812, "##llar": 17305, "departed": 7745, "faltered": 26015, "##uke": 15851, "##ton": 2669, "forearms": 27323, "rovers": 9819, "discovery": 5456, "fest": 17037, "footballers": 27784, "\u6211": 1855, "onto": 3031, "##bron": 21337, "a": 1037, "reunite": 25372, "regent": 11315, "assassin": 12025, "respectively": 4414, "\u7a7a": 1930, "urgency": 19353, "[unused910]": 915, "##gi": 5856, "tomas": 12675, "##phus": 25255, "inscription": 9315, "dodge": 11898, "regions": 4655, "allotted": 23932, "##nty": 29405, "states": 2163, "overcome": 9462, "mont": 18318, "vogue": 17734, "phonetic": 26664, "\u0648": 1298, "pear": 28253, "##icum": 22167, "isolated": 7275, "hinted": 21795, "panties": 12095, "outlawed": 29131, "supplying": 17731, "autobiographical": 18534, "include": 2421, "watson": 7908, "composing": 16572, "elijah": 14063, "libertadores": 27968, "[unused509]": 514,
[...]
