{"vocab": {"bracelet": 19688, "rational": 11581, "[unused282]": 287, "melancholy": 22247, "##rgeon": 28242, "##olar": 19478, "seat": 2835, "merged": 5314, "guarded": 13802, "##ellant": 24178, "##metry": 24327, "lifeboat": 23450, "organizers": 18829, "figured": 6618, "deter": 28283, "##abia": 29039, "\u6e05": 1903, "##eda": 11960, "##rdial": 25070, "numerous": 3365, "hiking": 13039, "\u0bbe": 1395, "gateway": 11909, "repetitive": 23563, "population": 2313, "##rank": 26763, "pious": 25020, "southbound": 19751, "ions": 15956, "[unused812]": 817, "##tray": 28473, ")": 1007, "250": 5539, "celtic": 8730, "##ught": 18533, "bigger": 7046, "banged": 22843, "la": 2474, "harbor": 6496, "austria": 5118, "[unused813]": 818, "vote": 3789, "\u11ab": 1485, "electronic": 4816, "nervous": 6091, "shrugged": 6345, "##jord": 24876, "\uff09": 1988, "disguised": 17330, "gottingen": 23607, "ridges": 16386, "portfolio": 11103, "##ege": 24746, "##ants": 11390, "teasing": 12216, "##\u305b": 30185, "abnormal": 19470, "liquids": 26820, "agustin": 26889, "nomination": 6488, "##$": 29615, "waltz": 17569, "bollywood": 16046, "definite": 15298, "[unused614]": 619, "cromwell": 16759, "##\u0964": 29880, "windsor": 10064, "wrongly": 29116, "configuration": 9563, "##\u53e4": 30315, "1805": 13126, "##ounded": 26240, "eritrea": 26040, "[unused786]": 791, "##phones": 19093, "hollow": 8892, "accordance": 10388, "kansas": 5111, "connolly": 21018, "backgrounds": 15406, "justice": 3425, "##cous": 27199, "##beck": 12750, "\u09bf": 1379, "jimmie": 24671, "balthazar": 25021, "sealing": 23038, "dame": 8214, "dragging": 11920, "struggle": 5998, "lakers": 18264, "##inate": 14776, "auckland": 8666, "##urrent": 29264, "\u667a": 1869, "suggest": 6592, "broadway": 5934, "ruby": 10090, "##\u1d40": 30031, "reintroduced": 28263, "##lford": 23211, "\u116f": 1479, "malay": 12605, "[unused438]": 443, "ink": 10710, "##\u21d2": 30119, "sichuan": 20980, "##tern": 16451, "gaston": 18572, "lyrical": 16376, "racers": 25791, "scary": 12459, "allegations": 9989, "boer": 19945, "##oid": 9314, "gross": 7977, "substantially": 12381, "yusuf": 23495, "honoring": 21494, "longed": 23349, "freshman": 10452, "[unused594]": 599, "megan": 12756, "replacement": 6110, "alternative": 4522, "partnered": 12404, "[unused457]": 462, "ortiz": 19439, "feel": 2514, "##personal": 28823, "\u6b4c": 1886, "\u0454": 1212, "[unused524]": 529, "apron": 20376, "stamford": 22469, "##\u308a": 30212, "pressure": 3778, "salaries": 20566, "organisation": 5502, "reality": 4507, "##\u043e\u0432\u0438\u0447": 16198, "##hawk": 17998, "germain": 19192, "seven": 2698, "##vitt": 28656, "navigable": 28538, "acquitted": 18538, "penguins": 18134, "coco": 25033, "##rdes": 26371, "144": 14748, "##din": 8718, "restraining": 28285, "warwickshire": 18430, "cabbage": 28540, "bodies": 4230, "satellites": 14549, "##grass": 19673, "[unused215]": 220, "researches": 27338, "##zuki": 24015, "306": 24622, "slipping": 11426, "##sque": 17729, "turing": 28639, "hospitalized": 24735, "morse": 17107, "##uts": 16446, "guru": 11972, "\u308a": 1686, "dentist": 24385, "##rys": 24769, "eyebrows": 8407, "swansea": 16085, "offices": 4822, "zeppelin": 22116, "islamic": 5499, "##connected": 24230, "coding": 16861, "wwii": 25755, "newcastle": 8142, "devotion": 13347, "[unused232]": 237, "sucking": 13475, "[unused901]": 906, "##lad": 27266, "columns": 7753, "##kney": 26993, "20": 2322, "ussr": 10331, "romney": 19615, "nagasaki": 27107, "suitable": 7218, "leisure": 12257, "angola": 13491, "sobs": 21503, "[unused579]": 584, "weasel": 29268, "certification": 10618, "frankie": 12784, "diego": 5277, "skies": 15717, "gray": 3897, "ribbon": 10557, "##hrer": 17875, "lethal": 12765, "##mento": 23065, "identify": 6709, "strict": 9384, "ku": 13970, "unleashed": 22416, "rulers": 11117, "##\u0570": 29775, "exempt": 11819, "arrange": 13621, "reporter": 6398, "glass": 3221, "karen": 8129, "viii": 9937, "ed": 3968, "##dick": 24066, "tata": 23236, "cheek": 5048, "recommendations": 11433, "assertion": 23617, "descriptive": 22726, "##ooped": 20671, "milk": 6501, "nations": 3741, "adult": 4639, "##\u98a8": 30503, "galerie": 17941, "##ony": 16585, "trauma": 12603, "spins": 23371, "onboard": 27120, "##koff": 26126, "geographically": 20969, "syndicated": 13889, "steam": 5492, "[unused511]": 516, "ozone": 26443, "dade": 27647, "separately": 10329, "\ufb01": 1984, "disc": 5860, "review": 3319, "kang": 16073, "##trom": 13887, "belgrade": 10291, "armenians": 20337, "niche": 18111, "mustered": 21900, "projected": 11310, "142": 16087, "fairfax": 17833, "##\u9547": 30492, "collaborator": 18843, "slavic": 13838, "##market": 20285, "programme": 4746, "##dez": 24601, "meta": 18804, "thud": 20605, "##burgh": 15496, "karnataka": 12092, "5": 1019, "gameplay": 11247, "##atable": 27892, "##rium": 18802, "slayer": 20005, "##ei": 7416, "titled": 4159, "farming": 7876, "##gua": 19696, "##inger": 9912, "rapper": 10687, "courtney": 14139, "324": 27234, "merger": 7660, "guiana": 23568, "sole": 7082, "aim": 6614, "##otype": 26305, "titan": 16537, "geometry": 10988, "philipp": 20765, "colts": 14390, "vocalist": 8032, "records": 2636, "apes": 27754, "##mium": 27759, "surveyor": 17169, "dahl": 27934, "##\u9593": 30495, "strengths": 20828, "linda": 8507, "geoff": 14915, "garage": 7381, "sent": 2741, "##ane": 7231, "seam": 25180, "standing": 3061, "inch": 4960, "##sbury": 18065, "integrating": 22380, "\u043a": 1189, "alfredo": 19423, "immensely": 24256, "inaugural": 7725, "##wark": 24298, "##pour": 27757, "\u5929": 1811, "aquatics": 26649, "##atz": 20501, "pembroke": 21457, "tipperary": 17333, "tandem": 18231, "crore": 21665, "ich": 22564, "furnace": 17533, "[unused736]": 741, "[unused66]": 67, "becomes": 4150, "prescott": 20719, "\u05e5": 1262, "repression": 22422, "subscription": 15002, "##\u9762": 30502, "arabs": 14560, "\u1d2c": 1490, "eighteen": 7763, "meredith": 10635, "mobile": 4684, "catching": 9105, "russ": 18072, "however": 2174, "carleton": 22273, "##51": 22203, "##mm": 7382, "##vre": 12229, "signage": 29404, "flood": 7186, "##rma": 17830, "knight": 5000, "##eke": 23941, "margarita": 24570, "intensive": 11806, "##\u110f": 30002, "hungarian": 5588, "activate": 20544, "y": 1061, "ufc": 11966, "weiss": 17889, "updated": 7172, "spinning": 9419, "stunning": 14726, "honey": 6861, "##jn": 22895, "##iling": 16281, "1819": 12552, "maximize": 25845, "mainz": 19876, "##lbert": 23373, "##lidae": 21595, "murals": 19016, "guillermo": 21070, "##tial": 20925, "tau": 19982, "##bies": 20536, "##slow": 26338, "##\uff5e": 30521, "cyril": 16049, "alternatively": 14084, "multinational": 20584, "ram": 8223, "remarked": 10783, "##utation": 26117, "melinda": 23721, "sax": 19656, "pill": 17357, "analog": 11698, "raped": 15504, "ipod": 26322, "fear": 3571, "vinnie": 24214, "fritz": 12880, "readily": 12192, "##eit": 20175, "##cius": 25393, "eye": 3239, "beyond": 3458, "sanjay": 29590, "##asa": 16782, "contained": 4838, "##ysis": 20960, "phelps": 20475, "married": 2496, "bertha": 25079, "legged": 15817, "hicks": 17221, "1950s": 4856, "largely": 4321, "bullock": 25200, "##ogen": 23924, "cold": 3147, "communicated": 24162, "ryder": 11731, "mariano": 22695, "blockbuster": 27858, "1747": 24522, "counselor": 17220, "depleted": 22595, "changed": 2904, "love": 2293, "ns": 24978, "seated": 8901, "mcgill": 17919, "electrically": 29103, "contestant": 10832, "##ttering": 19567, "climate": 4785, "640": 19714, "##ppy": 27659, "share": 3745, "moonlight": 11986, "##pine": 19265, "unable": 4039, "interiors": 20769, "estimated": 4358, "plausible": 24286, "diagram": 16403, "bahamas": 17094, "norfolk": 7735, "exists": 6526, "officials": 4584, "elisa": 29490, "horrible": 9202, "83": 6640, "relocate": 20102, "##load": 11066, "blinking": 15997, "##lli": 6894, "sumatra": 18262, "unlikely": 9832, "##\u662d": 30394, "exemplified": 28593, "tian": 23401, "flinders": 29120, "skinned": 19937, "koln": 28306, "identical": 7235, "darts": 17493, "##\u091f": 29856, "revealing": 8669, "wedge": 17632, "##igen": 29206, "##gai": 23805, "expand": 7818, "##lon": 7811, "cheated": 22673, "residences": 14094, "hove": 25215, "healed": 15027, "boost": 12992, "drifting": 15013, "dioceses": 26586, "captive": 12481, "biennial": 20313, "texted": 24637, "stock": 4518, "niall": 21889, "reeve": 20726, "johor": 25268, "bobby": 6173, "antennas": 26315, "##lly": 9215, "##sk": 6711, "##leton": 19263, "noise": 5005, "##dermott": 29370, "au": 8740, "gunfire": 16978, "##cle": 14321, "laser": 9138, "##azi": 16103, "sentimental": 23069, "[unused616]": 621, "bumps": 18548, "##\u0442": 22919, "speaking": 4092, "##going": 26966, "infiltrate": 29543, "lettering": 25782, "hartman": 26766, "##cture": 14890, "##bant": 29604, "1705": 29326, "\u0430": 1180, "[unused2]": 3, "technology": 2974, "archaic": 19261, "occasion": 6686, "dirk": 17594, "earthquakes": 17932, "##dia": 9032, "consider": 5136, "container": 11661, "50th": 12951, "skimmed": 28862, "[unused373]": 378, "##bay": 15907, "campeonato": 17675, "spreading": 9359, "zionist": 21379, "umpire": 20887, "trier": 25487, "##ject": 20614, "meaningless": 25120, "##\u52dd": 30306, "[unused923]": 928, "interdisciplinary": 18593, "ceasefire": 26277, "sas": 21871, "manual": 6410, "clapping": 27104, "requiem": 21199, "bowls": 15220, "amplified": 26986, "commitment": 8426, "amin": 24432, "agitated": 21568, "estates": 8707, "kiara": 28870, "seamen": 28671, "excel": 24970, "ratification": 27369, "bergman": 24544, "crowd": 4306, "[unused56]": 57, "cardinal": 7185, "onions": 24444, "revenues": 12594, "dwight": 14304, "masjid": 27779, "ability": 3754, "staying": 6595, "predator": 15267, "mare": 11941, "##islav": 19834, "virginity": 26970, "leeds": 7873, "mart": 20481, "\u10da": 1447, "##\u0575": 29777, "asking": 4851, "##pping": 14853, "[unused748]": 753, "##rao": 25667, "agencies": 6736, "viz": 26619, "augustine": 14060, "##\u767a": 30440, "moi": 25175, "\u2084": 1551, "faster": 5514, "selangor": 28904, "henrietta": 20775, "interstate": 7553, "tianjin": 26216, "during": 2076, "[unused744]": 749, "semifinals": 8565, "eventually": 2776, "stair": 23788, "expect": 5987, "jain": 17136, "starving": 18025, "storey": 11676, "ticked": 26019, "straw": 13137, "mid": 3054, "##esses": 26636, "torres": 13101, "supremacy": 22006, "##zes": 11254, "largest": 2922, "ferrer": 28390, "[unused428]": 433, "las": 5869, "##rone": 20793, "1939": 3912, "##boy": 11097, "chinatown": 22321, "interest": 3037, "##ev": 6777, "##pi": 8197, "elevations": 18166, "##cation": 10719, "maia": 23478, "toni": 16525, "##\u0ba8": 29922, "fulfillment": 29362, "wien": 22782, "manitoba": 10512, "argent": 23157, "##bib": 28065, "##\u062d": 29820, "##dl": 19422, "vanish": 25887, "monument": 6104, "hepburn": 22004, ":": 1024, "poke": 26202, "fresno": 20840, "jarrett": 24503, "atoll": 22292, "##\u00bf": 29666, "unease": 27880, "##rization": 26910, "bill": 3021, "recognize": 6807, "muslim": 5152, "edited": 5493, "demand": 5157, "workings": 24884, "consulting": 10552, "lurched": 21977, "clench": 26753, "environment": 4044, "barack": 13857, "##iography": 26535, "nirvana": 26530, "playable": 16854, "jacob": 6213, "##life": 15509, "answered": 4660, "hosted": 4354, "news": 2739, "chamberlain": 13904, "##ues": 15808, "stick": 6293, "##cote": 19800, "##ggles": 24989, "safeguard": 28805, "termed": 12061, "suicide": 5920, "wrap": 10236, "##\u0435": 15290, "budget": 5166, "##de": 3207, "homeland": 10759, "##rani": 21578, "[unused892]": 897, "##\u5948": 30340, "teachers": 5089, "\u00bd": 1092, "discrete": 16246, "infrastructure": 6502, "presentations": 18216, "litter": 19070, "chained": 22075, "\u305f": 1661, "disturbing": 14888, "whoa": 23281, "epidemic": 16311, "karim": 25461, "##jos": 19929, "wince": 29585, "oral": 8700, "##stic": 10074, "kitchen": 3829, "adherence": 29235, "##ances": 26755, "demise": 13614, "powered": 6113, "##hide": 26100, "polk": 20819, "##pt": 13876, "tao": 20216, "[unused101]": 106, "guy": 3124, "distortion": 20870, "07": 5718, "intelligent": 9414, "regret": 9038, "khz": 17737, "helium": 22764, "prophecy": 14951, "camden": 13267, "##\u2044": 30070, "##\u1112": 30005, "greco": 18180, "curator": 13023, "major": 2350, "alvin": 17348, "##metric": 12589, "books": 2808, "georgian": 9166, "defending": 6984, "\u05e9": 1266, "##oslav": 23085, "1638": 27497, "##minate": 19269, "##rist": 15061, "rushed": 6760, "##ncia": 22750, "soaring": 23990, "knot": 12226, "initiate": 17820, "fide": 26000, "bien": 29316, "administrators": 15631, "foam": 17952, "linking": 11383, "terrorists": 15554, "constituency": 5540, "suspiciously": 21501, "disciple": 17849, "[unused544]": 549, "patronage": 15694, "ivanov": 26333, "doo": 20160, "redemption": 18434, "##xa": 18684, "bath": 7198, "est": 9765, "extant": 12905, "slate": 12796, "##written": 15773, "aubrey": 18961, "ardent": 25314, "billings": 26124, "donor": 15009, "rescues": 26001, "##\u2113": 30105, "cure": 9526, "walkway": 19467, "century": 2301, "repeat": 9377, "clung": 14752, "command": 3094, "foreword": 23059, "playfully": 22608, "tertiary": 13553, "tung": 27079, "labeled": 12599, "retreated": 11672, "[unused172]": 177, "welcome": 6160, "himalayas": 26779, "noir": 15587, "beau": 17935, "spears": 13957, "hammersmith": 28420, "##ily": 6588, "##ouse": 15441, "2000": 2456, "surfer": 27747, "culminated": 16943, "generic": 12391, "sequels": 25815, "windmill": 25367, "##hyl": 29598, "double": 3313, "faintly": 18587, "adapting": 25357, "wounded": 5303, "auschwitz": 24363, "##ini": 5498, "bayern": 21350, "concerned": 4986, "##oman": 20778, "materialized": 27075, "cheshire": 13789, "[unused612]": 617, "craven": 21232, "mora": 26821, "anthropologist": 21571, "doorstep": 26581, "chart": 3673, "[unused914]": 919, "specified": 9675, "blair": 10503, "geek": 29294, "##\u5fa1": 30373, "superior": 6020, "[unused105]": 110, "symbolism": 22050, "childless": 26983, "nightclub": 15479, "weber": 13351, "##riated": 25475, "##zee": 23940, "\u305d": 1660, "##\u5408": 30318, "tapes": 13324, "cornish": 17797, "ambient": 17093, "garcia": 7439, "zachary": 19474, "principles": 6481, "pixel": 22138, "[unused263]": 268, "buddhism": 11388, "590": 25186, "wigan": 15598, "larger": 3469, "rudder": 24049, "alyssa": 26442, "magnate": 27470, "croft": 28983, "have": 2031, "##yal": 21095, "ssr": 20896, "harp": 14601, "intel": 13420, "trondheim": 26331, "push": 5245, "enrolled": 8302, "winston": 10180, "henan": 27837, "[unused577]": 582, "##\u1019": 29973, "viaduct": 20596, "##bian": 15599, "##yes": 23147, "waiting": 3403, "differences": 5966, "nina": 9401, "[unused565]": 570, "class": 2465, "pursuant": 27081, "tumble": 28388, "grabbing": 9775, "choices": 9804, "##\u6c11": 30418, "vigorous": 21813, "obama": 8112, "successor": 6332, "dissatisfaction": 28237, "shipment": 22613, "reputed": 22353, "decorated": 7429, "lobster": 27940, "##por": 17822, "barnet": 26864, "peered": 10757, "microscopic": 26396, "rotational": 25254, "oyster": 21480, "##vr": 19716, "possible": 2825, "eps": 20383, "parramatta": 22820, "substances": 13978, "delilah": 23006, "selena": 19166, "ornaments": 24005, "diversity": 8906, "gaga": 23332, "modifying": 29226, "36th": 21460, "petitions": 24320, "dig": 10667, "##\u00dfe": 17499, "##urai": 24804, "[unused382]": 387, "musician": 5455, "mrs": 3680, "nwa": 15737, "[unused607]": 612, "gonzaga": 26840, "##ocating": 27483, "meadows": 13524, "subdivision": 12572, "exposure": 7524, "subjected": 13532, "harvey": 7702, "##yama": 11613, "ambitious": 12479, "##lving": 25780, "reluctant": 11542, "marathon": 8589, "ca": 6187, "dissatisfied": 25956, "boxers": 18508, "1970s": 3955, "##elia": 13902, "cfa": 28125, "[unused310]": 315, "maritime": 7803, "incomplete": 12958, "##bang": 25153, "verge": 16079, "##chi": 5428, "depression": 6245, "donors": 17843, "shine": 12342, "rejoined": 14311, "ebony": 27680, "freestyle": 9817, "mcdowell": 25005, "sexuality": 13798, "liga": 8018, "department": 2533, "engine": 3194, "indexed": 25331, "ancestors": 10748, "satisfactory": 23045, "mermaid": 22322, "speculated": 15520, "blackburn": 13934, "##lberg": 22927, "types": 4127, "##uri": 9496, "tar": 16985, "stress": 6911, "##rry": 12244, "picture": 3861, "##wyl": 27740, "chord": 13924, "fibers": 16662, "rebel": 8443, "smell": 5437, "honeymoon": 19227, "noticeably": 25327, "portal": 9445, "losers": 23160, "tentative": 19943, "352": 28906, "earle": 23888, "\u2193": 1586, "elevator": 7764, "lacks": 14087, "evolving": 20607, "spit": 13183, "344": 29386, "##\u0995": 29889, "##\u2663": 30151, "##ipes": 28108, "[unused269]": 274, "kuala": 15490, "past": 2627, "lodges": 26767, "##rose": 13278, "##ized": 3550, "pigeons": 27567, "flavor": 14894, "zipper": 22082, "sundays": 14803, "funded": 6787, "##\u0192": 29675, "bucks": 14189, "paw": 22195, "spectators": 12405, "kelley": 19543, "boasts": 21979, "windy": 27370, "wanting": 5782, "filing": 15242, "robbins": 18091, "republics": 24822, "##sha": 7377, "##\u306e": 30197, "##43": 23777, "##yeh": 25673, "##\u30e5": 30255, "##ken": 7520, "##lak": 23451, "wool": 12121, "\u09c0": 1380, "footballer": 4362, "smackdown": 22120, "1990": 2901, "continually": 14678, "non": 2512, "saxophonist": 19977, "bryson": 26845, "dec": 11703, "requested": 7303, "studios": 4835, "restraints": 28054, "##proof": 18907, "styling": 20724, "##firmed": 23141, "elgin": 23792, "trumpet": 9368, "brook": 9566, "[unused12]": 13, "##isch": 19946, "\u00b9\u2044\u2082": 18728, "\u091a": 1318, "##har": 8167, "[unused673]": 678, "1728": 26833, "##eta": 12928, "chandler": 13814, "blossom": 20593, "##oint": 25785, "colours": 8604, "including": 2164, "armament": 14410, "\u0582": 1238, "spike": 9997, "advising": 23875, "##nto": 13663, "\u0629": 1272, "id": 8909, "\u0f0b": 1424, "crouch": 21676, "fucked": 21746, "##dal": 9305, "trenton": 17148, "ill": 5665, "[unused909]": 914, "liberals": 13350, "dark": 2601, "condom": 20910, "##lth": 24658, "##pole": 15049, "##ema": 14545, "##\u4e5f": 30276, "tool": 6994, "issues": 3314, "##ieving": 25587, "##fine": 23460, "advantages": 12637, "51st": 26017, "amino": 13096, "hope": 3246, "improvement": 7620, "horses": 5194, "1941": 3874, "axel": 18586, "sophie": 8234, "shoving": 15866, "\u20ac": 1574, "directs": 23303, "dunes": 17746, "##lr": 20974, "eruptions": 28448, "thrilling": 26162, "point": 2391, "wrexham": 27119, "persons": 5381, "pau": 29025, "hovered": 18190, "##pro": 21572, "lds": 17627, "\u0434": 1184, "##had": 16102, "police": 2610, "belmont": 17449, "##itch": 20189, "excelled": 23081, "hilt": 21184, "dome": 8514, "kinship": 27866, "##?": 29632, "##alia": 22786, "urban": 3923, "affinity": 16730, "shelton": 22230, "playground": 14705, "arm": 2849, "speech": 4613, "bottle": 5835, "01": 5890, "coconut": 16027, "[unused258]": 263, "euclidean": 25826, "sacramento": 11932, "injured": 5229, "drives": 9297, "1735": 26063, "mosquito": 22529, "stuart": 6990, "allie": 16944, "duane": 27319, "usual": 5156, "elliptical": 27213, "pains": 20398, "activated": 8878, "railroad": 4296, "gable": 13733, "vintage": 13528, "##aja": 22734, "assessing": 20077, "ernesto": 22428, "entered": 3133, "straits": 18849, "nearby": 3518, "wil": 19863, "picket": 28972, "apocalypse": 16976, "##54": 27009, "##bara": 20709, "stipulated": 25729, "##mbo": 13344, "centuries": 4693, "pioneers": 13200, "##dler": 21222, "transylvania": 20816, "##cal": 9289, "simply": 3432, "cowan": 25752, "describing": 7851, "scratching": 20291, "magma": 28933, "canopy": 14582, "##aan": 14634, "[unused708]": 713, "[unused922]": 927, "colonization": 18962, "barclay": 23724, "##42": 20958, "1989": 2960, "springsteen": 26002, "roofs": 15753, "gr": 24665, "lose": 4558, "clinic": 9349, "eats": 20323, "disasters": 18665, "sly": 18230, "combined": 4117, "\u5dff": 1837, "malone": 16321, "ignorant": 21591, "tone": 4309, "##lde": 17920, "serie": 8668, "forces": 2749, "romanian": 7056, "1815": 10679, "forster": 21316, "##book": 8654, "florence": 7701, "##\u0e2d": 29957, "[unused582]": 587, "dump": 15653, "##ju": 9103, "exciting": 10990, "leased": 12019, "malta": 9933, "[unused439]": 444, "##trust": 24669, "alcoholic": 14813, "carts": 25568, "unwilling": 15175, "##ned": 7228, "helpful": 14044, "emi": 12495, "teachings": 12209, "[unused14]": 15, "lesions": 22520, "breakout": 25129, "deemed": 8357, "1714": 25241, "##boys": 24916, "terre": 25170, "##mit": 22930, "1868": 7582, "line": 2240, "arcade": 10877, "protruding": 23868, "curt": 20099, "squire": 21263, "##agawa": 20812, "##nish": 24014, "##tlan": 28922, "##\u2202": 30120, "sims": 18135, "shetland": 25552, "fours": 23817, "snyder": 17840, "templar": 27850, "rainer": 28035, "progressive": 6555, "indicative": 24668, "admired": 12749, "##gni": 29076, "bao": 25945, "motor": 5013, "jude": 12582, "other": 2060, "[unused114]": 119, "apologized": 17806, "##copic": 26461, "dictator": 21237, "##ati": 10450, "##hoe": 14490, "displayed": 6913, "purported": 27023, "twenty": 3174, "robots": 13507, "internationally": 7587, "belt": 5583, "precursor": 14988, "cool": 4658, "occupied": 4548, "ever": 2412, "##cision": 28472, "sanchez": 10568, "encountered": 8567, "1628": 28627, "barrister": 19805, "inspector": 7742, "prevailing": 19283, "repay": 24565, "projectile": 25921, "flawed": 25077, "##guide": 28582, "tuberculosis": 15877, "horned": 26808, "de": 2139, "##bic": 13592, "marrow": 24960, "choked": 12444, "bribe": 26470, "lattice": 17779, "##sr": 21338, "financed": 13790, "jewels": 15565, "physiological": 19389, "passionate": 13459, "org": 8917, "\u060c": 1268, "sentences": 11746, "##ids": 9821, "pakistan": 4501, "joyce": 11830, "returns": 5651, "##iciencies": 28227, "##fied": 10451, "career": 2476, "cassidy": 13737, "otter": 22279, "synthesizers": 22211, "shifters": 21537, "##xes": 20156, "##enity": 20693, "sawyer": 13975, "##ographer": 26145, "facial": 13268, "gazette": 11391, "kerala": 8935, "##ols": 27896, "[unused25]": 26, "seattle": 5862, "clicked": 13886, "pump": 10216, "\u30e0": 1725, "lyndon": 23037, "puppet": 13997, "quarterfinal": 29380, "northeast": 4794, "sub": 4942, "##yck": 28377, "##face": 12172, "##rth": 15265, "defenders": 12534, "\u02bb": 1145, "##\u300d": 30168, "dunkirk": 29467, "compensated": 29258, "1978": 3301, "softly": 5238, "lined": 7732, "[unused287]": 292, "##bing": 10472, "##ists": 5130, "bow": 6812, "adulthood": 20480, "##ulata": 18060, "raf": 7148, "elected": 2700, "scotland": 3885, "regards": 12362, "redskins": 17461, "dining": 7759, "decrease": 9885, "adverse": 15316, "##than": 21604, "slogan": 14558, "essentially": 7687, "oliveira": 24263, "cruising": 22206, "forgiven": 24280, "suggestions": 15690, "180": 8380, "##lp": 14277, "\u2605": 1620, "##\u1d52": 30039, "melting": 13721, "mack": 11349, "wallis": 24029, "reginald": 14435, "does": 2515, "##ess": 7971, "mystical": 17529, "commotion": 23960, "##+": 29622, "intellectual": 7789, "purchasing": 13131, "calculated": 10174, "retaining": 12823, "[unused830]": 835, "##entes": 26933, "##dong": 17679, "bowen": 16208, "thorpe": 20249, "1818": 12094, "charlemagne": 27257, "##gizing": 28660, "##tonic": 25009, "crude": 13587, "manufacture": 9922, "saying": 3038, "veracruz": 23741, "international": 2248, "kidnapping": 15071, "prostitutes": 20833, "##gart": 27378, "supervisory": 26653, "##torm": 20654, "richest": 18429, "christi": 21359, "prompt": 25732, "lei": 26947, "1877": 7557, "armand": 20371, "[unused489]": 494, "length": 3091, "oricon": 22237, "slab": 17584, "apparent": 6835, "storms": 12642, "##nary": 24041, "accessories": 16611, "befriended": 23386, "fork": 9292, "inquisition": 24638, "shut": 3844, "##tling": 15073, "vaccines": 28896, "antibody": 27781, "core": 4563, "squad": 4686, "provision": 9347, "pig": 10369, "kicked": 6476, "nectar": 24816, "vegas": 7136, "fierce": 9205, "added": 2794, "##\u5d0e": 30360, "raoul": 22063, "bequeathed": 27180, "[unused255]": 260, "yearning": 29479, "iss": 26354, "\u6d77": 1902, "##wang": 16600, "despair": 13905, "slid": 4934, "##slin": 22908, "waterfall": 14297, "say": 2360, "provocative": 26422, "portions": 8810, "##\u65e5": 30390, "recorder": 14520, "##bbs": 17226, "dwellings": 16707, "algae": 18670, "html": 16129, "##\u03b1": 14608, "systematic": 11778, "mckenna": 21749, "reliable": 10539, "rican": 13641, "poised": 22303, "sylvia": 13378, "##nem": 25832, "ambushed": 22168, "register": 4236, "constantine": 12790, "\u2660": 1623, "german": 2446, "orb": 19607, "dauphin": 29102, "consolation": 24831, "independently": 9174, "manuscript": 8356, "##tya": 21426, "98": 5818, "delta": 7160, "taxon": 28521, "satire": 18312, "[unused795]": 800, "horatio": 27752, "shuttle": 10382, "analyzed": 16578, "##ht": 11039, "janice": 20029, "##56": 26976, "##(": 29619, "drawings": 9254, "##imating": 22835, "##\u667a": 30395, "india": 2634, "[unused217]": 222, "tran": 25283, "abbas": 17532, "echoing": 17142, "burma": 11050, "boris": 11235, "scrape": 26988, "poultry": 22468, "nave": 12847, "tidy": 29369, "rhineland": 21640, "compelled": 15055, "pickup": 15373, "huntington": 16364, "shorter": 7820, "##owed": 15096, "anal": 20302, "disrupt": 23217, "##omo": 19506, "flooded": 10361, "placed": 2872, "##romatic": 23645, "##ong": 5063, "##mann": 5804, "[unused170]": 175, "sargent": 27599, "comparison": 7831, "fastened": 24009, "satin": 19412, "obstacles": 15314, "route": 2799, "##\u0438": 10325, "safety": 3808, "[unused855]": 860, "essential": 6827, "andersen": 18308, "reprinted": 13603, "1690": 24765, "austrians": 28439, "bobbed": 29579, "##rified": 22618, "employ": 12666, "slap": 14308, "asiatic": 23983, "[unused272]": 277, "upcoming": 9046, "lingered": 17645, "dental": 11394, "[unused270]": 275, "##founded": 21001, "mysterious": 8075, "arid": 17511, "winced": 15574, "##enna": 24397, "[unused314]": 319, "aramaic": 28934, "enraged": 18835, "hazel": 14015, "hailed": 16586, "barrow": 15355, "drown": 19549, "belarus": 12545, "##mering": 27851, "inspiring": 18988, "qin": 19781, "##kiewicz": 28563, "contend": 27481, "ideological": 17859, "usually": 2788, "outdoors": 19350, "\u211d": 1579, "dancers": 10487, "sr": 5034, "confederacy": 18179, "##rgh": 27172, "solids": 26778, "paperwork": 17397, "methodist": 8938, "allows": 4473, "complex": 3375, "##manship": 21530, "cruises": 23986, "cypress": 22183, "breeding": 8119, "synthesis": 10752, "basic": 3937, "aching": 14750, "enslaved": 22216, "##dorff": 26559, "inside": 2503, "icc": 16461, "porsche": 16099, "##\u884c": 30471, "political": 2576, "nhl": 7097, "distillery": 24870, "tu": 10722, "julio": 15090, "darren": 12270, "\u5927": 1810, "[unused40]": 41, "##liffe": 27931, "nails": 10063, "shipments": 24636, "navajo": 22440, "##\u0916": 29852, "[unused43]": 44, "pulpit": 23134, "gardens": 5822, "##ndo": 15482, "trucks": 9322, "fog": 9666, "partridge": 26079, "haute": 18535, "caressing": 25296, "depend": 12530, "downward": 14047, "\u0f42": 1426, "##lana": 16695, "terrorism": 10130, "dieter": 27976, "moritz": 28461, "dessert": 18064, "division": 2407, "gem": 17070, "cottages": 18918, "ajax": 18176, "administration": 3447, "typed": 21189, "\u5dde": 1836, "concession": 16427, "grinding": 16153, "sounding": 9391, "245": 21005, "industry": 3068, "semantics": 28081, "shocking": 16880, "aspects": 5919, "still": 2145, "defines": 11859, "cook": 5660, "crambidae": 21585, "\u0452": 1211, "##fly": 14151, "##\u02bc": 29712, "racecourse": 15948, "580": 23712, "suffolk": 12291, "##gal": 9692, "ptolemy": 23517, "slave": 6658, "1816": 12357, "brushed": 7765, "became": 2150, "vigor": 24474, "captains": 15755, "ladies": 6456, "connecticut": 6117, "[unused712]": 717, "##\u2205": 30121, "##asia": 15396, "scheduling": 19940, "colors": 6087, "holden": 9988, "sts": 8541, "perfectly": 6669, "billing": 25640, "barges": 27712, "debris": 11385, "fantasia": 29203, "##\u09aa": 29903, "lie": 4682, "sorts": 11901, "nexus": 26041, "thirties": 26313, "staggering": 26233, "peacock": 18931, "skirmish": 27264, "##lein": 19856, "cannon": 8854, "comprise": 15821, "dodged": 28339, "peers": 12746, "beliefs": 9029, "bafta": 22284, "mls": 16287, "scratch": 11969, "trailed": 11145, "proposals": 10340, "##\u0baf": 29926, "dresser": 16641, "responsibility": 5368, "[unused985]": 990, "swelling": 18348, "##c": 2278, "incorporate": 13265, "1797": 14112, "##v": 2615, "banjo": 16698, "cai": 29080, "broadly": 13644, "##as": 3022, "##bha": 22655, "inscriptions": 12920, "[unused171]": 176, "trembled": 14823, "107": 10550, "overtime": 12253, "[unused979]": 984, "##ien": 9013, "##ied": 6340, "jumper": 21097, "##ter": 3334, "circumstances": 6214, "##fields": 15155, "marketed": 11625, "shrubs": 18812, "renaming": 24944, "##yde": 18124, "moderate": 8777, "dubbed": 9188, "[unused407]": 412, "##sey": 7952, "truths": 23019, "prosecuted": 21651, "microscopy": 29105, "##mut": 28120, "elemental": 19529, "needles": 17044, "##lock": 7878, "iceland": 10399, "\u0444": 1199, "implant": 27159, "someplace": 24956, "superseded": 19886, "edit": 10086, "\u5fc4": 1850, "reside": 13960, "edge": 3341, "successfully": 5147, "climates": 24734, "holocaust": 11513, "##yya": 19903, "juventus": 22760, "##oft": 15794, "personalities": 12857, "quantitative": 20155, "\u56db": 1798, "adrenaline": 14963, "##gger": 13327, "pip": 28315, "harvard": 5765, "\u30ad": 1701, "aarhus": 29173, "##ndt": 26379, "monitored": 17785, "hypnotic": 28322, "manhattan": 7128, "\u0923": 1322, "uneven": 17837, "sort": 4066, "manufactured": 7609, "sonora": 26647, "breaststroke": 28164, "eucalyptus": 27111, "##su": 6342, "##church": 22743, "if": 2065, "chiang": 17684, "wear": 4929, "##uan": 13860, "flag": 5210, "##tin": 7629, "enthusiastic": 14727, "refusal": 13948, "aidan": 12643, "##\u304f": 30179, "##ando": 28574, "vincenzo": 24712, "nino": 20801, "idea": 2801, "2001": 2541, "mesa": 15797, "illness": 7355, "secretary": 3187, "impact": 4254, "emperors": 19655, "##wine": 21924, "dazed": 19720, "##pin": 8091, "##ici": 28775, "ground": 2598, "automobiles": 19207, "slot": 10453, "knowles": 22815, "##venor": 26806, "[unused319]": 324, "domingo": 15586, "##uram": 27618, "brahms": 28419, "##\u2044\u2084": 27392, "headline": 17653, "static": 10763, "##vira": 24093, "erroneously": 29411, "cylinder": 7956, "\u4e8b": 1751, "\u0289": 1131, "min": 8117, "registered": 5068, "radical": 7490, "mastered": 15682, "kaitlyn": 28584, "corn": 9781, "violinist": 16609, "marries": 19941, "sedan": 15134, "##genase": 28835, "tibet": 13319, "follow": 3582, "##\u30e9": 30257, "wildly": 13544, "\u300e": 1643, "patrolling": 24248, "##te": 2618, "multitude": 20889, "##\u20b9": 30104, "distrust": 29245, "##acing": 26217, "salvatore": 17485, "pigs": 14695, "##dicated": 26022, "##oto": 11439, "deng": 26957, "sa": 7842, "word": 2773, "mapped": 17715, "clue": 9789, "injection": 13341, "1812": 9842, "sail": 9498, "737": 22061, "fired": 5045, "##tness": 27401, "armstrong": 9143, "taken": 2579, "print": 6140, "erection": 13760, "yi": 12316, "##dance": 25514, "##dling": 14423, "melbourne": 4940, "##\u0f0b": 29960, "chases": 29515, "expired": 13735, "bitch": 7743, "##kshi": 27488, "beta": 8247, "sierra": 7838, "rematch": 18229, "moshe": 27123, "vase": 18781, "##\u201d": 30059, "\u65b0": 1862, "diva": 25992, "greedy": 20505, "##lkirk": 23913, "dent": 21418, "investigator": 14064, "polls": 14592, "\u5948": 1814, "libertadores": 27968, "nt": 23961, "reggae": 15662, "callie": 20072, "##zzle": 17644, "drummer": 7101, "carpet": 10135, "sera": 26358, "rohan": 28605, "realise": 19148, "##uge": 22890, "admiration": 17005, "crust": 19116, "##nist": 26942, "##oat": 16503, "warm": 4010, "alabama": 6041, "hangul": 19051, "##urer": 27595, "bullets": 10432, "irving": 12415, "antonia": 24272, "scare": 12665, "clicking": 22042, "audio": 5746, "stoke": 13299, "##ices": 23522, "medals": 6665, "paralysis": 26287, "luisa": 25412, "shortages": 22623, "adventures": 7357, "steamboat": 24897, "rower": 21984, "examination": 7749, "competitors": 10159, "exponential": 27258, "##cast": 10526, "state": 2110, "traded": 7007, "robot": 8957, "##mada": 23574, "##breaker": 21204, "aging": 12520, "prey": 8336, "indicating": 8131, "thompson": 5953, "later": 2101, "sharpe": 22147, "##30": 14142, "scholarships": 15691, "##bria": 21556, "portage": 25140, "nyu": 27935, "cat": 4937, "proponents": 20401, "[unused294]": 299, "tibetan": 11953, "oakland": 9182, "hank": 9180, "[unused903]": 908, "##pe": 5051, "goran": 28356, "terraces": 25633, "##rick": 11285, "chestnut": 15655, "##bat": 14479, "suppose": 6814, "##kushima": 24917, "films": 3152, "##itated": 15198, "expecting": 8074, "ears": 5551, "classrooms": 12463, "##ity": 3012, "\u0ba4": 1385, "cohen": 9946, "hut": 12570, "\u4e8c": 1752, "wrapping": 12252, "##helm": 24546, "crimson": 11466, "auburn": 12704, "##play": 13068, "smithsonian": 15720, "siege": 6859, "males": 3767, "benefit": 5770, "conservative": 4603, "fjord": 26158, "nick": 4172, "pet": 9004, "concert": 4164, "\u0e21": 1415, "reign": 5853, "##rch": 11140, "older": 3080, "##gata": 26589, "lighting": 7497, "citrus": 20418, "##\u2666": 30153, "hugh": 6621, "loomed": 24358, "120": 6036, "##8": 2620, "##brush": 18623, "away": 2185, "provisional": 10864, "capcom": 26861, "darwin": 11534, "[unused448]": 453, "blocked": 8534, "asserts": 19514, "brussels": 9371, "##ppe": 21512, "##physical": 23302, "tunisia": 13437, "squinting": 29156, "wander": 17677, "##tish": 24788, "flare": 17748, "patch": 8983, "muscles": 6650, "lesser": 8276, "favorites": 20672, "##tyn": 25680, "[unused523]": 528, "announces": 17472, "oxygen": 7722, "daze": 28918, "one": 2028, "technician": 16661, "fingered": 28842, "\u10d4": 1442, "gm": 13938, "\u30c4": 1712, "##lier": 14355, "##llo": 7174, "##thal": 24090, "slammed": 7549, "harrow": 24560, "##nica": 12782, "acquaintance": 18363, "##\u1169": 30011, "data": 2951, "##ddling": 21814, "like": 2066, "fatally": 26292, "turned": 2357, "##ange": 22043, "rug": 20452, "israelis": 28363, "##tzer": 29546, "clive": 14675, "##nsky": 25655, "##ole": 9890, "surround": 15161, "##mouth": 14359, "attention": 3086, "##ience": 13684, "continuity": 13717, "exploding": 20728, "[unused501]": 506, "lucy": 7004, "decides": 7288, "dell": 12418, "tempered": 22148, "\u56fd": 1799, "patted": 11930, "lacy": 19959, "\u11bc": 1489, "werner": 14121, "makeshift": 19368, "mum": 12954, "went": 2253, "silvio": 28107, "\u0575": 1230, "##\u1d64": 30044, "longevity": 26906, "tracker": 27080, "beating": 6012, "rolf": 23381, "264": 21611, "restricted": 7775, "chemist": 15535, "suitcase": 15940, "bypass": 11826, "bartlett": 20081, "quo": 22035, "entitled": 4709, "heartbeat": 12251, "\u661f": 1866, "blanca": 27538, "because": 2138, "dunedin": 22020, "emerged": 6003, "windshield": 19521, "rory": 14285, "##ddin": 18277, "begins": 4269, "[unused418]": 423, "reporting": 7316, "##analysis": 25902, "key": 3145, "##wice": 23425, "ballots": 17069, "schooling": 14118, "lillian": 19344, "##log": 21197, "mountainous": 14897, "##rien": 23144, "carvings": 22838, "##ples": 21112, "englishman": 25244, "prc": 26141, "brows": 11347, "1836": 10081, "fellowship": 7881, "friar": 25287, "conditioned": 22442, "zoe": 11199, "beside": 3875, "shallow": 8467, "##bino": 21891, "\u5fb7": 1848, "reservoir": 8071, "##ok": 6559, "glue": 25238, "feasible": 22945, "pasha": 14292, "nixon": 11296, "gases": 15865, "##hon": 8747, "1680": 24621, "##hler": 13620, "ultimately": 4821, "scientists": 6529, "principality": 18018, "##ffy": 16329, "villiers": 25333, "eden": 10267, "elaine": 15263, "android": 11924, "dail": 26181, "##awan": 25903, "finishing": 5131, "[unused392]": 397, "##udi": 21041, "##uaries": 22579, "feather": 15550, "carnival": 11485, "##5": 2629, "factor": 5387, "neighbour": 20065, "nat": 14085, "##eber": 22669, "sloop": 24786, "lagoon": 15825, "zach": 12397, "##mum": 27147, "ye": 6300, "##fle": 21031, "dinah": 26562, "##rba": 28483, "mecca": 21340, "whom": 3183, "negotiate": 13676, "sword": 4690, "enable": 9585, "einstein": 15313, "esther": 14631, "differ": 11234, "relax": 9483, "renovations": 15576, "oak": 6116, "1814": 10977, "beams": 13110, "##ise": 5562, "hubbard": 16580, "judging": 13325, "replaced": 2999, "\u767d": 1915, "consists": 3774, "sabah": 22515, "characterization": 23191, "device": 5080, "nielsen": 13188, "##tty": 15353, "corrugated": 27186, "dread": 14436, "compatible": 11892, "monsieur": 21380, "austen": 24177, "1723": 26621, "365": 19342, "divided": 4055, "requirement": 9095, "stout": 18890, "grandson": 7631, "tightly": 7371, "hawker": 23937, "##\u65b0": 30388, "##eller": 24038, "stripping": 23987, "albeit": 12167, "ax": 22260, "exchange": 3863, "io": 22834, "480": 17295, "kiss": 3610, "inferior": 14092, "von": 3854, "met": 2777, "##\u301c": 30171, "intentionally": 15734, "coming": 2746, "winger": 16072, "jamal": 24132, "tendencies": 20074, "cases": 3572, "\uff5e": 1995, "pavement": 14271, "verse": 7893, "illinois": 4307, "[unused762]": 767, "haste": 24748, "stench": 21555, "jp": 16545, "212": 18164, "evidence": 3350, "zaragoza": 25744, "[unused728]": 733, "[unused968]": 973, "##able": 3085, "kerry": 11260, "slack": 19840, "##fer": 7512, "vanished": 9955, "crown": 4410, "ev": 23408, "pointer": 20884, "##pass": 15194, "fairbanks": 24502, "pathetic": 17203, "diplomat": 11125, "biographer": 17121, "nostalgia": 26968, "nw": 22064, "jackets": 17764, "ipad": 25249, "##cure": 23887, "populations": 7080, "philharmonic": 12355, "interactive": 9123, "partial": 7704, "centers": 6401, "streams": 9199, "nickelodeon": 20814, "democrat": 7672, "offers": 4107, "##mona": 21781, "vanilla": 21161, "##uppe": 29547, "back": 2067, "textual": 25304, "housing": 3847, "weary": 16040, "##taking": 17904, "sneakers": 28130, "prix": 5431, "registration": 8819, "##path": 15069, "rejoin": 25261, "##wa": 4213, "##ccus": 27631, "##tra": 6494, "stunned": 9860, "cores": 25562, "##pu": 14289, "odds": 10238, "clouds": 8044, "##\u03c8": 29738, "mahogany": 23867, "accord": 15802, "##ywood": 26985, "##itation": 18557, "horticultural": 26235, "descended": 9287, "ascribed": 28025, "\u7537": 1912, "purposely": 24680, "healthcare": 9871, "bathed": 24614, "taxation": 14952, "warriors": 6424, "assists": 8456, "profit": 5618, "##tors": 6591, "holster": 29447, "##vocation": 19152, "snaps": 20057, "conspicuous": 19194, "##\u03be": 29729, "sourced": 23184, "concerning": 7175, "##stellar": 29028, "presided": 15506, "##pf": 14376, "##osphere": 25444, "\u00df": 1096, "formats": 11630, "##vc": 25465, "##aca": 19629, "##\u05d3": 29791, "featuring": 3794, "operators": 9224, "##unt": 16671, "raiders": 10642, "simulated": 23599, "county": 2221, "##fide": 20740, "t": 1056, "frank": 3581, "cortes": 22242, "slash": 18296, "##arina": 27943, "abandoning": 19816, "##jhl": 29001, "pontifical": 22362, "clouded": 26761, "wicket": 12937, "##\u4e2d": 30272, "coil": 17085, "##the": 10760, "anya": 21728, "##ancy": 11656, "##ruff": 26919, "sophia": 9665, "bose": 21299, "##co": 3597, "##rb": 15185, "u": 1057, "\u0dc0": 1407, "supposedly": 10743, "teased": 13074, "rain": 4542, "calf": 19134, "##hea": 20192, "viral": 13434, "sparsely": 24961, "buttons": 11287, "cadet": 12738, "clothed": 24963, "led": 2419, "weren": 4694, "dilemma": 21883, "defiance": 19674, "pipe": 8667, "##gil": 20142, "avoidance": 24685, "colonists": 15526, "erect": 14908, "kong": 4290, "##of": 11253, "cognition": 26497, "##\u2022": 30063, "style": 2806, "recorded": 2680, "dt": 26718, "telephone": 7026, "novel": 3117, "[unused953]": 958, "##man": 2386, "clean": 4550, "professorship": 22661, "penalties": 12408, "##gy": 6292, "grind": 23088, "friction": 15012, "manchester": 5087, "##ging": 4726, "sealed": 10203, "astonished": 22741, "[unused916]": 921, "shen": 21882, "modest": 10754, "itself": 2993, "algiers": 22947, "qualifiers": 18956, "methyl": 25003, "teammates": 13220, "busch": 15840, "triumphant": 25251, "##\u10dc": 29985, "drummond": 19266, "evenings": 16241, "regained": 11842, "dense": 9742, "attempted": 4692, "garments": 21902, "orphans": 21478, "[unused554]": 559, "gypsy": 16006, "wrong": 3308, "claws": 10702, "mary": 2984, "engineered": 13685, "booker": 16674, "distraught": 25348, "stages": 5711, "ornate": 18099, "ms": 5796, "herman": 11458, "patna": 29565, "fitz": 27706, "eastbound": 24773, "coroner": 22896, "carrot": 25659, "constituents": 24355, "connected": 4198, "##lis": 6856, "1845": 9512, "wc": 15868, "steals": 15539, "forcing": 6932, "outgoing": 22011, "alt": 12456, "sulfur": 17864, "annoying": 15703, "frown": 11330, "chuckled": 10252, "[unused586]": 591, "[unused801]": 806, "antonio": 4980, "armed": 4273, "preferring": 21393, "goods": 5350, "##inus": 13429, "grunted": 14922, "bitter": 8618, "geometridae": 24687, "##pheus": 22809, "flux": 19251, "##stan": 12693, "notebook": 14960, "hanson": 17179, "##rave": 22401, "##marine": 21966, "exceptionally": 17077, "##vna": 29207, "hard": 2524, "vocals": 2955, "act": 2552, "nicely": 19957, "147": 16471, "track": 2650, "watford": 21740, "\u77f3": 1922, "renault": 14605, "##yle": 12844, "[unused777]": 782, "insignificant": 27018, "payton": 28666, "irene": 12855, "192": 17613, "imp": 17727, "pudding": 29593, "sediment": 19671, "stalker": 23883, "##jured": 26949, "incorporation": 16935, "indeed": 5262, "186": 19609, "insider": 25297, "practically": 8134, "\u1174": 1482, "##lington": 18722, "##vs": 15088, "##any": 19092, "breaker": 24733, "##fera": 27709, "trailers": 21389, "media": 2865, "libretto": 17621, "divine": 7746, "##oya": 18232, "interred": 13917, "31": 2861, "\u1167": 1474, "pouring": 13053, "##aq": 20784, "[unused636]": 641, "##uded": 13936, "##inations": 22045, "##bee": 11306, "manipulate": 17708, "##\u0909": 29849, "frazier": 26551, "dynamite": 21719, "internet": 4274, "sienna": 20210, "individually": 14258, "dung": 29328, "heather": 9533, "damien": 12587, "##\u209b": 30098, "##\u1106": 29995, "crusade": 16282, "baird": 20866, "racks": 27259, "ogden": 23203, "##ask": 19895, "designing": 12697, "practiced": 9051, "jolted": 28801, "classroom": 9823, "manly": 19385, "purpose": 3800, "prevalence": 20272, "footprints": 24629, "##\u116a": 30012, "marquette": 24223, "abstracts": 29474, "numb": 15903, "verdi": 20580, "abandon": 10824, "launched": 3390, "##how": 14406, "##\u0996": 29890, "163": 17867, "elliot": 11759, "##mps": 25370, "bitterly": 19248, "venues": 9356, "decorate": 29460, "levy": 12767, "##tres": 19168, "refuse": 10214, "drawers": 22497, "##zam": 20722, "surprises": 20096, "crawled": 12425, "2013": 2286, "thrash": 27042, "stall": 13498, "educators": 19156, "\u057a": 1233, "[unused304]": 309, "finds": 4858, "fulfill": 13883, "meade": 26501, "shot": 2915, "\u028c": 1134, "quotes": 16614, "unsafe": 25135, "crush": 10188, "[unused250]": 255, "##jer": 20009, "multimedia": 14959, "[unused495]": 500, "gentleman": 10170, "##0": 2692, "[unused424]": 429, "disputes": 11936, "compared": 4102, "##ml": 19968, "1632": 28216, "pull": 4139, "##ische": 13719, "corpse": 11547, "odessa": 19693, "lower": 2896, "stellar": 17227, "[unused829]": 834, "172": 18253, "\u8a01": 1949, "quickly": 2855, "[unused941]": 946, "##ened": 6675, "parisian": 24262, "south": 2148, "cougars": 26317, "banco": 28678, "zac": 29250, "fuck": 6616, "##lizer": 28863, "safari": 23591, "snacks": 27962, "causes": 5320, "nadia": 14942, "douglass": 27485, "anticipating": 26481, "hooves": 28399, "degradation": 16627, "harlan": 24276, "disastrous": 16775, "girlfriends": 27408, "movie": 3185, "flourishing": 29571, "tehsil": 20751, "tenor": 9534, "bobbie": 27731, "batter": 23801, "##kaya": 20718, "##ately": 28239, "##aru": 15728, "ferrari": 13632, "##group": 17058, "27": 2676, "buren": 29470, "herbert": 7253, "##ff": 4246, "enforcement": 7285, "journey": 4990, "##giri": 23243, "fixed": 4964, "poisonous": 22641, "\u0641": 1291, "2011": 2249, "##\ufb01": 30510, "drill": 12913, "rebuild": 14591, "whisper": 7204, "##\u092d": 29866, "births": 18250, "spends": 15970, "stump": 22475, "##\u6c35": 30420, "##gli": 25394, "jena": 27510, "contradictory": 27894, "##\u767d": 30441, "publishers": 8544, "government": 2231, "1983": 3172, "affiliates": 18460, "brant": 29182, "eugene": 8207, "runs": 3216, "rooney": 24246, "##aris": 23061, "smashing": 21105, "attended": 3230, "##ttered": 14795, "hugs": 24459, "weekends": 13499, "##section": 29015, "airports": 13586, "crosby": 14282, "philippe": 11169, "cas": 25222, "liver": 11290, "vip": 21722, "151": 16528, "gemini": 21424, "dummy": 24369, "effectively": 6464, "frontal": 19124, "cache": 17053, "developments": 8973, "costume": 9427, "nonlinear": 27400, "kidd": 25358, "dogs": 6077, "cumulative": 23260, "solitude": 22560, "xiao": 19523, "tnt": 24048, "navigate": 22149, "eureka": 21142, "eurovision": 12714, "musique": 25784, "##lvis": 28530, "propelled": 15801, "finer": 26954, "\u22c5": 1614, "##rno": 19139, "subdued": 20442, "houston": 5395, "19th": 3708, "levels": 3798, "##rosis": 29166, "vietnamese": 9101, "hackney": 28425, "statutory": 15201, "snarl": 24845, "storing": 23977, "primal": 22289, "1731": 28446, "muddy": 15405, "prosecutors": 19608, "shipped": 12057, "guido": 20239, "##\u05e2": 29805, "immortals": 26796, "humboldt": 19249, "##cule": 21225, "grateful": 8794, "staffordshire": 17052, "jacqueline": 17551, "si": 9033, "developing": 4975, "springfield": 10493, "\u0bb5": 1394, "##ality": 23732, "concussion": 23159, "hatred": 11150, "villains": 16219, "1874": 7586, "1763": 18432, "tx": 19067, "##l": 2140, "##tower": 23196, "merchandise": 16359, "biographies": 22056, "##itive": 13043, "groove": 14100, "stupid": 5236, "##zko": 29002, "trend": 9874, "stale": 26729, "congratulations": 23156, "hebrew": 6836, "monastic": 17361, "##gist": 24063, "samples": 8168, "\u540c": 1794, "53": 5187, "##400": 29537, "closely": 4876, "comedians": 25119, "greens": 15505, "##stle": 22516, "vaughan": 14461, "flames": 7311, "electron": 10496, "crested": 25413, "##f": 2546, "1824": 11617, "she": 2016, "[unused848]": 853, "smiley": 27420, "1688": 24082, "##\u09bf": 29915, "prolific": 12807, "eyeing": 19285, "##ffe": 16020, "sven": 21313, "hawthorne": 23440, "drowning": 14759, "literature": 3906, "predictable": 21425, "abraham": 8181, "1817": 12529, "trump": 8398, "[unused163]": 168, "isn": 3475, "strikes": 9326, "summers": 10945, "1708": 27337, "##\u1d49": 30035, "##oot": 17206, "paralyzed": 22348, "tavern": 13090, "proton": 20843, "flickered": 15999, "ruiz": 18773, "##uno": 27819, "##rdon": 28176, "davenport": 16273, "66": 5764, "roar": 11950, "proper": 5372, "passed": 2979, "plum": 22088, "insight": 12369, "gunnery": 27919, "museo": 19713, "[unused555]": 560, "dismantled": 17293, "##lin": 4115, "nineteen": 11977, "##mies": 28397, "mused": 22335, "##27": 22907, "math": 8785, "##herton": 27949, "malaga": 27382, "insists": 16818, "detailed": 6851, "caucasus": 16512, "exercise": 6912, "112": 11176, "##iza": 21335, "palette": 27396, "reiterated": 28960, "plc": 15492, "accounted": 14729, "talbot": 14838, "dive": 11529, "cavaliers": 25096, "auxiliary": 9830, "1823": 12522, "\u5f73": 1845, "##iating": 15370, "##rum": 6824, "ambiguous": 20080, "tasked": 13487, "allison": 10786, "wed": 21981, "routinely": 19974, "##can": 9336, "pinched": 18521, "labelled": 18251, "become": 2468, "valencia": 13083, "##tine": 10196, "purdue": 19749, "gao": 17377, "##eric": 22420, "##kis": 14270, "deteriorating": 28440, "happened": 3047, "##hole": 11484, "percival": 27832, "##\u963f": 30497, "remnants": 11270, "boot": 9573, "sudan": 10411, "##puted": 29462, "flinched": 19201, "statement": 4861, "##\u9fb8": 30509, "##tted": 16190, "rests": 16626, "251": 22582, "pumpkin": 25730, "foxes": 24623, "dreamer": 24726, "undone": 25757, "[unused207]": 212, "##lio": 12798, "mccoy": 16075, "fridge": 16716, "hormones": 20752, "\u2019": 1521, "streamed": 18498, "internal": 4722, "belgarath": 21256, "leach": 24520, "prequel": 28280, "entry": 4443, "blond": 8855, "sharpened": 26694, "loose": 6065, "blended": 19803, "mule": 20568, "army": 2390, "glory": 8294, "##sboro": 25623, "import": 12324, "piccolo": 29368, "##ious": 6313, "spawning": 27957, "##ador": 26467, "##cratic": 17510, "alterations": 16705, "lloyd": 6746, "christchurch": 15880, "header": 20346, "block": 3796, "donovan": 12729, "tiny": 4714, "##llah": 18599, "##era": 6906, "beds": 9705, "barre": 23189, "convent": 10664, "detachments": 29568, "##\u3066": 30191, "fascination": 18987, "\u201c": 1523, "##arable": 25236, "hampshire": 7035, "tripoli": 21841, "##to": 3406, "##imi": 27605, "attribute": 17961, "miracle": 9727, "differing": 16965, "##rite": 17625, "leaps": 29195, "##mata": 21022, "departments": 7640, "[unused770]": 775, "##\u2154": 30110, "limp": 14401, "maverick": 27187, "cornerstone": 23354, "breaths": 12938, "blasts": 25829, "comedian": 9971, "usaf": 18531, "vidal": 29259, "##ho": 6806, "inmates": 13187, "afterward": 9707, "anders": 15387, "thistle": 24328, "campaign": 3049, "\u2089": 1556, "macmillan": 15434, "filmed": 6361, "hallmark": 25812, "binoculars": 29549, "black": 2304, "graves": 9729, "##inium": 27585, "##grants": 27444, "sentence": 6251, "livelihood": 24585, "##rai": 14995, "##rona": 26788, "##kovsky": 23829, "slalom": 19617, "hamish": 28859, "##bie": 11283, "malik": 14360, "##zell": 24085, "tech": 6627, "durable": 25634, "deserve": 10107, "boarding": 9405, "\u0e32": 1422, "illnesses": 24757, "scientology": 23845, "##\u2ebc": 30159, "spirits": 8633, "healthy": 7965, "fingernails": 21243, "professions": 22797, "[unused333]": 338, "law": 2375, "1979": 3245, "##take": 15166, "[unused384]": 389, "palaces": 22763, "recovery": 7233, "celebrities": 12330, "##osi": 20049, "regional": 3164, "bottles": 11015, "creed": 16438, "puts": 8509, "copies": 4809, "sutton": 11175, "offended": 15807, "heidi": 21372, "[unused900]": 905, "discourse": 15152, "josef": 12947, "origin": 4761, "[unused293]": 298, "##riation": 18769, "protagonist": 10191, "##iko": 12676, "##well": 4381, "ten": 2702, "##ald": 19058, "77": 6255, "##inated": 15833, "liberalism": 26505, "extraction": 14676, "nerves": 10627, "muscled": 24909, "oversight": 15709, "accommodate": 8752, "cupped": 13740, "26th": 14935, "[unused194]": 199, "##nation": 9323, "formal": 5337, "bam": 25307, "continuous": 7142, "##sable": 19150, "1623": 29056, "vida": 19830, "##zzy": 28753, "southward": 22161, "hassan": 13222, "##wat": 24281, "exclude": 23329, "soundtrack": 6050, "##ija": 14713, "##bn": 24700, "realize": 5382, "dungeon": 16633, "browns": 13240, "rovers": 9819, "lessons": 8220, "bree": 21986, "[unused865]": 870, "##onic": 12356, "##dant": 28210, "muzzle": 17750, "##rr": 12171, "mostly": 3262, "firmly": 7933, "demanded": 6303, "##anum": 27975, "russo": 17023, "goddard": 22547, "variation": 8386, "fern": 20863, "##\u1da0": 30047, "info": 18558, "loosened": 22456, "celtics": 23279, "[unused927]": 932, "clifford": 13894, "##encia": 27742, "1960s": 4120, "wasn": 2347, "eric": 4388, "[unused100]": 105, "vent": 18834, "raaf": 22709, "##abi": 28518, "[unused493]": 498, "invest": 15697, "axes": 19589, "lutheran": 10034, "lime": 14123, "amount": 3815, "##\u063a": 29831, "##lok": 29027, "cia": 9915, "##ensis": 9911, "pasadena": 18880, "flemish": 15427, "##kow": 24144, "##\u0986": 29884, "mitsubishi": 19695, "scranton": 26123, "##rika": 23778, "##rro": 18933, "brute": 26128, "refined": 15514, "##sam": 21559, "claimed": 3555, "negotiation": 19905, "ninth": 6619, "##\u0989": 29886, "##\u0f63": 29971, "##ai": 4886, "nato": 10079, "390": 20024, "##grade": 24170, "heaved": 19970, "romanesque": 17135, "bipolar": 29398, "sincerity": 23997, "corsica": 27047, "##wley": 20609, "##esh": 9953, "remix": 6136, "aqueduct": 24016, "firstly": 15847, "adventure": 6172, "##\u03b2": 29720, "palatinate": 18990, "shotgun": 13305, "gallantry": 22111, "##lessness": 24913, "##anian": 26032, "cast": 3459, "##rera": 24068, "squeeze": 11025, "##rchy": 29389, "meet": 3113, "superhuman": 27061, "lieutenant": 3812, "protested": 11456, "boom": 8797, "confined": 12302, "surgeon": 9431, "##lite": 22779, "scrub": 18157, "barr": 19820, "narrower": 22546, "##ologies": 20792, "funky": 24151, "favorably": 27597, "algerian": 16953, "parana": 28383, "[unused312]": 317, "cafe": 7668, "faces": 5344, "sync": 26351, "[unused874]": 879, "consumer": 7325, "kylie": 9008, "[unused867]": 872, "graded": 21976, "bearings": 21714, "tablet": 13855, "411": 27517, "[unused16]": 17, "promoter": 15543, "lebanese": 12592, "##urt": 19585, "shadowy": 22801, "bun": 21122, "residual": 21961, "oliver": 6291, "##pired": 21649, "bottoms": 24196, "##im": 5714, "##\u10da": 29983, "relaxed": 8363, "disclosure": 19380, "reforms": 8818, "squares": 14320, "vows": 16495, "nu": 16371, "##oured": 16777, "offspring": 13195, "##hara": 11077, "[unused771]": 776, "holiness": 27692, "youtube": 7858, "bending": 14457, "##hur": 24572, "possesses": 14882, "board": 2604, "folks": 12455, "phosphorus": 25473, "##oshi": 24303, "mclean": 17602, "courthouse": 10816, "marx": 13518, "inviting": 15085, "lsu": 21849, "##ricting": 28827, "hezbollah": 25713, "convey": 16636, "##ump": 24237, "rust": 18399, "dhaka": 16479, "secured": 7119, "air": 2250, "party": 2283, "absently": 21284, "burden": 10859, "smoothly": 15299, "lester": 14131, "buyer": 17634, "\u7248": 1907, "rocky": 6857, "re": 2128, "twins": 8178, "pendant": 23152, "lcd": 27662, "[unused92]": 93, "crusaders": 18831, "levi": 11902, "kenyan": 20428, "henry": 2888, "pins": 16300, "##bt": 19279, "wedding": 5030, "##recht": 28109, "axial": 26819, "mateo": 19327, "contrasting": 22133, "gb": 16351, "preface": 18443, "coded": 22402, "alf": 24493, "appointment": 6098, "fast": 3435, "##\u00ae": 29656, "resources": 4219, "fox": 4419, "lau": 21360, "wheels": 7787, "##merie": 28677, "friedman": 18486, "anywhere": 5973, "nervously": 12531, "##inda": 23938, "guadalupe": 23529, "greenville": 20967, "montagu": 26241, "1873": 7612, "##rail": 15118, "peck": 18082, "##toy": 29578, "\u00ab": 1077, "colon": 16844, "francesco": 11400, "lawsuits": 20543, "litres": 25783, "##\u014b": 29673, "upwards": 14873, "cattle": 7125, "##torium": 24390, "##crat": 23185, "trenches": 19874, "##\u4e0d": 30270, "helix": 25743, "##tore": 19277, "waterloo": 13784, "screening": 11326, "[unused353]": 358, "sprint": 9043, "togo": 23588, "\u00e6": 1097, "pillows": 17860, "##\u0629": 19433, "\u0259": 1114, "numbered": 8597, "mouthful": 28462, "\u00aa": 1076, "damaged": 5591, "curtis": 9195, "corrupt": 13593, "pavilion": 10531, "caroline": 7981, "\u0634": 1283, "##box": 8758, "ceo": 5766, "loved": 3866, "affairs": 3821, "visual": 5107, "senegal": 16028, "valentine": 10113, "vista": 13005, "burst": 6532, "jan": 5553, "caravan": 17184, "susannah": 20471, "##quitable": 28298, "cn": 27166, "chronology": 17873, "##craft": 10419, "breathing": 5505, "harlem": 14864, "##bula": 28507, "beaming": 27910, "##dic": 14808, "tallinn": 21169, "##mp": 8737, "##itating": 16518, "hovering": 16349, "yun": 22854, "excavated": 15199, "##\u6c34": 30419, "sol": 14017, "##tow": 18790, "##mas": 9335, "slovak": 12747, "schoolhouse": 26301, "turks": 12896, "blind": 6397, "obsolete": 15832, "everett": 15160, "03": 6021, "saddam": 24111, "marilyn": 14749, "landon": 20642, "##\u098f": 29887, "neck": 3300, "infections": 15245, "contains": 3397, "timber": 7227, "situ": 26179, "isabella": 10323, "evolve": 19852, "nicholls": 27043, "costa": 6849, "wakefield": 16045, "bureau": 4879, "kaufman": 23699, "headquartered": 9403, "havilland": 23994, "##ren": 7389, "caleb": 10185, "fungi": 15289, "flores": 17343, "##ying": 14147, "1300": 19527, "flat": 4257, "orchestral": 13533, "subsp": 24807, "201": 16345, "containers": 16143, "[unused154]": 159, "gerry": 14926, "daddy": 8600, "milne": 24377, "probation": 19703, "sherlock": 20052, "##forms": 22694, "britten": 29429, "supernatural": 11189, "flourish": 24299, "midway": 12213, "reptiles": 20978, "##\u0940": 29878, "##y": 2100, "torpedoes": 18544, "agatha": 23863, "1951": 4131, "##ent": 4765, "camille": 16675, "byzantine": 8734, "pearce": 19560, "dividing": 16023, "profiles": 17879, "\u00b4": 1084, "tournaments": 8504, "##hg": 25619, "fife": 20537, "vivid": 14954, "cylindrical": 18797, "brazilian": 6142, "acid": 5648, "pearl": 7247, "pediatric": 23614, "##pie": 14756, "1785": 17262, "roderick": 28326, "invaders": 17347, "ornamental": 18200, "integers": 24028, "iranian": 7726, "495": 29302, "scully": 25686, "##\u0440": 16856, "noses": 27518, "myspace": 24927, "antics": 27440, "consistency": 18700, "strained": 12250, "6000": 25961, "##hr": 8093, "##\u5fc3": 30375, "##iol": 20282, "clap": 28618, "friendships": 28956, "bae": 25818, "sous": 27411, "##kal": 12902, "##hold": 12640, "cuisine": 12846, "famous": 3297, "coloring": 22276, "##cats": 19588, "curly": 17546, "stability": 9211, "worlds": 8484, "adjutant": 20690, "therefore": 3568, "xbox": 12202, "draws": 9891, "biased": 25352, "##atin": 20363, "folk": 5154, "microsoft": 7513, "genesis": 11046, "ernie": 14637, "around": 2105, "lev": 23310, "forged": 16158, "bled": 23919, "periphery": 23275, "##\u1d58": 30042, "m\u00b2": 7030, "more": 2062, "interval": 13483, "\u9673": 1972, "signaling": 14828, "quadrant": 29371, "##ntino": 25318, "minors": 18464, "[unused290]": 295, "chair": 3242, "nominee": 9773, "vents": 28287, "1753": 23810, "factories": 11123, "lifts": 13695, "##zo": 6844, "darted": 14051, "1730": 23272, "donnie": 28486, "mission": 3260, "##jected": 24455, "##uven": 27346, "##pia": 19312, "philosophers": 17586, "\u10db": 1448, "lyrics": 4581, "classical": 4556, "stone": 2962, "sampling": 16227, "w": 1059, "references": 7604, "flirt": 27978, "indonesian": 9003, "tempest": 22553, "autobiography": 10828, "bryce": 19757, "minus": 15718, "twitch": 19435, "ferns": 25715, "##pods": 22925, "##\u3057": 30183, "secondary": 3905, "fellow": 3507, "geographic": 9183, "predatory": 21659, "##otto": 23052, "hay": 10974, "pic": 27263, "+": 1009, "prostate": 25086, "darkest": 23036, "accreditation": 14893, "1821": 11723, "\u2093": 1563, "bosnia": 9562, "dolls": 14421, "thrusts": 25842, "[unused306]": 311, "marc": 7871, "reinforcement": 23895, "[unused563]": 568, "vito": 25550, "search": 3945, "northamptonshire": 21367, "##rgos": 22280, "bold": 7782, "condoms": 29094, "##meister": 28824, "donnelly": 28317, "shareholders": 15337, "composer": 4543, "doctrine": 8998, "##rm": 10867, "elias": 14579, "regrets": 23161, "poznan": 18320, "dh": 28144, "##odon": 28716, "anthology": 9637, "##hit": 16584, "robbery": 13742, "negotiated": 13630, "[unused794]": 799, "\u516c": 1772, "rossi": 18451, "starring": 4626, "committee": 2837, "conferred": 15186, "specialty": 12233, "##di": 4305, "racetrack": 28435, "dots": 14981, "unique": 4310, "simone": 14072, "ag": 12943, "[unused414]": 419, "kirk": 11332, "mirza": 18366, "consular": 27326, "commanders": 11437, "translators": 28396, "deputies": 11964, "machinery": 10394, "waiter": 15610, "testament": 9025, "continues": 4247, "##pathy": 20166, "several": 2195, "akira": 21616, "##offs": 27475, "1649": 26538, "inequality": 16440, "##sul": 23722, "relieved": 7653, "precise": 10480, "##cuit": 28168, "##nosis": 27109, "cabinet": 5239, "christianity": 7988, "bengali": 11267, "pep": 27233, "dom": 14383, "accompaniment": 22205, "##istan": 23137, "simulation": 12504, "##\u308c": 30214, "march": 2233, "hopefully": 11504, "mounds": 19503, "spp": 26924, "bombed": 18897, "frigates": 22833, "pistol": 8779, "##\u207a": 12744, "explorer": 10566, "##)": 29620, "exhaustion": 15575, "##iaceae": 23357, "novelist": 9974, "##yte": 17250, "##ori": 10050, "seniors": 15995, "failing": 7989, "accurately": 14125, "##\u5f73": 30371, "kindly": 19045, "breached": 25769, "\u2ea9": 1632, "[unused174]": 179, "lungs": 8948, "##fast": 24333, "regeneration": 20045, "\u03b8": 1162, "rosalie": 29564, "pairs": 7689, "honors": 7836, "rated": 6758, "sentai": 28650, "retains": 14567, "researching": 20059, "##\uff0e": 30517, "plunge": 25912, "##inator": 23207, "##aina": 27971, "isolated": 7275, "modeled": 14440, "\u9234": 1965, "##kley": 22315, "classification": 5579, "choir": 6596, "biggest": 5221, "##\u110c": 30000, "urgently": 25478, "weighted": 18215, "spacecraft": 12076, "dong": 11947, "[unused649]": 654, "##tub": 28251, "##\u00b5": 29659, "##balance": 26657, "cooler": 14976, "##\u2194": 30115, "homework": 19453, "conner": 17639, "##wald": 11191, "rudolf": 12794, "\u203a": 1533, "##rie": 7373, "release": 2713, "risk": 3891, "po": 13433, "##jana": 18803, "buffy": 18467, "confirming": 19195, "flashed": 8373, "barefoot": 22985, "awarding": 21467, "astronauts": 25881, "##resh": 21898, "literacy": 8433, "sciences": 4163, "humphrey": 15462, "handheld": 27291, "quinlan": 28451, "founded": 2631, "##tree": 13334, "##\u02be": 29713, "prehistoric": 14491, "##rle": 20927, "australian": 2827, "treaties": 16013, "offset": 16396, "##\u2286": 30138, "behind": 2369, "warp": 24136, "gillian": 22358, "wasp": 19411, "selects": 27034, "##\u2093": 30092, "glen": 8904, "bricks": 14219, "recipe": 17974, "comedic": 21699, "janeiro": 11497, "jamie": 6175, "\u09c7": 1381, "fantasies": 21233, "460": 17267, "repertory": 21099, "##\u8c37": 30477, "gertrude": 18734, "often": 2411, "electro": 16175, "1634": 28502, "receives": 8267, "cyclone": 11609, "heroin": 19690, "gorilla": 23526, "crowds": 12783, "conversation": 4512, "1942": 3758, "sheikh": 12840, "sparkle": 26831, "harrison": 6676, "federer": 28294, "opponents": 7892, "##shore": 19208, "rocked": 14215, "usa": 3915, "##ament": 24996, "##ently": 28198, "nudged": 18666, "debra": 28762, "##anov": 25417, "ads": 14997, "star": 2732, "judaism": 13725, "cory": 18342, "nrhp": 22424, "middlesbrough": 21655, "voiced": 6126, "assistants": 16838, "krakow": 14576, "fusion": 10077, "courses": 5352, "dia": 22939, "mysteriously": 29239, "magdalena": 23984, "##\u044b": 29113, "interlude": 25347, "bruise": 24851, "precedence": 23359, "routines": 23964, "milford": 22622, "involves": 7336, "quentin": 15969, "##nius": 20447, "kaiser": 15676, "konrad": 22958, "democrats": 8037, "##ilised": 21758, "##\u53f2": 30316, "andhra": 14065, "siren": 19558, "##ttal": 28200, "[unused993]": 998, "bouts": 23666, "slips": 17433, "bikes": 18105, "##nae": 17452, "##ignant": 25593, "painted": 4993, "nissan": 16509, "cliffs": 13333, "loco": 28046, "under": 2104, "##ean": 11219, "\u30aa": 1699, "mixtape": 18713, "zhejiang": 26805, "##kov": 7724, "##we": 8545, "delayed": 8394, "phi": 13569, "antwerp": 14003, "##nsen": 29428, "##ntine": 26730, "ranging": 7478, "injected": 19737, "huge": 4121, "hearing": 4994, "##\u0965": 29881, "##flight": 28968, "[unused177]": 182, "##tao": 28555, "misleading": 22369, "##pp": 9397, "##itical": 26116, "moose": 17716, "strike": 4894, "internationals": 27340, "labrador": 18604, "exchanging": 25620, "exposition": 13080, "hid": 11041, "huffington": 26149, "columbus": 8912, "emergencies": 26360, "ripe": 22503, "ass": 4632, "##space": 23058, "##bbon": 27684, "accordion": 19060, "slope": 9663, "charlton": 17821, "suffered": 4265, "pottery": 11378, "##ca": 3540, "towing": 28379, "incorporates": 12374, "arranged": 5412, "committing": 16873, "##rion": 14772, "convicted": 7979, "\u05d2": 1243, "luce": 19913, "blu": 14154, "interceptor": 24727, "lads": 29126, "spa": 12403, "[unused881]": 886, "[unused644]": 649, "hawk": 9881, "##oting": 20656, "##zza": 20715, "[unused277]": 282, "fades": 26784, "presenters": 25588, "##\u02d0": 23432, "site": 2609, "56": 5179, "panzer": 16946, "surfing": 19967, "[unused389]": 394, "##law": 14919, "\u00a4": 1070, "closing": 5494, "juarez": 25398, "famed": 15607, "1000": 6694, "bukit": 29007, "netflix": 20907, "##\u30c3": 30237, "##db": 18939, "bucharest": 14261, "rail": 4334, "[unused972]": 977, "44": 4008, "\u00f7": 1099, "##lette": 27901, "polymer": 17782, "collections": 6407, "pereira": 23857, "translated": 5421, "syllables": 20732, "herring": 22103, "##2": 2475, "dexter": 14375, "arun": 28217, "preparing": 8225, "n": 1050, "gp": 14246, "##\u5e7f": 30368, "gain": 5114, "##owing": 14138, "eurasian": 23399, "##type": 13874, "midtown": 27219, "busted": 23142, "japan": 2900, "[unused133]": 138, "mahmud": 25886, "##iary": 17302, "experimental": 6388, "fis": 27424, "##oir": 21165, "209": 19348, "1835": 10150, "albion": 13392, "kettle": 22421, "draped": 15098, "crawley": 28854, "ot": 27178, "murderer": 13422, "##lham": 25968, "packed": 8966, "canned": 27141, "shining": 9716, "##bolt": 22803, "abstract": 10061, "\u30b9": 1707, "absolutely": 7078, "inhaled": 15938, "[unused216]": 221, "provide": 3073, "##alo": 23067, "##outh": 17167, "amara": 28599, "consul": 11801, "oven": 17428, "##achal": 24409, "generators": 16937, "##iction": 28097, "milwaukee": 9184, "fei": 24664, "rink": 18416, "skeletons": 24365, "wellness": 25860, "components": 6177, "sm": 15488, "mercury": 8714, "rutland": 27780, "seals": 13945, "hair": 2606, "shady": 22824, "##\u0643": 29835, "gust": 26903, "gentle": 7132, "button": 6462, "neuroscience": 23700, "enacted": 11955, "shaken": 16697, "laced": 17958, "among": 2426, "heavens": 17223, "146": 16333, "##yad": 25152, "hume": 20368, "widespread": 6923, "##mity": 16383, "injury": 4544, "secular": 10644, "martinique": 29365, "##\u2264": 30135, "##vary": 21639, "heck": 17752, "stares": 14020, "stint": 12116, "implement": 10408, "villa": 6992, "[unused264]": 269, "radar": 7217, "concerts": 6759, "\u10d8": 1445, "maintained": 5224, "others": 2500, "##beam": 28302, "dinosaur": 15799, "assure": 14306, "nets": 16996, "cash": 5356, "##gned": 19225, "##writing": 18560, "emotionally": 14868, "##zzling": 20838, "outlawed": 29131, "testing": 5604, "loan": 5414, "passageway": 27336, "officers": 3738, "##itung": 28813, "informally": 21858, "fen": 21713, "unsure": 12422, "joanne": 23459, "circumstance": 25652, "##ell": 5349, "stripped": 10040, "stains": 27094, "##tangled": 27898, "build": 3857, "dangling": 18737, "compliance": 12646, "eternity": 12715, "moody": 14434, "181": 18596, "kurdish": 15553, "aces": 20232, "##48": 18139, "abolitionist": 29554, "raging": 17559, "##drik": 28730, "bite": 6805, "recovering": 13400, "restrict": 21573, "zoological": 26168, "twelfth": 11313, "##86": 20842, "playoff": 7808, "jing": 21536, "mecklenburg": 22007, "larsen": 20094, "[unused499]": 504, "\u221a": 1600, "volga": 26459, "##wise": 14244, "acted": 6051, "lydia": 14076, "clenched": 8555, "##stein": 8602, "kerr": 14884, "shield": 6099, "detainees": 26485, "##cre": 16748, "##woman": 10169, "surveyed": 12876, "hyun": 21108, "##\u0283": 29696, "outbreak": 8293, "aren": 4995, "##lea": 19738, "trio": 7146, "obe": 15578, "assassins": 18364, "##bos": 15853, "##tto": 9284, "mysteries": 15572, "affordable": 15184, "threads": 16457, "sterling": 10933, "consoles": 22659, "gabrielle": 16988, "advertisements": 14389, "quincy": 16141, "constitutes": 17367, "tomatoes": 12851, "athena": 21880, "cumberland": 12310, "whipping": 23016, "moss": 10636, "\u2020": 1526, "candidacy": 17057, "song": 2299, "fucking": 8239, "##men": 3549, "free": 2489, "setup": 16437, "steered": 23424, "packaging": 14793, "189": 20500, "##\u09a7": 29901, "brings": 7545, "shiny": 12538, "fall": 2991, "destroyers": 13242, "narrows": 25142, "rd": 16428, "##lster": 29576, "kappa": 16000, "##\u1166": 30009, "transmission": 6726, "speak": 3713, "elephants": 16825, "##ful": 3993, "lakes": 6597, "withstand": 19319, "cbs": 6568, "langdon": 15232, "decided": 2787, "formerly": 3839, "[unused300]": 305, "chooses": 15867, "##van": 6212, "homogeneous": 24854, "holders": 13304, "##rity": 15780, "idiot": 10041, "plaid": 26488, "##ndra": 17670, "royal": 2548, "\u30a4": 1695, "lance": 9993, "adelaide": 7364, "waterford": 17769, "stirling": 15597, "third": 2353, "##ouin": 25058, "##aly": 20766, "##mith": 19864, "##bet": 20915, "adults": 6001, "131": 14677, "chants": 29534, "civic": 8388, "commentary": 8570, "havoc": 22156, "spartan": 20670, "yd": 21076, "gratitude": 15531, "rev": 7065, "starter": 11753, "booster": 23715, "venom": 15779, "doesn": 2987, "imagery": 13425, "laureate": 17656, "##eland": 25689, "##\u2087": 30083, "\u00b5": 1085, "stimulation": 20858, "illuminated": 14640, "mangrove": 29340, "substituted": 17316, "pertaining": 20246, "[unused615]": 620, "##chet": 20318, "agricultural": 4910, "highlighting": 20655, "huddersfield": 19715, "grotesque": 27707, "forthcoming": 16875, "##\u05d4": 29128, "stuff": 4933, "##ki": 3211, "validation": 27354, "trousers": 15292, "\u05d8": 1249, "\u043e": 1193, "fences": 21549, "floating": 8274, "television": 2547, "82": 6445, "##uria": 27703, "##zen": 10431, "area": 2181, "insect": 14211, "propped": 16863, "##fusion": 20523, "##\u0638": 29829, "slang": 21435, "356": 27509, "on": 2006, "##ager": 17325, "label": 3830, "fists": 10006, "dew": 24903, "jeep": 14007, "chips": 11772, "kathy": 14986, "develop": 4503, "candidates": 5347, "sheltered": 18304, "context": 6123, "firing": 7493, "historian": 5272, "descendant": 12608, "whitley": 27007, "cambridgeshire": 24197, "\u06be": 1307, "##rta": 13320, "academy": 2914, "16th": 5767, "##\u10d9": 29982, "papua": 13049, "##wani": 29092, "8th": 5893, "##\u0646": 15915, "darcy": 17685, "##o": 2080, "romeo": 12390, "rhymes": 24468, "touring": 6828, "swat": 25414, "##ij": 28418, "motorway": 13119, "alternate": 6585, "simultaneously": 7453, "reads": 9631, "1990s": 4134, "[unused628]": 633, "ultraviolet": 26299, "stroked": 11699, "##nine": 19105, "\u5408": 1792, "##\u0930": 29869, "##edly": 26207, "hindwings": 15998, "##\u03b3": 29721, "prolonged": 15330, "manson": 21440, "campground": 29144, "owing": 11427, "reyes": 12576, "brilliant": 8235, "obliged": 14723, "[unused446]": 451, "##\u9234": 30491, "missouri": 5284, "##yr": 12541, "attacker": 17346, "khorasan": 23225, "stalled": 20659, "##raya": 29539, "##text": 18209, "initially": 3322, "bandit": 25334, "chairman": 3472, "began": 2211, "mlb": 10901, "statistical": 7778, "##mple": 23344, "series": 2186, "mala": 28935, "clinging": 17892, "calculating": 20177, "##\u6c5f": 30423, "dracula": 18500, "jesuits": 20297, "incentives": 21134, "\u2191": 1584, "alligator": 28833, "lips": 2970, "exceptions": 11790, "dozens": 9877, "scenario": 11967, "##ive": 3512, "\u0252": 1111, "jointly": 10776, "oval": 9242, "[unused766]": 771, "##zman": 24340, "city": 2103, "workout": 27090, "vii": 8890, "poles": 10567, "bridges": 7346, "##sberg": 11711, "swirling": 16499, "##ingdon": 29138, "monitor": 8080, "2010": 2230, "##apes": 29040, "##wed": 15557, "maximum": 4555, "celeste": 21113, "dei": 14866, "compartment": 15273, "killers": 15978, "##ricted": 20623, "nfc": 22309, "goth": 25976, "worrying": 15366, "bedroom": 5010, "[unused775]": 780, "hesse": 16399, "arrive": 7180, "sheppard": 24976, "ob": 27885, "[unused747]": 752, "africa": 3088, "idaho": 9795, "summary": 12654, "hanoi": 24809, "glazed": 19724, "marginal": 14785, "##uli": 15859, "macon": 20025, "neighbor": 11429, "shrug": 13409, "neurological": 23130, "raven": 10000, "gracefully": 28266, "##color": 18717, "creature": 6492, "tribune": 10969, "garry": 21507, "typhoon": 15393, "libraries": 8860, "##kian": 28545, "resurgence": 26303, "borneo": 15688, "wrestler": 10706, "subsidy": 28768, "initiated": 7531, "shrub": 15751, "xiang": 27735, "autonomy": 12645, "opinions": 10740, "##ced": 11788, "neon": 16231, "cheryl": 19431, "##ir": 4313, "##cm": 27487, "sk": 15315, "\u116d": 1477, "joins": 9794, "fallon": 16443, "brightness": 18295, "grouped": 15131, "##oise": 23565, "##ping": 4691, "##\u30eb": 30259, "hagen": 24047, "prank": 26418, "##elial": 24587, "\u2032": 1531, "##oop": 18589, "orange": 4589, "bits": 9017, "##tosis": 25950, "tales": 7122, "of": 1997, "##tein": 9589, "type": 2828, "##\u10e3": 29990, "ga": 11721, "overheard": 20443, "wiring": 27930, "##icide": 21752, "pl": 20228, "##ieri": 21939, "##rds": 17811, "wong": 11789, "relinquished": 26566, "1953": 4052, "[unused405]": 410, "##\u5f35": 30370, "adventurous": 29118, "ranges": 8483, "improper": 24156, "lateral": 11457, "idol": 10282, "accomplish": 14570, "invention": 11028, "##hwa": 18663, "bank": 2924, "1629": 27882, "commentators": 15957, "panama": 8515, "brenda": 15507, "ritual": 8887, "silva": 11183, "assassination": 10102, "dalai": 28511, "em": 7861, "136": 15407, "##vine": 20534, "onstage": 23542, "algorithm": 9896, "counts": 9294, "instant": 7107, "peterborough": 17587, "horrific": 23512, "##oth": 14573, "position": 2597, "textile": 12437, "perceptions": 23271, "##uet": 23361, "##cope": 16186, "phonetic": 26664, "theta": 23963, "possessed": 8679, "1560": 29185, "##d": 2094, "defendant": 13474, "spices": 21729, "##lding": 24573, "gupta": 20512, "keith": 6766, "monterey": 19860, "ernst": 10728, "stony": 16104, "christina": 12657, "38": 4229, "shadowed": 25843, "[unused205]": 210, "hedge": 17834, "anthem": 11971, "turmoil": 17930, "prep": 17463, "eighties": 27690, "tortricidae": 27683, "embarrassing": 16436, "\u306e": 1671, "##ados": 28118, "otago": 21831, "capt": 14408, "tv": 2694, "\u00a3": 1069, "shoulder": 3244, "ranger": 11505, "drain": 12475, "squealed": 26175, "##nies": 15580, "goa": 15244, "divide": 11443, "##fi": 8873, "hooded": 21592, "massimo": 28080, "sevens": 19463, "duration": 9367, "berman": 29482, "riddle": 21834, "listening": 5962, "##gina": 20876, "##zd": 26494, "\u7cf9": 1934, "distinguishes": 27343, "wheeled": 17320, "##sca": 15782, "marching": 10998, "nl": 17953, "##ece": 26005, "lorraine": 13895, "[unused964]": 969, "clusters": 12906, "\u1d9c": 1511, "##jak": 18317, "advise": 18012, "agra": 29542, "qualify": 7515, "simpsons": 19047, "automated": 12978, "excuses": 21917, "##way": 4576, "277": 25578, "\u0e2a": 1420, "##wana": 21761, "saunders": 15247, "##ctum": 27272, "yue": 27163, "##like": 10359, "test": 3231, "appeared": 2596, "gather": 8587, "##\u1d35": 30029, "##rud": 28121, "##8th": 28264, "vantage": 27274, "##fk": 24316, "i": 1045, "withdrawing": 21779, "rashid": 22080, "rodents": 28156, "stressed": 13233, "throbbing": 17061, "345": 23785, "inflammatory": 20187, "strong": 2844, "renee": 17400, "\u00a6": 1072, "gillespie": 21067, "\u66f2": 1870, "ronald": 8923, "dietrich": 22567, "anita": 12918, "ropes": 14607, "boise": 23193, "[unused241]": 246, "exhibits": 10637, "sunglasses": 17072, "whig": 21632, "induce": 19653, "fixture": 15083, "r": 1054, "yiddish": 20112, "confinement": 21551, "jurgen": 23171, "##isance": 28138, "staten": 24161, "##nitz": 22792, "observatory": 9970, "symbol": 6454, "advised": 9449, "fractures": 28929, "##ntation": 23436, "powerless": 25192, "cobra": 16604, "accession": 16993, "percent": 3867, "bags": 8641, "equipment": 3941, "[unused749]": 754, "upper": 3356, "ashore": 16145, "lucan": 20764, "conflict": 4736, "karel": 28021, "chess": 7433, "forbes": 10822, "##crow": 24375, "nuremberg": 19346, "##gging": 12588, "##lts": 21593, "perez": 10730, "attending": 7052, "closes": 14572, "documentaries": 15693, "fourth": 2959, "mono": 18847, "biotechnology": 20353, "whilst": 5819, "elementary": 4732, "reserves": 8269, "select": 7276, "##formed": 29021, "1999": 2639, "exeter": 12869, "bladder": 24176, "##iani": 25443, "nikolay": 28494, "inclusive": 18678, "gifts": 9604, "catalina": 22326, "celebrations": 12035, "carole": 24348, "\u0ca8": 1400, "[unused106]": 111, "reflecting": 10842, "aachen": 29093, "greg": 6754, "envisioned": 18035, "boxed": 27554, "frederic": 15296, "kiev": 12100, "101": 7886, "motifs": 17366, "moments": 5312, "tests": 5852, "formation": 4195, "##nne": 10087, "yarn": 27158, "zulu": 27359, "localized": 22574, "##cz": 27966, "leading": 2877, "deals": 9144, "##tze": 23102, "noble": 7015, "teller": 21322, "sharp": 4629, "##edance": 29605, "atv": 29108, "is": 2003, "jays": 18930, "indication": 12407, "delivery": 6959, "speed": 3177, "shake": 6073, "coyotes": 26880, "a1": 17350, "exemplary": 27792, "mildly": 19499, "bears": 6468, "##gon": 7446, "pitches": 19299, "rift": 16931, "##oning": 13369, "travelled": 7837, "seemingly": 9428, "##llum": 20845, "para": 11498, "moniker": 21937, "[unused254]": 259, "kindergarten": 11793, "folly": 26272, "##vating": 26477, "fight": 2954, "##udy": 20217, "##fan": 15143, "1661": 24046, "holstein": 18864, "madame": 10602, "cassandra": 15609, "strung": 23509, "bangor": 21895, "##oud": 19224, "gerard": 11063, "adjunct": 20621, "##ardo": 24649, "pushes": 13956, "extends": 8908, "gas": 3806, "lyle": 21971, "dawson": 11026, "given": 2445, "##\u10d4": 29978, "[unused937]": 942, "prompted": 9469, "puff": 23893, "##nea": 22084, "marsh": 9409, "anglo": 7819, "[unused126]": 131, "##pling": 14353, "[unused833]": 838, "widows": 24835, "stole": 10312, "ps": 8827, "combatants": 26622, "##cr": 26775, "specification": 12827, "hazardous": 17760, "cozy": 26931, "##adia": 25205, "mega": 13164, "##\u98df": 30504, "[unused512]": 517, "[unused88]": 89, "##rooms": 29020, "lay": 3913, "tornado": 11352, "##\u304a": 30176, "##ishly": 19983, "towed": 18948, "characteristics": 6459, "streaks": 21295, "thought": 2245, "incorrectly": 19721, "accredited": 11459, "##hta": 22893, "honoured": 15546, "[unused488]": 493, "bestseller": 24304, "crab": 18081, "asian": 4004, "[unused104]": 109, "queensland": 5322, "##eson": 21421, "##ching": 8450, "styles": 6782, "centred": 16441, "tall": 4206, "parenting": 28586, "##inia": 23309, "pietro": 15541, "consisting": 5398, "##mc": 12458, "schizophrenia": 23683, "emilio": 18644, "##sons": 23345, "scottish": 4104, "[unused604]": 609, "misconduct": 23337, "\u0baf": 1390, "gladys": 22386, "betray": 20895, "\u2021": 1527, "##tures": 22662, "educational": 4547, "shame": 9467, "phoenix": 6708, "##low": 8261, "interpretations": 15931, "dane": 14569, "correctly": 11178, "~": 1066, "##smith": 21405, "##basket": 25351, "1928": 4662, "medalist": 12968, "leveled": 22915, "siegel": 27996, "[unused452]": 457, "flirting": 20661, "engage": 8526, "1908": 5316, "tariff": 23234, "[unused430]": 435, "precisely": 10785, "waitress": 13877, "thom": 19438, "transverse": 18323, "##osis": 12650, "judicial": 8268, "##22": 19317, "organic": 7554, "[unused939]": 944, "##kers": 11451, "sleeps": 25126, "musicals": 20103, "come": 2272, "argus": 25294, "a2": 22441, "[unused959]": 964, "weakly": 17541, "quarterly": 12174, "establishments": 17228, "##tropical": 25528, "nickname": 8367, "##partisan": 26053, "eva": 9345, "portrays": 17509, "prayed": 14283, "pitted": 25895, "cushion": 22936, "surface": 3302, "hai": 15030, "freddy": 19343, "blows": 13783, "temporary": 5741, "declaring": 13752, "unitary": 22127, "detached": 12230, "twenty20": 22240, "crime": 4126, "indian": 2796, "membrane": 10804, "visuals": 26749, "##cp": 21906, "adler": 17969, "##swell": 19228, "beamed": 22587, "avengers": 14936, "kingsley": 22819, "valid": 9398, "##auer": 21126, "resource": 7692, "##arm": 27292, "##has": 14949, "jenna": 13504, "[unused355]": 360, "ko": 12849, "##lled": 11001, "affiliation": 12912, "passions": 25289, "##aw": 10376, "##iche": 17322, "events": 2824, "##zh": 27922, "sincere": 18006, "hilton": 15481, "advisory": 7319, "##gen": 6914, "[unused684]": 689, "forested": 15205, "friends": 2814, "\u6211": 1855, "##ar": 2906, "handicapped": 26920, "butterflies": 15023, "##riety": 27840, "model": 2944, "interfere": 15115, "##ude": 12672, "##thus": 19877, "leverage": 21155, "medication": 14667, "cobb": 17176, "rosie": 15820, "grazing": 15400, "refurbishment": 24478, "j": 1046, "eddy": 16645, "##\u5206": 30301, "criticized": 6367, "saints": 6586, "steady": 6706, "threaded": 26583, "planner": 24555, "legislator": 22964, "decay": 13121, "in": 1999, "hunters": 9624, "prayers": 12583, "broad": 5041, "una": 14477, "directory": 14176, "valle": 20171, "avila": 29079, "[unused886]": 891, "savage": 9576, "judged": 13224, "sung": 7042, "internship": 22676, "baha": 13253, "scandinavia": 20612, "matrices": 21520, "yamaha": 24031, "##\u5929": 30337, "los": 3050, "hyde": 11804, "wits": 25433, "jealousy": 14225, "dept": 29466, "kb": 21677, "bishop": 3387, "preliminary": 8824, "##rong": 17583, "oskar": 28626, "benefactor": 27398, "window": 3332, "vols": 18709, "##cine": 16567, "budapest": 10926, "harvested": 22629, "expert": 6739, "balkans": 19733, "viceroy": 19007, "plaintiff": 20579, "versa": 18601, "behold": 27541, "unsuccessfully": 11551, "pour": 10364, "##burg": 4645, "manifesto": 17124, "suzy": 28722, "##ical": 7476, "triad": 25355, "symbols": 9255, "welding": 23604, "moe": 22078, "website": 4037, "provisions": 8910, "##acker": 25418, "##geny": 17487, "possession": 6664, "##inn": 23111, "\u3048": 1649, "authors": 6048, "victor": 5125, "goodbye": 9119, "bind": 14187, "##bility": 8553, "fits": 16142, "##tering": 17989, "exiting": 22371, "1760": 19096, "cuthbert": 24583, "##mes": 7834, "westbound": 24717, "prostitute": 19215, "cochin": 28982, "film": 2143, "romance": 7472, "##85": 27531, "crater": 11351, "selling": 4855, "326": 28188, "pathway": 12732, "[unused932]": 937, "##gne": 10177, "\u0965": 1345, "generals": 11593, "defences": 16828, "caressed": 21473, "fathers": 11397, "[unused745]": 750, "[unused913]": 918, "pere": 23976, "##rzburg": 29136, "##\u056f": 29774, "##mounted": 27632, "considerably": 9839, "tangible": 24600, "##per": 4842, "##mussen": 29134, "dutch": 3803, "again": 2153, "hyundai": 25983, "supplements": 25654, "\u2080": 1547, "inspecting": 29508, "##\u306d": 30196, "raided": 18784, "quicker": 19059, "ensured": 16316, "executing": 23448, "##phone": 9864, "rutgers": 18607, "[unused765]": 770, "maccabi": 24055, "##ing": 2075, "refrain": 20703, "staff": 3095, "\u5b9a": 1822, "hapoel": 24208, "28": 2654, "[unused365]": 370, "##ever": 22507, "retaliation": 18695, "clarkson": 18648, "##virus": 23350, "topology": 19587, "[unused77]": 78, "customary": 16120, "##tino": 25690, "##arded": 28037, "contrast": 5688, "louvre": 25110, "jewelry": 11912, "classmate": 23175, "clasp": 23465, "malicious": 24391, "behalf": 6852, "##\u738b": 30435, "watkins": 17055, "drunk": 7144, "hearings": 19153, "namesake": 17283, "galaxies": 21706, "insert": 19274, "##ek": 5937, "shouldered": 29383, "fresco": 26991, "relaunched": 26391, "##aver": 22208, "dishes": 10447, "payroll": 26854, "circling": 18519, "[unused709]": 714, "[unused946]": 951, "unrelated": 15142, "encouraged": 6628, "constituent": 13794, "stil": 25931, "##berto": 21201, "threats": 8767, "##pee": 28084, "clapton": 24705, "bells": 10118, "interests": 5426, "downed": 20164, "internally": 16058, "merge": 13590, "nightingale": 21771, "worst": 5409, "valentin": 24632, "passing": 4458, "lot": 2843, "mango": 24792, "##\u6b66": 30415, "standard": 3115, "nes": 24524, "manufacturing": 5814, "davis": 4482, "omnibus": 27284, "pinto": 25066, "auspices": 20153, "mahal": 27913, "outfits": 22054, "##zle": 29247, "depths": 11143, "liturgy": 21176, "43rd": 25747, "\u0153": 1107, "lithuanian": 10333, "##\uff0d": 30516, "##lge": 28875, "think": 2228, "radios": 22229, "fulfilling": 21570, "explains": 7607, "chapel": 4970, "difficult": 3697, "resign": 12897, "presley": 17229, "##mina": 22311, "mikhail": 11318, "purchases": 17402, "sauce": 12901, "nr": 17212, "[unused706]": 711, "dull": 10634, "##dell": 12662, "1972": 3285, "lombard": 23441, "guthrie": 19952, "##zan": 13471, "\u0f53": 1429, "wednesday": 9317, "##ioned": 19798, "dying": 5996, "##lt": 7096, "kali": 19924, "cause": 3426, "171": 18225, "informs": 15670, "##factory": 21450, "pixels": 27725, "exaggerated": 16903, "##iz": 10993, "lan": 17595, "derives": 12153, "rich": 4138, "macedonia": 11492, "strawberry": 16876, "czechoslovakia": 12833, "sponsoring": 29396, "##ich": 7033, "teaching": 4252, "1813": 12169, "##duction": 16256, "continuing": 5719, "##ial": 4818, "zones": 10019, "##rc": 11890, "benjamin": 6425, "turbulent": 22609, "stream": 5460, "mauritius": 18004, "\u0e19": 1413, "claremont": 23716, "]": 1033, "impacted": 19209, "centenary": 17705, "supply": 4425, "howl": 22912, "supervise": 28589, "uncovered": 14486, "delivering": 12771, "referenced": 14964, "##ium": 5007, "\u66f8": 1871, "##nie": 8034, "examinations": 14912, "##nos": 15460, "almeida": 29555, "dax": 27116, "aston": 14327, "archival": 22796, "[UNK]": 100, "mug": 14757, "##rva": 19146, "breakup": 19010, "35th": 20198, "altar": 9216, "huts": 23326, "architect": 4944, "cabinets": 20053, "mundane": 24684, "deutschland": 28668, "pushed": 3724, "locus": 25206, "shouted": 6626, "sabine": 18578, "##nsor": 29577, "craig": 7010, "1550": 26245, "presses": 14616, "##\u026a": 29685, "##mia": 10092, "magnetic": 8060, "pretended": 14688, "##vale": 17479, "allan": 8926, "##nca": 20909, "hermes": 24127, "brewing": 16005, "##tooth": 19392, "##\u793e": 30450, "[unused603]": 608, "##dication": 25027, "virtues": 21560, "deposition": 19806, "buffet": 28305, "quartermaster": 24688, "assaults": 22664, "raged": 28374, "heap": 16721, "sponsored": 6485, "1670": 26253, "celebration": 7401, "educator": 11490, "poses": 22382, "ivy": 7768, "bbc": 4035, "diverted": 18356, "audible": 19525, "dramas": 16547, "tempted": 16312, "indonesia": 6239, "stain": 21101, "canadians": 16485, "reorganisation": 24934, "timing": 10984, "##\u09a8": 29902, "##screen": 18182, "tiberius": 28411, "##lom": 21297, "acquired": 3734, "[unused755]": 760, "drifted": 10070, "surfaced": 15791, "heroes": 7348, "soluble": 24345, "understands": 19821, "lexington": 14521, "blackened": 25788, "edwin": 10049, "coupe": 15130, "white": 2317, "rocks": 5749, "##dad": 14697, "barbara": 6437, "switched": 7237, "\u68ee": 1882, "^": 1034, "cf": 12935, "muse": 18437, "byu": 23471, "\u5e73": 1839, "hounds": 27772, "oriented": 8048, "shimmering": 22349, "borrow": 17781, "gently": 5251, "techniques": 5461, "commemorating": 20646, "orchestras": 19505, "herrera": 23527, "cordoba": 17986, "\u0679": 1301, "##opus": 24676, "\u00a9": 1075, "[unused934]": 939, "contract": 3206, "##tson": 25656, "rpg": 22531, "##\u0f44": 29963, "##er": 2121, "##erus": 21608, "acknowledged": 8969, "##cating": 18252, "##\u09c0": 29916, "shiver": 13277, "rn": 29300, "clarify": 25037, "acclaimed": 10251, "stature": 21120, "##tructing": 26310, "connections": 7264, "glided": 26936, "[unused580]": 585, "resume": 13746, "292": 25797, "futures": 17795, "plate": 5127, "corruption": 7897, "##kki": 24103, "[unused443]": 448, "round": 2461, "##comb": 18274, "fontaine": 25749, "[unused281]": 286, "1987": 3055, "##dity": 25469, "blood": 2668, "reactivated": 28577, "correlated": 23900, "1838": 9931, "counsel": 9517, "melissa": 9606, "##\u30d5": 30246, "disused": 26958, "kinase": 21903, "##git": 23806, "horst": 28565, "agenda": 11376, "jorge": 10853, "criticizing": 21289, "##oire": 26250, "bedfordshire": 28430, "trillion": 23458, "##ilde": 23891, "##ented": 14088, "##turing": 16037, "insisted": 7278, "reflects": 11138, "##orio": 27416, "workplace": 16165, "controlling": 9756, "pack": 5308, "milky": 21582, "entirety": 15700, "bombs": 9767, "poets": 9736, "bsc": 23533, "jaws": 16113, "##fc": 11329, "entrepreneurs": 17633, "##qvist": 28705, "80": 3770, "oct": 13323, "ammunition": 9290, "what": 2054, "duc": 26363, "april": 2258, "skyscraper": 24581, "tulsa": 16631, "##sso": 24137, "showcase": 13398, "\u0268": 1118, "bs": 18667, "##ring": 4892, "##sa": 3736, "disposed": 21866, "convict": 20462, "\u0580": 1237, "goals": 3289, "spotted": 7282, "meyrick": 15228, "wurttemberg": 16346, "nadu": 10703, "vines": 16702, "synagogue": 13067, "minutes": 2781, "##iens": 24836, "\u0f44": 1427, "\u0986": 1348, "werewolf": 12797, "paterson": 19162, "finley": 29194, "##dra": 7265, "favour": 7927, "biological": 6897, "chewed": 18362, "averaged": 11398, "[unused915]": 920, "##rix": 17682, "sacrament": 28958, "random": 6721, "grace": 4519, "willy": 16172, "destructive": 15615, "[unused65]": 66, "danny": 6266, "out": 2041, "freiburg": 22871, "okay": 3100, "##force": 14821, "experienced": 5281, "##oh": 11631, "viruses": 18191, "galaxy": 9088, "spaces": 7258, "[unused664]": 669, "guessing": 16986, "grooves": 25880, "##coll": 26895, "diamond": 6323, "jang": 23769, "vancouver": 6930, "thankful": 18836, "basis": 3978, "patience": 11752, "joel": 8963, "sigh": 6682, "deputy": 4112, "reassuring": 21093, "hardened": 15015, "bitterness": 22364, "2019": 10476, "corps": 3650, "gym": 9726, "belgian": 6995, "failure": 4945, "luc": 12776, "refusing": 11193, "[unused782]": 787, "##ragan": 28905, "harvest": 11203, "naomi": 12806, "##pw": 28400, "theresa": 14781, "brewster": 23009, "##plify": 28250, "sheen": 20682, "closed": 2701, "joker": 19318, "hancock": 13849, "privatization": 23966, "butcher": 14998, "downloads": 22956, "##pan": 9739, "bunk": 25277, "outrage": 19006, "ashley": 9321, "42": 4413, "threatened": 5561, "##erina": 26052, "cues": 23391, "licensing": 13202, "##\u0bae": 29925, "fancy": 11281, "##chner": 28254, "slippery": 22274, "rapid": 5915, "gregg": 18281, "##\u02e1": 29716, "\u0643": 1293, "jett": 22962, "\u099c": 1358, "##aire": 14737, "bomb": 5968, "cosmetic": 25536, "##illon": 20343, "townspeople": 27938, "[unused912]": 917, "barcelona": 7623, "purse": 8722, "##ibar": 26656, "liang": 16982, "##rst": 12096, "##stor": 23809, "memoir": 12558, "fascinated": 15677, "swearing": 25082, "spire": 19823, "exam": 11360, "brady": 10184, "conclusion": 7091, "architects": 8160, "##landa": 24448, "evan": 9340, "##pher": 27921, "##32": 16703, "rajasthan": 16815, "##tum": 11667, "##ana": 5162, "euroleague": 26093, "caste": 14542, "pets": 18551, "15th": 6286, "##pins": 27915, "ml": 19875, "theologian": 17200, "##uls": 28426, "234": 22018, "nuts": 12264, "eating": 5983, "advocated": 11886, "ownership": 6095, "zeke": 18270, "warden": 13745, "##vani": 27760, "levant": 24485, "dolphin": 17801, "sci": 16596, "nairobi": 21124, "logos": 25571, "spokane": 21878, "##eased": 25063, "deported": 17929, "fisher": 8731, "##haling": 23896, "sentencing": 23280, "execute": 15389, "scarred": 21985, "writing": 3015, "replacements": 23936, "southend": 26104, "criminal": 4735, "delivered": 5359, "unrest": 16591, "[unused952]": 957, "##orous": 25373, "agnes": 11166, "##wala": 23877, "immune": 11311, "readiness": 19822, "playhouse": 17408, "duct": 23245, "demonic": 23170, "wallet": 15882, "sergey": 22703, "##med": 7583, "membership": 5779, "ono": 21058, "peanut": 21443, "craft": 7477, "haunt": 24542, "conventions": 12472, "complicated": 8552, "\u4e0a": 1742, "critics": 4401, "[unused33]": 34, "\u0637": 1286, "cradle": 18293, "same": 2168, "peak": 4672, "##sti": 16643, "##inho": 29344, "reject": 15454, "sermon": 18408, "novella": 20674, "##eck": 11012, "fined": 16981, "##\u222a": 30132, "\u2095": 1564, "##ds": 5104, "pts": 19637, "barnett": 20073, "solitary": 14348, "pitch": 6510, "este": 28517, "scooped": 20804, "hk": 22563, "vince": 12159, "frequented": 24832, "plastic": 6081, "soft": 3730, "cities": 3655, "outlined": 14801, "\u27e9": 1630, "##asi": 21369, "nonstop": 25493, "panting": 15601, "storytelling": 20957, "weaver": 14077, "implicit": 24655, "discovered": 3603, "gujarat": 14288, "stained": 9702, "potent": 16834, "##nian": 11148, "##ddle": 20338, "arts": 2840, "rediscovered": 26733, "aground": 29406, "##\u2082": 8229, "##scopic": 24895, "lana": 16554, "consist": 8676, "vibrant": 17026, "##\u0dba": 29940, "peat": 23366, "opened": 2441, "ist": 21541, "contemporaries": 16682, "##holding": 23410, "##ym": 24335, "geologic": 22125, "sw": 25430, "owen": 7291, "[unused142]": 147, "\u00b1": 1081, "##\u25aa": 30145, "rendering": 14259, "example": 2742, "vt": 28879, "[unused899]": 904, "joe": 3533, "wearing": 4147, "evaluation": 9312, "ste": 26261, "interrupt": 17938, "remorse": 23124, "paolo": 14174, "ymca": 26866, "helps": 7126, "entering": 5738, "\u0f63": 1435, "##vie": 13469, "fetch": 18584, "##igan": 10762, "abrupt": 18772, "152": 15017, "vibration": 17880, "former": 2280, "squash": 18794, "granny": 19794, "##\u0648": 29836, "polled": 26847, "churches": 5231, "##ible": 7028, "fortress": 7841, "##zumi": 28114, "structures": 5090, "blue": 2630, "\u4ecb": 1759, "reaching": 4285, "revisions": 24699, "##due": 20041, "clashes": 17783, "[unused723]": 728, "received": 2363, "collateral": 24172, "sutra": 26567, "sc": 8040, "optimization": 20600, "##iner": 26455, "decorations": 14529, "tarzan": 24566, "malacca": 28481, "castillo": 19371, "thumped": 28963, "##osa": 8820, "canadian": 3010, "\u3053": 1655, "billions": 25501, "##uro": 10976, "##dt": 11927, "telescope": 12772, "forehead": 6130, "##stead": 25647, "privilege": 14293, "\u6b63": 1888, "replaces": 20736, "ec": 14925, "560": 21267, "pride": 6620, "censorship": 15657, "inform": 12367, "##ngo": 16656, "benny": 11945, "wanderers": 14237, "gotta": 10657, "[unused843]": 848, "function": 3853, "##lifting": 26644, "[unused220]": 225, "##\u0926": 29861, "timor": 19746, "##ago": 23692, "gurney": 25061, "canal": 5033, "shan": 17137, "contracted": 11016, "stationed": 8895, "wolff": 23498, "fisted": 28273, "branch": 3589, "mouth": 2677, "learnt": 20215, "gage": 10012, "##ming": 6562, "##ssel": 21218, "##urized": 28405, "supermarket": 17006, "lobes": 24423, "##kala": 26907, "nationalism": 14594, "fbi": 8495, "performed": 2864, "er": 9413, "rowan": 14596, "quiver": 29049, "##iom": 18994, "##mba": 11201, "ensign": 19890, "##ses": 8583, "##eri": 11124, "approved": 4844, "##hampton": 21946, "##channel": 26058, "galen": 21062, "blaine": 20002, "dodge": 11898, "meeting": 3116, "sadness": 12039, "repeatedly": 8385, "spanned": 18212, "facility": 4322, "[unused791]": 796, "##nese": 14183, "compilation": 6268, "##hot": 12326, "captures": 19566, "runoff": 19550, "intricate": 17796, "[unused22]": 23, "maria": 3814, "messing": 22308, "brock": 13899, "##cape": 19464, "sublime": 28341, "##\u067e": 29839, "maggie": 8538, "atomic": 9593, "##nbc": 28957, "##lma": 19145, "wildcats": 19495, "productive": 13318, "1665": 27676, "##idi": 28173, "wagner": 10304, "phillies": 15711, "##\u0627": 25573, "##ada": 8447, "churchyard": 19812, "[unused82]": 83, "gabby": 27183, "portuguese": 5077, "##tate": 12259, "wild": 3748, "[unused156]": 161, "mcguire": 23872, "crowded": 10789, "##aur": 21159, "403": 28203, "libya": 12917, "superficial": 23105, "homecoming": 20772, "pittsburgh": 6278, "rises": 9466, "##nche": 26091, "[unused584]": 589, "cork": 8513, "##ating": 5844, "forearms": 27323, "planners": 27155, "showdown": 24419, "[unused245]": 250, "instances": 12107, "mirrored": 22243, "##enne": 24336, "##hma": 22444, "\u06ba": 1306, "areas": 2752, "claudia": 13479, "##kong": 25460, "tensed": 15225, "stark": 9762, "pcs": 27019, "carrying": 4755, "period": 2558, "unanimously": 15645, "##ros": 7352, "implied": 13339, "##amine": 19915, "ether": 28855, "middleweight": 18741, "dolly": 19958, "baghdad": 13952, "barnsley": 25139, "derive": 18547, "sicilian": 22584, "lineage": 13321, "##ava": 12462, "512": 24406, "##\u535a": 30312, "[unused868]": 873, "mead": 19855, "showcases": 27397, "erik": 10240, "moderator": 29420, "1849": 9037, "michael": 2745, "1811": 13086, "##tri": 18886, "transient": 25354, "clearance": 14860, "fails": 11896, "cotton": 6557, "##ond": 15422, "zodiac": 28501, "many": 2116, "leftist": 24247, "##ez": 9351, "stripes": 13560, "depiction": 15921, "\u026f": 1122, "##dened": 24589, "jaya": 24120, "\u266d": 1627, "##\u83ef": 30468, "##hart": 10686, "foremost": 16097, "llc": 11775, "joints": 17651, "prussia": 10724, "fabian": 21174, "newcomer": 16866, "[unused70]": 71, "prospective": 17464, "impressions": 19221, "darkening": 27862, "##bush": 22427, "[unused375]": 380, "masonry": 18103, "respectable": 19416, "hardly": 6684, "rbis": 23583, "mathematicians": 29374, "reno": 17738, "mama": 9588, "intelligence": 4454, "priorities": 18402, "soil": 5800, "##\u5e73": 30365, "biblical": 10213, "fray": 25975, "sensitivity": 14639, "bond": 5416, "game": 2208, "##won": 19291, "showcasing": 27696, "blinding": 19709, "peel": 14113, "advocates": 13010, "dylan": 7758, "[unused4]": 5, "mandir": 22700, "reached": 2584, "##uz": 17040, "knots": 9439, "perfection": 15401, "bolivian": 26075, "##\u0635": 29826, "rankings": 10385, "mercy": 8673, "regarded": 5240, "##ooping": 29046, "keynote": 25569, "sighing": 19381, "mandates": 25979, "##ash": 11823, "##breakers": 27623, "predominantly": 9197, "witnessed": 9741, "241": 22343, "drawer": 13065, "reorganization": 17118, "honored": 8686, "metropolis": 18236, "##\u0290": 29702, "jamaican": 17851, "##uity": 18518, "lord": 2935, "410": 19151, "##ik": 5480, "residue": 21755, "\u043f": 1194, "piles": 18526, "resulted": 4504, "confirmation": 13964, "yen": 18371, "savoy": 16394, "believe": 2903, "ape": 23957, "forever": 5091, "##\u2077": 30076, "objective": 7863, "survivor": 12084, "##rook": 25399, "[unused803]": 808, "##psis": 18409, "##uen": 24997, "##sai": 15816, "ignored": 6439, "called": 2170, "tagged": 26610, "alton": 26374, "pioneering": 13280, "edmond": 21773, "ebert": 22660, "neolithic": 19061, "halted": 12705, "containing": 4820, "promoting": 7694, "sought": 4912, "transvaal": 28336, "methods": 4725, "maid": 10850, "##\u30bf": 30235, "##cles": 18954, "demi": 27668, "##18": 15136, "macintosh": 22228, "cyrillic": 15522, "paved": 12308, "editions": 6572, "arousal": 18905, "red": 2417, "dust": 6497, "##hore": 16892, "supreme": 4259, "footing": 22849, "hundreds": 5606, "##yi": 10139, "filtering": 22910, "##pur": 5311, "protesting": 21248, "southernmost": 21787, "duffy": 17971, "lashed": 25694, "marry": 5914, "##bine": 16765, "fools": 18656, "pick": 4060, "cbe": 15852, "trade": 3119, "reminiscent": 14563, "##oted": 27428, "pickering": 27078, "engravings": 28611, "gulped": 25411, "lust": 11516, "sells": 15187, "##biology": 21685, "tyrol": 27193, "##rim": 20026, "clamped": 18597, "agitation": 22356, "vladimir": 8748, "rookie": 8305, "chin": 5413, "pen": 7279, "cult": 8754, "certified": 7378, "##dd": 14141, "23": 2603, "##ratic": 23671, "##46": 21472, "break": 3338, "businesses": 5661, "jeopardy": 26604, "shin": 12277, "visit": 3942, "tunnel": 5234, "##mates": 15416, "\u02e2": 1152, "##hum": 28600, "quarter": 4284, "hung": 5112, "[unused103]": 108, "beckett": 20599, "[unused182]": 187, "##id": 3593, "atrium": 26204, "##sd": 16150, "##\u03b7": 24824, "ensembles": 21528, "[unused346]": 351, "earning": 7414, "societies": 8384, "snapping": 15790, "\u1111": 1468, "##uous": 8918, "contempt": 17152, "recounted": 22906, "##mmer": 15810, "realises": 25924, "gov": 18079, "smeared": 25400, "negotiations": 7776, "rivers": 5485, "caesar": 11604, "isla": 25340, "##uld": 21285, "##]": 29636, "1692": 28622, "weeds": 20777, "modelled": 23364, "denominations": 17384, "harmonica": 16527, "offs": 12446, "##ake": 13808, "##taff": 22542, "bicycles": 21066, "##card": 11522, "sai": 18952, "[unused965]": 970, "lac": 18749, "##vers": 14028, "gamer": 27911, "weaker": 15863, "midfielder": 8850, "going": 2183, "horn": 7109, "activists": 10134, "bribes": 29117, "robinson": 6157, "enoch": 28178, "martyrs": 18945, "galleries": 11726, "natalie": 10829, "commerce": 6236, "include": 2421, "\u30eb": 1733, "##llon": 22179, "islander": 12544, "que": 10861, "##\u00fe": 29670, "##vel": 15985, "isil": 19600, "ld": 25510, "torpedo": 9862, "dumping": 23642, "payne": 13470, "##\u0baa": 29924, "creations": 20677, "##ct": 6593, "##bin": 8428, "shift": 5670, "cecil": 11978, "collected": 5067, "\u0283": 1130, "november": 2281, "##iculate": 24153, "aluminium": 14794, "yugoslavia": 8936, "stadiums": 28244, "rob": 6487, "worcestershire": 20218, "[unused53]": 54, "clashed": 22600, "nutrient": 26780, "previous": 3025, "considered": 2641, "[unused84]": 85, "[unused790]": 795, "1910s": 28088, "##sner": 20479, "olaf": 20514, "rutherford": 18472, "glitter": 27566, "brace": 17180, "aerodynamic": 28033, "brentford": 26550, "longitude": 20413, "ray": 4097, "observed": 5159, "rebellion": 7417, "commemorate": 13415, "poetic": 13805, "##\u7592": 30439, "[unused115]": 120, "sucked": 8631, "##cat": 11266, "##itan": 25451, "nightstand": 23135, "contact": 3967, "##raction": 25533, "[unused494]": 499, "silhouette": 21776, "##ement": 13665, "outlet": 13307, "necks": 26082, "overall": 3452, "enjoyable": 22249, "collectively": 13643, "punk": 7196, "paranoia": 27890, "32nd": 20628, "bang": 9748, "##ajan": 28869, "reproductive": 15124, "clapped": 18310, "cheerfully": 27403, "georg": 12062, "attraction": 8432, "##gill": 19791, "caliph": 22733, "##cars": 20745, "snap": 10245, "##iso": 19565, "odor": 19255, "##vot": 22994, "tsunami": 19267, "beg": 11693, "biochemistry": 22419, "memphis": 9774, "##obe": 20891, "inappropriate": 15884, "rouge": 12801, "[unused354]": 359, "implication": 25323, "antenna": 13438, "francais": 22357, "baking": 21522, "living": 2542, "apologize": 12134, "gaping": 21226, "##kata": 29123, "##\u110b": 29999, "these": 2122, "expands": 24545, "education": 2495, "probably": 2763, "lang": 11374, "semifinal": 16797, "pension": 11550, "associate": 5482, "mons": 29408, "texas": 3146, "##phus": 25255, "capitals": 15433, "##nk": 8950, "hesitated": 9369, "provence": 19923, "##ein": 12377, "holder": 9111, "just": 2074, "andreas": 12460, "listed": 3205, "##\u03bf": 29730, "broader": 12368, "voted": 5444, "attractive": 8702, "68": 6273, "yuri": 14331, "\u201d": 1524, "costing": 22173, "cairo": 11096, "progressing": 27673, "terminated": 12527, "production": 2537, "##rogated": 26565, "\u0928": 1327, "nostrils": 15325, "albania": 10407, "averages": 20185, "post": 2695, "til": 18681, "##\u5b9a": 30348, "luz": 26214, "sides": 3903, "##rp": 14536, "##rries": 26801, "1654": 27445, "inspiration": 7780, "playing": 2652, "##\u0f56": 29967, "##wc": 16526, "paradise": 9097, "honour": 6225, "booths": 27612, "##ractive": 26884, "1718": 26995, "newbury": 29457, "99": 5585, "##sil": 27572, "##eil": 24359, "##\u0e25": 29954, "garrison": 8427, "confiscated": 17182, "experiments": 7885, "supervising": 21238, "realising": 27504, "intrinsic": 23807, "char": 25869, "maple": 11035, "polo": 11037, "vertebrae": 25517, "[unused1]": 2, "dream": 3959, "circus": 9661, "##idia": 29342, "hua": 23064, "foster": 6469, "evolution": 6622, "##kson": 26579, "##osing": 18606, "excuse": 8016, "jurist": 22757, "referring": 7727, "tatiana": 22725, "louie": 17438, "benton": 18685, "[unused357]": 362, "wrenched": 26971, "enclave": 25867, "cured": 21391, "##igo": 14031, "##ditional": 27064, "granting": 15080, "cindy": 15837, "analogue": 21800, "snort": 26759, "nestor": 25397, "pattern": 5418, "##olin": 18861, "cerebral": 18439, "stuffed": 11812, "ranch": 8086, "serbian": 6514, "rehab": 24497, "pairing": 22778, "confirmed": 4484, "##\u305f": 30187, "official": 2880, "##\u2070": 30071, "##rbin": 27366, "smallpox": 25765, "craters": 27561, "##mon": 8202, "richer": 26108, "ix": 11814, "555": 29541, "chemistry": 6370, "reacts": 27325, "excitement": 8277, "goes": 3632, "worthy": 11007, "hs": 26236, "debt": 7016, "commando": 15054, "##\u0935": 29871, "monstrous": 21668, "italy": 3304, "##sel": 11246, "carpathian": 26349, "dorset": 15367, "connor": 6720, "skiing": 12701, "floor": 2723, "mn": 24098, "[unused686]": 691, "jogged": 27812, "hadn": 2910, "libertarian": 19297, "navy": 3212, "##st": 3367, "go": 2175, "[unused608]": 613, "[unused842]": 847, "treason": 14712, "##pton": 15857, "scattering": 17501, "tiger": 6816, "alternatives": 15955, "zoom": 24095, "[unused401]": 406, "clerks": 26706, "chan": 9212, "kingdoms": 12028, "princes": 12000, "[unused377]": 382, "joke": 8257, "050": 28714, "##rsa": 22381, "uptown": 28539, "sri": 5185, "offshore": 12195, "##\u6625": 30393, "yielding": 21336, "allowance": 21447, "jenkins": 11098, "##tori": 29469, "recovered": 6757, "##ish": 4509, "app": 10439, "[unused561]": 566, "weights": 15871, "##lan": 5802, "[unused479]": 484, "paz": 18183, "naval": 3987, "inning": 12994, "##chule": 20269, "##\u5317": 30307, "##ax": 8528, "gunter": 27834, "##chaft": 29043, "##\u25a0": 30144, "##\u30ad": 30227, "survive": 5788, "bets": 29475, "##duced": 28901, "##agi": 22974, "##int": 18447, "##chenko": 25872, "##yar": 13380, "##ssing": 18965, "fooled": 25857, "[unused672]": 677, "gesellschaft": 27482, "##ains": 28247, "pp": 4903, "extended": 3668, "##och": 11663, "rms": 29311, "##ute": 10421, "crouched": 14275, "##lai": 19771, "[unused837]": 842, "reclamation": 27389, "raid": 8118, "[unused102]": 107, "\u0915": 1315, "##eli": 20806, "glittering": 20332, "rumours": 19200, "ready": 3201, "overcoming": 27363, "##dre": 16200, "dictatorship": 18944, "jim": 3958, "throttle": 24420, "7": 1021, "resumed": 7943, "slovene": 18326, "odin": 26195, "\u0565": 1223, "\u0f54": 1430, "##eley": 22352, "gaddafi": 28924, "\u9053": 1957, "pear": 28253, "tires": 13310, "1": 1015, "##ique": 7413, "scout": 7464, "diplomacy": 17610, "tanned": 25973, "bal": 28352, "biplane": 28686, "##sies": 14625, "forms": 3596, "\u1d65": 1510, "olympia": 17096, "definitive": 15764, "subterranean": 28811, "rows": 10281, "rte": 20375, "332": 29327, "\u2122": 1580, "event": 2724, "##enter": 29110, "cycles": 12709, "##hiff": 25798, "rebounds": 11049, "##orra": 24285, "kamen": 22099, "extra": 4469, "except": 3272, "49ers": 18156, "labour": 4428, "assigned": 4137, "monuments": 10490, "handled": 8971, "##tan": 5794, "noisy": 20810, "spinal": 16492, "terrain": 9291, "service": 2326, "keel": 19602, "limits": 6537, "##pina": 26787, "petroleum": 11540, "chopin": 25479, "submit": 12040, "##\u0430\u043d": 28995, "observers": 14009, "##23": 21926, "clustered": 25221, "sur": 7505, "guangzhou": 18693, "intended": 3832, "full": 2440, "onward": 15834, "nail": 13774, "##ers": 2545, "[unused633]": 638, "##\u2099": 19110, "emerges": 19391, "[unused578]": 583, "yates": 20356, "##ward": 7652, "gracie": 19005, "##fort": 13028, "wales": 3575, "grupo": 26678, "formally": 6246, "##weight": 11179, "##oteric": 29112, "[unused825]": 830, "foot": 3329, "cheung": 22632, "best": 2190, "clube": 24852, "m\u00b3": 14241, "ledger": 27106, "shareholder": 18668, "introduce": 8970, "resolutions": 18853, "somerset": 9198, "midday": 22878, "scan": 13594, "institute": 2820, "\u5f18": 1843, "untitled": 24819, "lake": 2697, "meal": 7954, "continent": 9983, "\u00b0c": 6362, "[unused434]": 439, "##puram": 17809, "fission": 27521, "yellow": 3756, "nationale": 17360, "swift": 9170, "supplemented": 20585, "strangers": 12358, "##tang": 26067, "finish": 3926, "4a": 26424, "##schaft": 26527, "exclaimed": 12713, "covering": 5266, "joey": 9558, "yamamoto": 28318, "notified": 19488, "##\u0e27": 29955, "viktor": 13489, "[unused702]": 707, "fashion": 4827, "##sko": 21590, "reduced": 4359, "planted": 8461, "cuffs": 24347, "##\u570b": 30326, "compact": 9233, "odi": 21045, "[unused504]": 509, "refers": 5218, "moran": 17866, "##erry": 19826, "teddy": 11389, "horizontally": 23190, "secession": 22965, "##alle": 24164, "victorious": 13846, "2015": 2325, "##unk": 16814, "operatives": 25631, "pry": 29198, "demons": 7942, "##ram": 6444, "301": 19123, "worcester": 12539, "##9": 2683, "terrace": 11134, "airfields": 25278, "##onal": 16026, "consolidated": 10495, "identities": 15702, "completion": 6503, "mira": 18062, "##bra": 10024, "wroc\u0142aw": 25160, "portrait": 6533, "heavier": 11907, "proceed": 10838, "##tale": 22059, "valkyrie": 26696, "[unused746]": 751, "\u1105": 1458, "mp3": 23378, "ares": 23631, "outcomes": 13105, "memorable": 13432, "##vian": 18073, "beaumont": 16210, "foo": 29379, "315": 22904, "##istic": 6553, "wildlife": 6870, "televised": 13762, "cheaper": 16269, "##uated": 16453, "##rano": 20770, "branched": 21648, "middleton": 17756, "##\u2191": 30112, "bilbao": 25427, "danger": 5473, "##lles": 20434, "1701": 26059, "neither": 4445, "\u2099": 1568, "##tle": 9286, "campo": 22339, "convenience": 15106, "denying": 16039, "dependence": 18642, "toad": 21344, "lasted": 6354, "##\u00b7": 29661, "struggling": 8084, "songwriters": 20602, "##chal": 18598, "frederick": 5406, "generated": 7013, "historic": 3181, "leonard": 7723, "296": 27200, "leopold": 12752, "265": 20549, "signed": 2772, "walton": 14290, "commissioner": 5849, "trademark": 11749, "tumbled": 18303, "##onda": 29067, "##eger": 26320, "andre": 7213, "dared": 15048, "arrives": 8480, "##nova": 13455, "traveller": 21916, "liable": 20090, "##ester": 20367, "gui": 26458, "oxidation": 19577, "##grounds": 28951, "cambridge": 4729, "[unused138]": 143, "\u0dbd": 1406, "##outs": 12166, "##genesis": 23737, "endured": 16753, "##rocity": 21735, "precautions": 29361, "diary": 9708, "##sted": 14701, "reins": 19222, "technique": 6028, "detachment": 11009, "openings": 16556, "sum": 7680, "elimination": 9614, "troubled": 11587, "scraping": 23704, "claw": 15020, "useful": 6179, "lecture": 8835, "##ant": 4630, "##riz": 21885, "disturbed": 12491, "##rard": 25561, "america": 2637, "lopez": 8685, "1713": 27016, "catherine": 6615, "ejected": 22607, "financially": 13732, "devastation": 25594, "##phonic": 27385, "##\u2122": 30108, "##cend": 23865, "hidalgo": 24715, "grayson": 17556, "scripts": 14546, "##yp": 22571, "##\u0928": 29863, "norte": 19931, "blackish": 22032, "document": 6254, "reduces": 13416, "##nzo": 25650, "##emia": 17577, "cowboys": 11666, "[unused634]": 639, "searched": 9022, "cruise": 8592, "complaint": 12087, "midsummer": 28171, "##gia": 10440, "amalgamation": 21968, "acres": 4631, "[unused834]": 839, "irregular": 12052, "malmo": 23643, "subcommittee": 18052, "yo": 10930, "##cona": 24366, "##zel": 12638, "##lez": 28060, "prepare": 7374, "1961": 3777, "ambush": 15283, "mortality": 13356, "tramway": 17050, "bowled": 19831, "predictions": 20932, "selma": 28112, "patiently": 19080, "149": 17332, "gate": 4796, "eliminate": 11027, "saigon": 24001, "\u00b0": 1080, "kelsey": 21004, "kiran": 22403, "guantanamo": 23094, "dakota": 7734, "javelin": 23426, "overlap": 17702, "clear": 3154, "##ired": 27559, "halo": 17201, "ion": 10163, "999": 25897, "strewn": 25259, "soloists": 27516, "watering": 25813, "junta": 22450, ",": 1010, "starboard": 25211, "vis": 25292, "145": 13741, "##ories": 18909, "##ffey": 24513, "##cola": 26289, "##36": 21619, "rid": 9436, "helped": 3271, "[unused486]": 491, "##jo": 5558, "needs": 3791, "##fying": 14116, "\u00b3": 1083, "\u00a5": 1071, "potion": 26722, "thrusting": 21468, "walnut": 18489, "##logists": 18738, "second": 2117, "[unused759]": 764, "expelled": 10016, "##\u057d": 29781, "dalton": 12413, "jazz": 4166, "contestants": 10584, "##\u5bb6": 30351, "torso": 15190, "sal": 16183, "sidewalk": 11996, "able": 2583, "registering": 25719, "[unused933]": 938, "taiwan": 6629, "\u00a1": 1067, "greensboro": 27905, "##\u51fa": 30300, "boone": 15033, "complained": 10865, "invincible": 25018, "##oka": 12352, "glad": 5580, "decent": 11519, "database": 7809, "feared": 8615, "chartered": 12443, "lots": 7167, "export": 9167, "##rino": 17815, "menace": 19854, "disciples": 17102, "##zic": 27586, "novi": 21574, "##dock": 14647, "##\u10d3": 29977, "ensuring": 12725, "heights": 7535, "sideways": 12579, "##houses": 15666, "##piration": 16781, "##active": 19620, "##ailing": 29544, "hours": 2847, "awareness": 7073, "sober": 17358, "weighs": 21094, "adjective": 24931, "##ksha": 28132, "##ide": 5178, "takahashi": 25585, "103": 9800, "temperance": 23372, "essays": 8927, "##rained": 27361, "aloud": 12575, "ruler": 7786, "##lay": 8485, "installing": 23658, "indicated": 5393, "distinguished": 5182, "\u0ba8": 1386, "pretty": 3492, "scheduled": 5115, "jammed": 21601, "##\u5fd7": 30377, "korea": 4420, "should": 2323, "##dles": 27822, "treaty": 5036, "gingerly": 26961, "anchorage": 21086, "126": 14010, "900": 7706, "##uez": 29488, "gaining": 8550, "collects": 17427, "season": 2161, "namely": 8419, "complied": 26946, "boosted": 28043, "deposits": 10042, "counties": 5721, "invite": 13260, "##\u0b9a": 29919, "employment": 6107, "pete": 6969, "chemicals": 12141, "ave": 13642, "[unused533]": 538, "presented": 3591, "xl": 28712, "hd": 10751, "1663": 29016, "gregorian": 25847, "##amp": 16613, "polgara": 27041, "##ani": 7088, "tin": 9543, "sighting": 29426, "sight": 4356, "agrarian": 23226, "[unused593]": 598, "bk": 23923, "\u092a": 1328, "falcons": 14929, "[unused826]": 831, "espionage": 21003, "[unused557]": 562, "bilateral": 17758, "newborn": 20662, "stirred": 13551, "##erty": 15010, "working": 2551, "outfielder": 21033, "##\u7af9": 30459, "also": 2036, "accepted": 3970, "adjusted": 10426, "sampled": 18925, "##corp": 24586, "wonder": 4687, "nationwide": 9053, "##cious": 18436, "converts": 19884, "span": 8487, "##lake": 14530, "summarized": 22539, "kentucky": 5612, "samurai": 16352, "[unused841]": 846, "passport": 12293, "##ware": 8059, "relation": 7189, "violins": 25877, "weakening": 22031, "wii": 16568, "deserves": 17210, "gear": 6718, "betrayed": 12056, "alphabet": 12440, "babylon": 17690, "##\u11a8": 30020, "statewide": 13486, "[unused395]": 400, "intuition": 26406, "[unused144]": 149, "\u0e25": 1418, "bubba": 19606, "exemption": 19621, "\u674e": 1877, "##ham": 3511, "[unused218]": 223, "respects": 17475, "papyrus": 29575, "touchdown": 7921, "brat": 28557, "abolished": 8961, "sting": 12072, "##zawa": 19708, "bringing": 5026, "xinjiang": 25904, "##girl": 15239, "composed": 3605, "louise": 8227, "digest": 17886, "replied": 3880, "[unused697]": 702, "\u0bc8": 1399, "\u0638": 1287, "carlson": 22226, "women": 2308, "##hett": 28499, "attempting": 7161, "\u057d": 1234, "construct": 9570, "controversies": 25962, "##\u02b8": 29710, "sherry": 22268, "archives": 8264, "restoring": 16487, "##wara": 11872, "underwent": 9601, "earthly": 29520, "clit": 17962, "freight": 8441, "theory": 3399, "exact": 6635, "outlook": 17680, "[unused539]": 544, "aromatic": 25496, "connell": 17199, "##uda": 14066, "alfa": 22989, "yoon": 24863, "affiliated": 6989, "orgasm": 13892, "##nction": 27989, "portsmouth": 10913, "disliked": 18966, "##mour": 20360, "##a1": 27717, "mina": 19808, "\u2297": 1613, "cancelled": 8014, "crawford": 10554, "blink": 12373, "subsidiaries": 20178, "epic": 8680, "centrally": 25497, "-": 1011, "disappearance": 13406, "sleeve": 10353, "laval": 26205, "keeps": 7906, "thoughtfully": 19897, "quiet": 4251, "##die": 10265, "##40": 12740, "detained": 14620, "justification": 19777, "##ayan": 25868, "jonah": 15617, "##tha": 8322, "winner": 3453, "##wes": 18192, "wardrobe": 17828, "watery": 28259, "clinical": 6612, "earth": 3011, "reassured": 26350, "absence": 6438, "##firm": 27972, "pounder": 20091, "##gf": 25708, "dortmund": 23912, "opposes": 29158, "suburbs": 9435, "merlin": 15993, "##ry": 2854, "motel": 14901, "westphalia": 22952, "isabel": 11648, "tam": 17214, "##static": 16677, "progresses": 22901, "##\u0905": 29847, "attic": 14832, "nils": 27282, "crooked": 15274, "irish": 3493, "apostolic": 11815, "drying": 17462, "socialist": 6102, "catalogue": 10161, "pricing": 20874, "##\u10e0": 29987, "bologna": 14102, "dewey": 20309, "virgin": 6261, "needy": 23927, "decree": 10037, "daisy": 10409, "opposition": 4559, "[unused814]": 819, "france": 2605, "kings": 5465, "deeds": 15616, "spite": 8741, "1736": 28192, "##sten": 16173, "##\u5ba3": 30349, "traps": 16735, "swirl": 28693, "##\u0bc1": 29933, "pi": 14255, "##filtration": 28674, "transports": 19003, "##peed": 25599, "##cide": 27082, "\u6210": 1854, "tired": 5458, "melted": 12501, "homosexuality": 15949, "[unused583]": 588, "\u0964": 1344, "dammit": 20878, "pike": 12694, "##\u10d8": 29981, "indications": 24936, "##ance": 6651, "cinematography": 16434, "##\u0636": 29827, "[unused859]": 864, "operates": 5748, "relics": 16712, "false": 6270, "rb": 21144, "##zing": 6774, "uc": 15384, "cinder": 29399, "184": 19681, "referee": 5330, "rao": 10546, "moral": 7191, "psychiatry": 18420, "byron": 12234, "buckingham": 17836, "trinity": 7124, "orthodoxy": 26582, "down": 2091, "expressive": 22570, "blooded": 26064, "##gration": 29397, "loki": 24143, "sb": 24829, "echoes": 17659, "lovers": 10205, "coventry": 13613, "##lity": 18605, "parliamentary": 5768, "[unused124]": 129, "##lars": 28695, "gunther": 19384, "##ifice": 23664, "##eye": 17683, "tribute": 7050, "relentless": 21660, "promotions": 15365, "phillip": 10852, "##one": 5643, "mb": 16914, "leipzig": 11222, "dial": 13764, "##tail": 14162, "smack": 21526, "##\u0259": 29681, "memoirs": 13251, "\u090f": 1314, "seventeen": 9171, "municipality": 3250, "without": 2302, "theirs": 17156, "1749": 24704, "##tious": 20771, "disrupted": 20275, "erected": 7019, "sigma": 13201, "pressured": 25227, "skeletal": 20415, "amber": 8994, "[unused798]": 803, "alliances": 21277, "orphaned": 27093, "##eo": 8780, "imagination": 9647, "prop": 17678, "restless": 15035, "fair": 4189, "silicon": 13773, "change": 2689, "abduction": 23415, "##bly": 6321, "spying": 22624, "aerodrome": 23843, "gesturing": 22317, "\u2194": 1587, "pledge": 16393, "##kei": 29501, "managerial": 24465, "jackie": 9901, "happier": 19366, "##try": 11129, "refuses": 10220, "sensitive": 7591, "clandestine": 24450, "##quent": 15417, "cutter": 16343, "##osh": 17369, "respectively": 4414, "strain": 10178, "chariot": 23507, "egypt": 5279, "segments": 9214, "waves": 5975, "demonstrates": 16691, "lip": 5423, "ferreira": 26135, "ignoring": 9217, "affection": 12242, "##sher": 19603, "fergus": 21023, "removing": 9268, "hunan": 27374, "mood": 6888, "##pad": 15455, "statements": 8635, "porn": 22555, "movies": 5691, "shooting": 5008, "313": 22997, "trusts": 20278, "grimes": 24865, "slabs": 28761, "anarchy": 26395, "remain": 3961, "affecting": 12473, "snoop": 29044, "tipped": 11182, "murmur": 20227, "simplest": 21304, "1789": 13739, "proxy": 24540, "\u0997": 1355, "promoters": 26512, "##icative": 25184, "[unused647]": 652, "consecutive": 5486, "investors": 9387, "dir": 16101, "narcotics": 27290, "disgusted": 17733, "hometown": 9627, "doyle": 11294, "dso": 22951, "##ensburg": 28812, "bombardment": 10400, "continue": 3613, "profound": 13769, "strangely": 13939, "justices": 19867, "##lase": 25002, "submarines": 12622, "exhibited": 8176, "pristine": 27375, "lent": 15307, "used": 2109, "drugged": 25483, "pleas": 22512, "wally": 18202, "georgetown": 12982, "jasper": 14791, "examining": 12843, "maud": 21696, "##aby": 21275, "tray": 11851, "andy": 5557, "[unused507]": 512, "philanthropist": 15246, "conway": 14783, "confirms": 23283, "acacia": 24766, "##ggs": 21314, "3rd": 3822, "caledonia": 19305, "magazines": 7298, "\u221e": 1601, "##isms": 22556, "zimmerman": 27946, "##wick": 7184, "pole": 6536, "handles": 16024, "##dalen": 26414, "statue": 6231, "steadily": 11328, "ian": 4775, "##uss": 17854, "rhea": 24775, "139": 16621, "71": 6390, "apparatus": 14709, "highland": 10983, "disability": 11980, "diagnosis": 11616, "occupying": 13992, "##oese": 23379, "clover": 25133, "improvised": 19641, "[unused198]": 203, "##aint": 22325, "keane": 27228, "rod": 8473, "honda": 11990, "##lter": 21928, "periodically": 18043, "sultan": 7544, "goldstein": 25507, "griffin": 9258, "##sport": 20205, "persian": 4723, "overlooked": 17092, "functions": 4972, "transcript": 24051, "shy": 11004, "1570": 28881, "motorized": 26172, "##elin": 18809, "##\u00b6": 29660, "songwriter": 6009, "strap": 16195, "argued": 5275, "skating": 10080, "cared": 8725, "minogue": 27736, "##dian": 11692, "tanya": 19956, "existing": 4493, "facing": 5307, "##nse": 12325, "listeners": 13810, "##,": 29623, "##oo": 9541, "shri": 14880, "documenting": 23138, "fever": 9016, "graffiti": 17990, "2016": 2355, "can": 2064, "[unused211]": 216, "sadie": 21330, "pat": 6986, "twenties": 18946, "##sure": 28632, "##ih": 19190, "##sto": 16033, "sesame": 23605, "jaipur": 28355, "consult": 23363, "##\u76ee": 30444, "overview": 19184, "ignition": 17446, "##\u20a9": 30101, "metadata": 27425, "nut": 17490, "restaurant": 4825, "##\u208d": 30087, "situated": 4350, "nape": 23634, "baker": 6243, "riding": 5559, "\u203f": 1534, "tables": 7251, "hoover": 17443, "olga": 15585, "pre": 3653, "horrified": 14603, "stimulus": 19220, "gestapo": 26446, "##aud": 19513, "indus": 27746, "##tery": 20902, "xi": 8418, "grandmother": 7133, "endings": 21306, "##sson": 7092, "poppy": 19745, "##\u5bfa": 30353, "##ets": 8454, "extremes": 28800, "\u0250": 1109, "split": 3975, "libre": 21091, "[unused50]": 51, "##tituted": 29139, "[unused243]": 248, "##tor": 4263, "hart": 7530, "madrid": 6921, "##redo": 23417, "innsbruck": 28914, "positively": 13567, "drinking": 5948, "##\u7a7a": 30456, "temptation": 17232, "taboo": 27505, "boyd": 12164, "workforce": 14877, "gloria": 10778, "shielded": 25474, "[unused532]": 537, "##pore": 26691, "qualifications": 15644, "rue": 13413, "administrations": 27722, "audi": 20075, "scores": 7644, "##note": 22074, "spans": 14798, "authorized": 9362, "saline": 28413, "lukas": 23739, "orleans": 5979, "proclamation": 16413, "azerbaijan": 8365, "embroidery": 29507, "despised": 26626, "##sius": 24721, "methane": 24481, "##wg": 27767, "des": 4078, "cycle": 5402, "discuss": 6848, "piston": 16733, "schwarz": 29058, "harbour": 7440, "470": 21064, "\u967d": 1973, "##ates": 8520, "infrared": 14611, "105": 8746, "latham": 28737, "##thing": 20744, "##\u0431": 29740, "translates": 16315, "narrowed": 8061, "##\u5dde": 30362, "shepherd": 11133, "##el": 2884, "tag": 6415, "endeavors": 28809, "loyalist": 23414, "hesitation": 13431, "\u0e17": 1412, "##ivate": 21466, "6": 1020, "uefa": 6663, "arose": 10375, "dillon": 14602, "amy": 6864, "buddy": 8937, "militias": 29271, "projections": 21796, "[unused394]": 399, "##uating": 24133, "stores": 5324, "outline": 12685, "##fu": 11263, "glaring": 16124, "continents": 17846, "chopped": 24881, "ford": 4811, "approx": 22480, "weekday": 16904, "markham": 26197, "fly": 4875, "crises": 25332, "[unused324]": 329, "sonia": 16244, "shaun": 16845, "shops": 7340, "grab": 6723, "bicycle": 10165, "surveys": 12265, "##\u0987": 29885, "bluff": 14441, "logic": 7961, "mana": 24951, "ai": 9932, "[": 1031, "cyclic": 23750, "1720": 23535, "stripe": 18247, "##60": 16086, "cecilia": 18459, "cain": 11557, "glacier": 10046, "##gies": 17252, "nc": 13316, "kevin": 4901, "recalling": 21195, "themed": 11773, "federally": 20892, "demonstrated": 7645, "strife": 27865, "##tford": 26341, "battle": 2645, "must": 2442, "##ite": 4221, "elderly": 9750, "unanimous": 13604, "rotation": 9963, "##cy": 5666, "messenger": 11981, "der": 4315, "assured": 8916, "gangs": 18542, "tyrant": 26508, "jones": 3557, "##ano": 6761, "seed": 6534, "padma": 23731, "##ropriation": 26121, "implicated": 20467, "mani": 23624, "barry": 6287, "catalytic": 26244, "1960": 3624, "##ves": 6961, "trickle": 26027, "summon": 18654, "##lovic": 29356, "laying": 10201, "[unused201]": 206, "208": 18512, "stops": 6762, "volleyball": 7454, "toulon": 27160, "bjp": 24954, "apologies": 25380, "road": 2346, "##tidae": 21861, "both": 2119, "[unused303]": 308, "spiders": 14160, "##bis": 18477, "damp": 10620, "##efined": 28344, "##den": 4181, "##ina": 3981, "##lston": 21540, "durham": 9296, "##pon": 26029, "brewery": 12161, "animal": 4111, "jagged": 18187, "##vita": 28403, "gemma": 19073, "[unused69]": 70, "perfume": 17013, "[unused526]": 531, "[unused970]": 975, "[unused236]": 241, "##nent": 21576, "336": 27954, "housemates": 28152, "athlete": 8258, "somber": 28587, "140": 8574, "damned": 9636, "hitler": 8042, "60s": 20341, "fraction": 12884, "saskatoon": 25447, "succeed": 9510, "giant": 5016, "alps": 13698, "manager": 3208, "issue": 3277, "ravaged": 25537, "##iting": 15402, "287": 23090, "skate": 17260, "##\u02e3": 29718, "mob": 11240, "rare": 4678, "mccain": 19186, "co\u2082": 20190, "buck": 10131, "exquisite": 19401, "weaknesses": 21775, "stadium": 3346, "##inal": 13290, "uncertain": 9662, "##asurable": 28329, "crawling": 15927, "[unused262]": 267, "touch": 3543, "[unused637]": 642, "curran": 19649, "[unused789]": 794, "margaret": 5545, "central": 2430, "hurdles": 18608, "\u03c1": 1171, "belonged": 6272, "branding": 16140, "##200": 28332, "slim": 11754, "##bling": 9709, "nasser": 26099, "cyclones": 26069, "relying": 18345, "##yne": 9654, "bourne": 15803, "locke": 18343, "paths": 10425, "bulky": 27446, "roy": 6060, "unmistakable": 24219, "ridley": 20608, "equation": 8522, "[unused135]": 140, "scott": 3660, "gripped": 9672, "djs": 23837, "ticking": 28561, "verified": 20119, "spin": 6714, "instructional": 23219, "newcomers": 24159, "prism": 26113, "1937": 4347, "##meyer": 24344, "spoken": 5287, "##acio": 21361, "swinging": 11820, "kimball": 26659, "transition": 6653, "wesley": 11482, "snapped": 5941, "thick": 4317, "##\u00a5": 29648, "choking": 18329, "consulate": 19972, "pyramid": 11918, "##lick": 25230, "tonic": 28157, "estimates": 10035, "##imeters": 28136, "##tically": 25084, "dinamo": 22306, "plurality": 29018, "mojo": 28017, "[unused30]": 31, "friendly": 5379, "himalayan": 28333, "absent": 9962, "##kou": 24861, "mummy": 22788, "voyage": 8774, "252": 22898, "derivatives": 16942, "##thorpe": 22398, "bundesliga": 14250, "grains": 17588, "circular": 8206, "hen": 21863, "variants": 10176, "shirley": 11280, "nm": 13221, "shropshire": 19322, "##yria": 20379, "\u0f58": 1432, "##codes": 23237, "biomedical": 20906, "##sham": 21010, "[unused121]": 126, "comprised": 11539, "\u99ac": 1980, "##loaded": 17468, "hamburger": 24575, "startling": 19828, "\u2079": 1543, "plantations": 14979, "##aneous": 17191, "wives": 10403, "us": 2149, "punt": 18975, "##ular": 7934, "hardness": 23608, "sipped": 17735, "lear": 26511, "##chee": 25923, "translate": 17637, "spatial": 13589, "booking": 21725, "personal": 3167, "jerusalem": 6744, "videos": 6876, "louisiana": 5773, "jumping": 8660, "smart": 6047, "sniff": 27907, "gasp": 12008, "markets": 6089, "ridiculous": 9951, "harris": 5671, "1898": 6068, "[unused764]": 769, "##nn": 10695, "assumptions": 17568, "empress": 10248, "harsh": 8401, "villages": 4731, "incurred": 22667, "baja": 19497, "alessandro": 17956, "javier": 13824, "spilled": 13439, "pits": 14496, "##etched": 29574, "bucket": 13610, "[unused67]": 68, "inquiries": 27050, "handler": 28213, "overturned": 17068, "amore": 26297, "refrigerator": 18097, "##iology": 20569, "##uance": 26620, "uruguay": 11724, "converge": 28314, "##gui": 25698, "yielded": 17544, "##bius": 17028, "buzzed": 21377, "punching": 19477, "accountant": 17907, "palestine": 8976, "pegasus": 26606, "torches": 24711, "jana": 23341, "waist": 5808, "expressway": 11720, "1620": 24259, "participants": 6818, "neighbourhood": 10971, "tools": 5906, "vedic": 25824, "##ern": 11795, "ellie": 10707, "##hane": 28006, "hades": 23003, "abel": 16768, "medium": 5396, "aquatic": 13582, "process": 2832, "##wind": 11101, "##\u00ba": 29662, "erotic": 14253, "william": 2520, "committees": 9528, "primarily": 3952, "border": 3675, "previously": 3130, "##\u03bf\u03c5": 26789, "catfish": 23723, "for": 2005, "##avio": 28471, "tiled": 26510, "hari": 21291, "parkway": 12602, "pretending": 12097, "expanse": 22944, "canons": 21975, "habits": 14243, "playstation": 9160, "younger": 3920, "egg": 8288, "cornice": 27848, "strategic": 6143, "##lle": 6216, "highlight": 12944, "340": 16029, "number": 2193, "pouch": 21445, "stormy": 24166, "mandela": 26887, "futuristic": 28971, "carrie": 13223, "##\u548c": 30322, "\u3001": 1635, "##\u092c": 29865, "lightly": 8217, "indicted": 21801, "##trum": 24456, "##ency": 11916, "##\u0274": 29690, "##tal": 9080, "pizza": 10733, "illustrious": 26150, "notably": 5546, "schemes": 11683, "draught": 25349, "elevators": 19406, "removal": 8208, "topography": 21535, "material": 3430, "plastered": 21832, "\u0993": 1352, "ho": 7570, "158": 17696, "dissent": 24116, "totally": 6135, "certainly": 5121, "\u208a": 1557, "##elman": 23830, "##hedral": 27310, "fein": 27132, "[unused828]": 833, "feudal": 16708, "australians": 15739, "barge": 19398, "##rogate": 21799, "recreation": 8640, "[unused98]": 99, "leagues": 8121, "##owski": 15249, "crowns": 24364, "clown": 15912, "creates": 9005, "regal": 21279, "napoli": 29485, "academic": 3834, "survives": 13655, "scoffed": 26326, "successors": 18530, "empowered": 26480, "78": 6275, "[unused244]": 249, "routing": 16972, "##orno": 26295, "##isa": 14268, "favorite": 5440, "en": 4372, "tracey": 25984, "nj": 19193, "atlas": 11568, "1940s": 7675, "fragmentation": 28424, "communication": 4807, "dazzling": 28190, "##28": 22407, "stockings": 26412, "elevated": 8319, "olympus": 26742, "witness": 7409, "trainee": 26758, "thinkers": 24762, "abdomen": 13878, "graduates": 10845, "mass": 3742, "archaeologist": 18821, "##ological": 10091, "spawned": 18379, "##ilo": 22360, "receptions": 16466, "very": 2200, "appreciation": 12284, "##sdale": 15145, "airship": 27636, "[unused811]": 816, "clay": 5726, "\u306a": 1667, "riots": 12925, "slices": 25609, "armour": 12371, "coaching": 7748, "observation": 8089, "rents": 28206, "[unused930]": 935, "339": 28977, "##cic": 19053, "spanish": 3009, "sphinx": 27311, "unfolded": 23959, "excursion": 26144, "coldly": 24745, "wharton": 24249, "##\u092e": 29867, "circa": 12800, "trimmed": 21920, "revenue": 6599, "[unused896]": 901, "penitentiary": 29569, "grins": 20237, "##tham": 22536, "hopeful": 17772, "zoology": 22405, "forced": 3140, "##jas": 17386, "restricting": 26996, "##\u09c7": 29917, "[unused421]": 426, "roman": 3142, "haydn": 25595, "##yt": 22123, "\u043d": 1192, "malvern": 28082, "##\u1d2e": 30027, "\u590f": 1808, "arithmetic": 20204, "shutting": 17521, "[unused642]": 647, "##%": 29616, "rebranded": 18233, "lash": 25210, "drink": 4392, "segregation": 18771, "##\u3001": 30161, "herbs": 17561, "radicals": 23618, "##onate": 21149, "rotated": 20931, "##ngen": 25997, "missile": 7421, "wilhelm": 9070, "rover": 13631, "trophies": 22236, "##ogan": 21131, "\u304b": 1651, "fail": 8246, "lanes": 10914, "rector": 10935, "seasoned": 28223, "##base": 15058, "intercollegiate": 21587, "##rmi": 28550, "taller": 12283, "##bridge": 6374, "##\u0e07": 29946, "greater": 3618, "roxy": 23682, "sandra": 12834, "vidhan": 28590, "greenland": 16128, "vermont": 8839, "invested": 11241, "##hdi": 22960, "giovanni": 9136, "ligand": 27854, "subtropical": 11935, "[unused465]": 470, "##form": 14192, "blinded": 20641, "ponytail": 18865, "hostages": 19323, "threaten": 15686, "motivation": 14354, "soc": 27084, "halves": 23672, "isaac": 7527, "39th": 22702, "##eis": 17580, "choice": 3601, "\u0628": 1271, "obligations": 14422, "##hen": 10222, "chiba": 27368, "##nett": 15361, "[unused139]": 144, "hillside": 18573, "##ners": 16912, "\u8033": 1937, "##\u30e3": 30254, "knife": 5442, "revolutionaries": 24517, "diaries": 18707, "governed": 9950, "bias": 13827, "uninhabited": 24749, "confluence": 13693, "furniture": 7390, "plead": 25803, "latch": 25635, "napoleon": 8891, "mu": 14163, "cavity": 17790, "mercenary": 22146, "\u10d5": 1443, "##aks": 29243, "hulk": 16009, "[unused870]": 875, "huey": 29503, "evie": 26400, "requests": 11186, "tide": 10401, "wright": 6119, "waits": 18074, "presumably": 10712, "walters": 19097, "maynard": 22130, "cheap": 10036, "womb": 26578, "\u028e": 1135, "grandfather": 5615, "redeveloped": 28053, "fernandez": 12023, "litre": 16812, "##oe": 8913, "molecular": 8382, "sensors": 13907, "cis": 20199, "knowing": 4209, "syria": 7795, "sporting": 7419, "disagreed": 18335, "erupted": 12591, "decrees": 28966, "fertile": 14946, "##\u30a6": 30222, "##print": 16550, "##hman": 13890, "child": 2775, "bulge": 23708, "ir": 20868, "cameron": 7232, "newscasts": 24482, "robbers": 28019, "mythological": 21637, "overture": 25052, "cove": 11821, "##gative": 26792, "senator": 5205, "\u5f8c": 1846, "##kari": 20224, "##ela": 10581, "magnesium": 24983, "welterweight": 20882, "##\u1d48": 30034, "\u0254": 1112, "rates": 6165, "outnumbered": 21943, "americans": 4841, "tokyo": 5522, "fulbright": 26695, "[unused556]": 561, "beat": 3786, "[unused295]": 300, "conserved": 19995, "labyrinth": 24239, "ars": 29393, "dry": 4318, "##qui": 15549, "urgent": 13661, "endorsement": 20380, "flowing": 8577, "wings": 4777, "outdoor": 7254, "promotes": 14067, "occasionally": 5681, "faded": 8105, "vertices": 18984, "importantly": 14780, "bound": 5391, "fe": 10768, "definition": 6210, "component": 6922, "countdown": 18144, "patterson": 12424, "cheney": 23745, "deity": 12764, "##ling": 2989, "column": 5930, "\u0647": 1297, "##lind": 27164, "1853": 8933, "scouting": 14299, "slick": 13554, "violent": 6355, "oddly": 15056, "castles": 15618, "wasting": 18313, "aaron": 7158, "spies": 16794, "failed": 3478, "sport": 4368, "dilapidated": 29283, "##xt": 18413, "chronicle": 9519, "neil": 6606, "dock": 8946, "385": 24429, "##nous": 18674, "balfour": 27560, "colchester": 20115, "eclectic": 20551, "tourist": 7538, "1879": 7449, "achilles": 23167, "crystal": 6121, "encompass": 25281, "resting": 8345, "single": 2309, "shaped": 5044, "chichester": 23406, "##\u2095": 30093, "promote": 5326, "##anza": 16076, "[unused311]": 316, "bubble": 11957, "herzegovina": 11453, "politician": 3761, "competitions": 6479, "\u0570": 1228, "carr": 12385, "matter": 3043, "schwartz": 16756, "sd": 17371, "blocks": 5991, "ny": 6396, "simulator": 25837, "1892": 6527, "characterized": 7356, "collin": 22180, "organs": 11595, "such": 2107, "dani": 19522, "ways": 3971, "akin": 17793, "mhz": 11413, "consciousness": 8298, "cartoon": 9476, "cale": 21854, "charleston": 10907, "jill": 10454, "##nessy": 25441, "tens": 15295, "transmitter": 11659, "weightlifting": 29305, "summoned": 11908, "humanoid": 28051, "variously": 17611, "[unused692]": 697, "adolescence": 29101, "prince": 3159, "unusually": 12890, "commonplace": 27550, "spectacle": 21177, "illumination": 21203, "theo": 14833, "metres": 3620, "summons": 24814, "intact": 10109, "##gating": 16961, "parliament": 3323, "expansive": 25145, "[unused420]": 425, "inspectors": 28421, "padua": 24941, "opera": 3850, "mrna": 28848, "genuinely": 15958, "okinawa": 15052, "boiled": 17020, "usb": 18833, "stimuli": 22239, "[unused722]": 727, "concluded": 5531, "implementations": 24977, "##@": 29633, "\u5b80": 1818, "##drome": 29171, "cw": 19296, "afghanistan": 7041, "##lated": 13776, "##\u5bae": 30350, "##inkles": 28562, "##\u05e6": 29809, "barrie": 24953, "##pc": 15042, "##fy": 12031, "##\u00bd": 13714, "domestic": 4968, "spielberg": 28740, "posts": 8466, "pleased": 7537, "brendan": 15039, "credits": 6495, "enrique": 15769, "##ulin": 18639, "blogger": 28205, "sergei": 14543, "marks": 6017, "annoyance": 17466, "##6": 2575, "rim": 11418, "mind": 2568, "leases": 29597, "##\u03bf\u03c2": 15297, "write": 4339, "cite": 21893, "physical": 3558, "comfortably": 18579, "holes": 8198, "utilization": 27891, "centre": 2803, "[unused490]": 495, "remastered": 19484, "257": 24368, "livestock": 11468, "gael": 28151, "raider": 27826, "frey": 20068, "faltered": 26015, "ser": 14262, "electromagnetic": 17225, "brooke": 11535, "h": 1044, "rainfall": 10101, "agreeing": 16191, "bloomberg": 22950, "reflective": 21346, "##ero": 10624, "impatient": 17380, "nationality": 10662, "silas": 18553, "groundwater": 22761, "soccer": 4715, "sweatshirt": 28095, "spade": 23288, "overland": 21400, "walled": 17692, "brew": 24702, "bitten": 19026, "feeling": 3110, "then": 2059, "sweetie": 22872, "showed": 3662, "flushing": 23519, "##roup": 22107, "[unused63]": 64, "oblast": 10379, "spice": 17688, "[unused726]": 731, "thread": 11689, "rumored": 22710, "archipelago": 13888, "med": 19960, "##awa": 10830, "mutant": 15527, "topological": 24309, "monte": 10125, "piled": 17835, "sparkling": 16619, "kgb": 25467, "adopt": 11092, "arterial": 25543, "boycott": 17757, "imagined": 8078, "na": 6583, "marion": 10115, "nbl": 28013, "luminous": 25567, "tenant": 16713, "[unused778]": 783, "galactic": 21375, "cape": 4880, "visitation": 28877, "laborers": 23428, "circulating": 22458, "burundi": 28836, "sahib": 23513, "##iss": 14643, "chronological": 23472, "unlocked": 14058, "##ceptive": 28687, "rallies": 22867, "colourful": 26102, "##ivist": 21997, "##lum": 12942, "mer": 21442, "apical": 29197, "ankles": 15392, "spell": 6297, "dorothea": 24052, "chocolate": 7967, "molecule": 13922, "transgender": 16824, "uncomfortable": 8796, "please": 3531, "##ouring": 27897, "##minated": 26972, "sea": 2712, "derrick": 18928, "euros": 19329, "billed": 14843, "google": 8224, "believers": 20373, "generates": 19421, "sp": 11867, "##inating": 19185, "weekdays": 19759, "manufactures": 22027, "[unused670]": 675, "##uary": 24384, "##erence": 20935, "bombardier": 29143, "subtly": 28797, "mole": 16709, "medley": 13863, "marlins": 27055, "administered": 8564, "hacked": 28719, "sanford": 21153, "stucco": 27443, "##dus": 17619, "##zu": 9759, "wellington": 8409, "hornet": 26795, "stranger": 7985, "slowing": 18068, "wire": 7318, "relieve": 15804, "lois": 15815, "ineffective": 20694, "minerva": 27383, "docking": 25776, "##iers": 10136, "##\u208e": 30088, "merit": 7857, "addison": 18403, "consolidation": 17439, "##eu": 13765, "marxist": 15511, "currently": 2747, "present": 2556, "curses": 23897, "##\u1162": 30007, "##bots": 27014, "chinese": 2822, "petersen": 22615, "facilitates": 27777, "jared": 8334, "cartel": 21680, "deepest": 17578, "bacterium": 24024, "history": 2381, "knives": 13227, "[unused810]": 815, "##hya": 17915, "emergence": 14053, "cpi": 28780, "billionaire": 22301, "swaying": 21826, "##worthy": 13966, "university": 2118, "decoration": 11446, "[unused162]": 167, "roland": 8262, "ari": 10488, "\u27e8": 1629, "##\u4f1a": 30289, "##ber": 5677, "guise": 21980, "signals": 7755, "launches": 18989, "deadline": 15117, "preserved": 6560, "measures": 5761, "##world": 11108, "##suke": 16867, "het": 21770, "##ool": 13669, "listings": 26213, "suns": 19352, "1847": 9176, "juicy": 28900, "childhood": 5593, "[unused123]": 128, "137": 14989, "##\u2229": 30131, "1786": 17436, "suites": 19796, "refugees": 8711, "\u300f": 1644, "##oed": 29099, "academies": 20994, "[unused291]": 296, "democratic": 3537, "ac": 9353, "##tag": 15900, "coughing": 21454, "airspace": 29357, "military": 2510, "[unused931]": 936, "triggers": 27099, "coached": 8868, "fda": 17473, "##ibe": 20755, "wastewater": 28269, "beneficial": 15189, "\u20a9": 1573, "gallery": 3916, "drilled": 24311, "plane": 4946, "defenses": 13345, "habsburg": 17486, "beverly": 12218, "townsend": 16139, "pg": 18720, "levin": 20206, "campus": 3721, "questioning": 11242, "ecosystem": 16927, "##\u1d57": 30041, "gardener": 19785, "monsoon": 19183, "d": 1040, "relationships": 6550, "1899": 6166, "omaha": 12864, "comedies": 22092, "girl": 2611, "bride": 8959, "fay": 23201, "haunted": 11171, "cyrus": 16123, "massey": 21402, "earrings": 27212, "constructive": 26157, "[unused26]": 27, "nonsense": 14652, "highest": 3284, "tortured": 12364, "northeastern": 8763, "##roller": 26611, "lilly": 14765, "gunslinger": 29274, "stiffly": 27499, "artificial": 7976, "decades": 5109, "##\u653f": 30386, "hunted": 14682, "kilograms": 18857, "\u0644": 1294, "tear": 7697, "ito": 23333, "custody": 9968, "standardized": 16367, "##unda": 18426, "panted": 28149, "1773": 19916, "mansfield": 15352, "standards": 4781, "accustomed": 17730, "##nery": 27415, "howell": 18473, "perception": 10617, "retribution": 25928, "##culture": 14561, "[unused540]": 545, "originating": 14802, "meals": 12278, "intro": 17174, "tourists": 9045, "slug": 23667, "honorable": 13556, "endorsed": 11763, "distinctive": 8200, "\u4eee": 1761, "leash": 26834, "minnesota": 5135, "lilith": 25576, "archdiocese": 12658, "talent": 5848, "footprint": 24319, "reason": 3114, "##ffen": 18032, "hooks": 18008, "david": 2585, "##mill": 19912, "12th": 5940, "interviewed": 10263, "harrisburg": 24569, "hyper": 23760, "harshly": 21052, "supermarkets": 26676, "##u": 2226, "schumacher": 22253, "duval": 23929, "traditional": 3151, "praising": 15838, "##icus": 14239, "##mont": 9629, "##mus": 7606, "complementary": 21053, "barons": 21487, "[unused185]": 190, "##rise": 29346, "celebrate": 8439, "##eza": 28640, "dipped": 13537, "domination": 17882, "tilt": 17010, "professionally": 12145, "[unused548]": 553, "##feit": 21156, "horne": 24084, "##kled": 19859, "covered": 3139, "bud": 13007, "tirana": 24631, "commuted": 26704, "tend": 7166, "each": 2169, "bolshevik": 24477, "alarm": 8598, "ruined": 9868, "brody": 19631, "rage": 7385, "[unused591]": 596, "yearly": 12142, "periodicals": 21855, "dharma": 20669, "jakob": 19108, "portugal": 5978, "##iger": 17071, "zebra": 29145, "[unused573]": 578, "##uration": 18924, "[unused0]": 1, "thief": 12383, "badminton": 14618, "##\u028c": 29700, "samantha": 11415, "soared": 29127, "##opsis": 22599, "athens": 7571, "startup": 22752, "undertaken": 10607, "lorenzo": 12484, "lea": 12203, "fiance": 19154, "uss": 7234, "reclaim": 24104, "edmund": 9493, "divisions": 5908, "hammond": 11309, "christoph": 21428, "29th": 16318, "stated": 3090, "ghent": 24202, "1980": 3150, "municipal": 4546, "rodgers": 15652, "##finger": 20349, "##valent": 24879, "fiona": 13073, "result": 2765, "210": 12875, "oceania": 20526, "cruisers": 16722, "visibly": 19397, "hara": 18820, "traces": 10279, "advancing": 10787, "##\u026c": 29687, "santo": 11685, "frowning": 14587, "[unused343]": 348, "\u00a33": 28182, "wheat": 10500, "boating": 23639, "promo": 19430, "##\u6cd5": 30427, "##cards": 17965, "silky": 18848, "##weed": 18041, "thoroughbred": 18359, "ballard": 21896, "willed": 22705, "xu": 15990, "admiral": 5902, "[unused435]": 440, "prefers": 19233, "comprising": 9605, "dockyard": 24874, "telecom": 18126, "1844": 9730, "304": 23859, "forts": 15421, "extensive": 4866, "lulu": 21744, "convection": 23849, "effectiveness": 12353, "harden": 28751, "conquered": 11438, "incumbent": 7703, "battista": 28422, "wireless": 9949, "felicity": 27357, "controllers": 21257, "preschool": 23655, "##\u0e1e": 29950, "##pped": 11469, "incorrect": 16542, "mask": 7308, "stalls": 19753, "##sar": 10286, "timothy": 10805, "1743": 25615, "shi": 11895, "hangs": 17991, "volatile": 20606, "devon": 7614, "sleek": 21185, "\u0f56": 1431, "miniseries": 13612, "taxis": 25964, "ought": 11276, "revealed": 3936, "illustrates": 24899, "1600": 14883, "blah": 27984, "groningen": 29070, "farther": 8736, "wiley": 18825, "tito": 20712, "\u4e94": 1753, "beam": 7504, "artwork": 8266, "##ishing": 21837, "salisbury": 13817, "kate": 5736, "hurrying": 27951, "premises": 10345, "unnatural": 21242, "barlow": 17803, "furiously": 20322, "comprehend": 22346, "ezekiel": 28743, "procedural": 24508, "##\u207f": 30080, "hygiene": 19548, "unidentified": 20293, "stereo": 12991, "bari": 22466, "##\u11b7": 30023, "promise": 4872, "singh": 5960, "pockets": 10306, "##ol": 4747, "oceans": 17401, "youngest": 6587, "80s": 16002, "antioch": 19078, "##jm": 24703, "ravens": 17272, "photographed": 16164, "##\u540d": 30321, "sorry": 3374, "##\u0644": 23673, "jozef": 23258, "##hopper": 27330, "##ine": 3170, "##tec": 26557, "coaster": 16817, "equality": 9945, "\u79cb": 1929, "cruelty": 18186, "burr": 22715, "converse": 23705, "alberta": 7649, "[unused720]": 725, "skipper": 23249, "##ctor": 16761, "determining": 12515, "sudanese": 25603, "cables": 15196, "kurdistan": 23627, "##aith": 22465, "hornets": 24855, "##shan": 9688, "raining": 24057, "##kit": 23615, "smelling": 19773, "amiga": 24126, "physicians": 11572, "##ening": 7406, "accomplished": 8885, "awful": 9643, "convergence": 19143, "paula": 13723, "feed": 5438, "check": 4638, "following": 2206, "list": 2862, "hum": 14910, "migrate": 22806, "spotlight": 17763, "experiment": 7551, "##eb": 15878, "religions": 11822, "russell": 5735, "moaned": 12557, "nottingham": 11331, "##gga": 23033, "john": 2198, "##hi": 4048, "helen": 6330, "eisenhower": 16551, "presbyterian": 10133, "thirst": 21810, "kids": 4268, "bishops": 8414, "confidential": 18777, "##\u028e": 29701, "peas": 26072, "##\u05d9": 29796, "after": 2044, "hazards": 22010, "##rgen": 25892, "##hism": 23108, "##lary": 28221, "baseline": 26163, "lands": 4915, "mistress": 10414, "cad": 28353, "rousseau": 26868, "leaf": 7053, "##hra": 13492, "nanjing": 21455, "remy": 22712, "psychological": 8317, "nawab": 26543, "sell": 5271, "outrageous": 25506, "shelley": 15828, "\u0982": 1346, "runway": 9271, "anticipation": 11162, "covert": 19813, "##roved": 26251, "delhi": 6768, "niece": 12286, "thanks": 4283, "documented": 8832, "arriving": 7194, "311": 23532, "revolves": 19223, "##tv": 9189, "[unused231]": 236, "klein": 12555, "pass": 3413, "331": 27533, "reef": 12664, "\u09b7": 1375, "temporarily": 8184, "sneered": 28098, "short": 2460, "brad": 8226, "treasures": 17605, "##wo": 12155, "whitman": 21311, "##\u043a": 23925, "groom": 18087, "\u5341": 1783, "rate": 3446, "benefits": 6666, "jailed": 21278, "##ophone": 25232, "##uring": 12228, "ida": 16096, "booked": 17414, "franks": 21310, "bel": 19337, "##ional": 19301, "##osition": 19234, "european": 2647, "1679": 27924, "gilbert": 7664, "ivo": 28346, "[unused715]": 720, "hilary": 22744, "warships": 15964, "herself": 2841, "japanese": 2887, "outing": 26256, "##mic": 7712, "look": 2298, "cunningham": 13652, "\u11b8": 1488, "italics": 19408, "##oit": 28100, "baked": 17776, "bowman": 19298, "depending": 5834, "##otti": 21325, "graveyard": 16685, "##mma": 14760, "bradford": 9999, "freeze": 13184, "platoon": 13799, "##\u0f42": 29962, "\u30ea": 1732, "qaeda": 18659, "mcgregor": 23023, "1699": 28718, "cooking": 8434, "leader": 3003, "rio": 5673, "1909": 5556, "feedback": 12247, "##bler": 16213, "accommodation": 11366, "mcdonald": 9383, "##tees": 28313, "##ud": 6784, "distributed": 5500, "monograph": 24039, "sit": 4133, "husbands": 19089, "\u09ac": 1368, "deficit": 15074, "molded": 27992, "devoted": 7422, "cmll": 25395, "hutton": 20408, "\u30e2": 1727, "archive": 8756, "##bala": 25060, "equal": 5020, "unison": 18732, "##ifies": 14144, "orion": 18747, "hannover": 29209, "cheyenne": 17778, "renal": 25125, "transaction": 12598, "##\u4e8c": 30278, "\u793e": 1924, "##fles": 28331, "415": 24690, "qualifier": 10981, "\u2092": 1562, "##ations": 10708, "assemblies": 17720, "stacy": 18566, "struggles": 11785, "camera": 4950, "highness": 17114, "offenders": 19591, "mixes": 21109, "religious": 3412, "incline": 27461, "##ography": 9888, "interaction": 8290, "seats": 4272, "centralized": 22493, "##\u05df": 29802, "azores": 28320, "anarchist": 18448, "together": 2362, "acoustic": 6490, "throat": 3759, "niger": 16842, "placement": 11073, "neural": 15756, "##bar": 8237, "##uttered": 23128, "operative": 12160, "respect": 4847, "##thesis": 25078, "[unused227]": 232, "##ades": 18673, "\u2153": 1581, "bodyguard": 16174, "laboratories": 12030, "stinging": 22748, "##mora": 22122, "rule": 3627, "corpses": 18113, "matthews": 12351, "lady": 3203, "##ble": 3468, "122": 13092, "incarcerated": 23995, "corrected": 13371, "##pha": 21890, "##haus": 13821, "1695": 29140, "enforcing": 27455, "horrors": 22812, "miriam": 16925, "shades": 13178, "##kor": 21815, "cosmic": 14448, "illicit": 25049, "##used": 13901, "means": 2965, "princess": 4615, "##table": 10880, "\u1d58": 1506, "exams": 13869, "[unused44]": 45, "shores": 13312, "##missive": 27876, "\u099b": 1357, "?": 1029, "##berman": 23991, "##tops": 25181, "sue": 9790, "[unused302]": 307, "##\u540c": 30320, "##rang": 24388, "##rand": 13033, "##lena": 20844, "ask": 3198, "classics": 10002, "combinations": 14930, "##isto": 20483, "landowner": 20270, "##\u1d56": 30040, "##\u2096": 30094, "demon": 5698, "eldest": 7310, "munchen": 25802, "beauty": 5053, "locally": 7246, "381": 29335, "##\u044f": 17432, "hardware": 8051, "myriad": 25028, "263": 25246, "cheerful": 18350, "billboard": 4908, "human": 2529, "##around": 24490, "spur": 12996, "rugged": 17638, "postseason": 17525, "plagued": 17808, "vendor": 21431, "underneath": 7650, "##boot": 27927, "oboe": 22523, "woody": 13703, "##ega": 29107, "dietary": 23444, "tubes": 10868, "jacket": 6598, "seminole": 28909, "woken": 22795, "##\u3080": 30205, "##yer": 10532, "[unused226]": 231, "[unused824]": 829, "##fulness": 20938, "daughters": 5727, "terminals": 17703, "premier": 4239, "##lam": 10278, "usher": 20774, "built": 2328, "upscale": 28276, "resulting": 4525, "##ined": 21280, "##sche": 22842, "touched": 5028, "sources": 4216, "pun": 26136, "##\u091a": 29854, "##\u30ca": 30241, "grady": 19011, "argyll": 27365, "vectors": 19019, "leary": 22986, "institutional": 12148, "topping": 22286, "starred": 5652, "my": 2026, "retrieve": 12850, "beats": 10299, "##xon": 22500, "##erin": 23282, "positive": 3893, "opposing": 10078, "ipswich": 15435, "souza": 26598, "median": 3991, "regulatory": 10738, "testimony": 10896, "descent": 6934, "legislative": 4884, "watched": 3427, "\u05e4": 1261, "laurel": 11893, "[unused552]": 557, "instinct": 12753, "checking": 9361, "##ople": 27469, "clockwise": 22839, "\u82f1": 1941, "eels": 29317, "nelly": 29498, "neill": 11511, "indiana": 5242, "subsided": 26588, "doorbell": 25422, "always": 2467, "trams": 19216, "callum": 15229, "poole": 19107, "straight": 3442, "501": 16202, "cv": 26226, "blackout": 26717, "dmitri": 28316, "boring": 11771, "stunts": 28465, "##lani": 21141, "assam": 15181, "current": 2783, "whorls": 25637, "##truct": 18300, "##ively": 14547, "baptist": 7550, "miscellaneous": 25408, "##ceae": 9071, "mccall": 25790, "screenwriter": 11167, "##city": 12972, "borough": 5538, "##\u026b": 29686, "\u02b8": 1144, "##fin": 16294, "##osta": 28696, "willingness": 19732, "benz": 17770, "mac": 6097, "bald": 13852, "iv": 4921, "reared": 23295, "nuns": 16752, "frankish": 26165, "johnson": 3779, "would": 2052, "appealing": 16004, "##apa": 22068, "seafood": 23621, "singers": 8453, "##cca": 16665, "##nated": 23854, "lumpur": 17761, "drop": 4530, "\u30af": 1702, "meritorious": 22053, "populous": 20151, "downing": 22501, "[unused15]": 16, "profitable": 15282, "hall": 2534, "weimar": 20695, "greenish": 23753, "##oon": 7828, "##arion": 27548, "interpretation": 7613, "1947": 4006, "report": 3189, "emma": 5616, "1800": 9807, "##\u5b50": 30342, "floyd": 12305, "swept": 7260, "##arding": 29154, "principal": 4054, "bugs": 12883, "##\u6c37": 30421, "patriarch": 12626, "giles": 13287, "297": 27502, "uk": 2866, "theological": 9208, "maru": 26280, "enroll": 25612, "nationalist": 8986, "inline": 23881, "\u09a4": 1362, "cao": 12966, "understood": 5319, "manila": 9011, "unprecedented": 15741, "paints": 23262, "shock": 5213, "cbn": 21824, "cringed": 23952, "infection": 8985, "sui": 24086, "preserve": 7969, "goalkeeper": 9653, "##rin": 6657, "modify": 19933, "retention": 20125, "thirteenth": 14725, "commander": 3474, "editing": 9260, "insurgency": 23939, "##\u00ac": 29655, "enlisted": 9417, "arkansas": 6751, "##kind": 18824, "hm": 20287, "cavalier": 28778, "##gement": 20511, "hoax": 28520, "galileo": 21514, "certificate": 8196, "bachelor": 5065, "##olic": 23518, "[unused911]": 916, "ky": 18712, "least": 2560, "tho": 27793, "male": 3287, "##rate": 11657, "brink": 20911, "bmw": 13154, "prizes": 11580, "[unused212]": 217, "bandwidth": 20235, "elizabeth": 3870, "caine": 19881, "rotary": 16933, "sherwood": 19427, "ceramics": 17314, "fury": 8111, "##horse": 23024, "montevideo": 22460, "widened": 8723, "loads": 15665, "murder": 4028, "between": 2090, "denise": 15339, "##vert": 16874, "brushing": 12766, "arches": 13540, "screenings": 25437, "solidarity": 14657, "##yst": 27268, "linux": 11603, "\u5e74": 1840, "gossip": 13761, "##ivision": 24607, "##in": 2378, "essen": 29032, "ninety": 13568, "[unused785]": 790, "frequent": 6976, "survivors": 8643, "##cturing": 19159, "##zzled": 17269, "##cted": 10985, "luke": 5355, "##ingham": 16445, "1709": 28955, "creepy": 17109, "goldsmith": 22389, "electors": 19165, "##creen": 24410, "##\u4e8b": 30277, "##zek": 24506, "##urs": 9236, "caused": 3303, "##\u30fc": 30265, "ponder": 29211, "airbus": 20901, "depth": 5995, "ensure": 5676, "swiss": 5364, "believes": 7164, "maxim": 20446, "iphone": 18059, "constraints": 14679, "extensions": 14305, "dashboard": 24923, "mobility": 12969, "devices": 5733, "stilled": 22791, "surviving": 6405, "\u6797": 1881, "eastenders": 28936, "mill": 4971, "2007": 2289, "##ind": 22254, "##ack": 8684, "##utz": 20267, "salad": 16521, "cullen": 19925, "\u3075": 1674, "[unused863]": 868, "spherical": 18970, "judas": 25326, "says": 2758, "inactive": 16389, "connectivity": 20831, "kata": 29354, "plumage": 28764, "intending": 16533, "wehrmacht": 23443, "considering": 6195, "lunatic": 26594, "hands": 2398, "logistical": 28961, "##zine": 21254, "##oa": 10441, "##rah": 10404, "mcgraw": 24179, "##\u201e": 30060, "susanna": 26681, "olympic": 4386, "pissed": 9421, "[unused374]": 379, "belgium": 5706, "ashe": 13402, "[unused958]": 963, "sob": 17540, "antigen": 28873, "positioned": 10959, "unfamiliar": 16261, "already": 2525, "buy": 4965, "##oder": 27381, "mandarin": 15831, "##claim": 25154, "farewell": 13407, "when": 2043, "outlets": 11730, "##nr": 16118, "squads": 20191, "directly": 3495, "kato": 27496, "ghana": 9701, "##kia": 21128, "canada": 2710, "injustice": 21321, "daytime": 12217, "calculations": 16268, "acheron": 21427, "\u0640": 1290, "##fe": 7959, "flatly": 24295, "grossing": 18244, "##rator": 16259, "utilizing": 16911, "fatigue": 16342, "\u0563": 1221, "owner": 3954, "##dham": 17661, "##\u571f": 30327, "##00": 8889, "uttar": 14940, "trying": 2667, "appalled": 29279, "##dilly": 28832, "antiques": 27763, "ama": 25933, "publicly": 7271, "\u0b9a": 1383, "traverse": 20811, "135": 11502, "woodrow": 23954, "ninja": 14104, "taste": 5510, "sprawled": 21212, "##ending": 18537, "##\u5c0f": 30355, "191": 19871, "warrior": 6750, "354": 27878, "linguist": 22978, "organization": 3029, "metric": 12046, "enjoys": 15646, "##oz": 18153, "banks": 5085, "cents": 16653, "salts": 23480, "##\u09a3": 29897, "##child": 19339, "thrive": 25220, "phillips": 8109, "surpassed": 15602, "##tative": 27453, "clearing": 8430, "##tta": 5946, "##nta": 12380, "alcohol": 6544, "\u0438": 1188, "valleys": 12467, "evelyn": 12903, "330": 14210, "quezon": 26564, "##jee": 16963, "illustrating": 28252, "battling": 17773, "add": 5587, "favored": 12287, "persia": 16667, "93": 6109, "poem": 5961, "ireland": 3163, "discovery": 5456, "##cut": 12690, "neptune": 21167, "##ified": 7810, "##ith": 8939, "salvador": 10582, "##fish": 7529, "##ears": 26492, "authenticity": 21452, "width": 9381, "security": 3036, "therese": 25598, "manor": 6952, "impose": 17607, "##\u026f": 29688, "kyoto": 15008, "isolation": 12477, "hugging": 17662, "suits": 11072, "abyss": 22159, "##ick": 6799, "mon": 12256, "sh": 14021, "##ist": 2923, "lp": 6948, "beginnings": 16508, "ongoing": 7552, "coast": 3023, "##idium": 28742, "turkic": 22926, "favor": 5684, "fought": 4061, "spaceship": 25516, "merry": 12831, "##ential": 24271, "accountable": 26771, "leto": 24543, "revoked": 22837, "##air": 11215, "painfully": 16267, "droplets": 27126, "sharma": 14654, "##wehr": 27156, "brass": 8782, "imperfect": 29238, "botanist": 17098, "\u98df": 1978, "vortex": 23463, "miners": 11257, "berlin": 4068, "speeches": 13867, "##sty": 21756, "supplier": 17024, "##ats": 11149, "textbook": 16432, "[unused716]": 721, "ar": 12098, "bismarck": 22029, "cultures": 8578, "limo": 23338, "##\u0bc8": 29935, "baggage": 20220, "##ctors": 24817, "##\u5fc4": 30376, "decreed": 28447, "cooperative": 10791, "musik": 28076, "rural": 3541, "hiram": 27410, "dwell": 23120, "cantor": 26519, "##zbek": 28733, "seo": 27457, "figure": 3275, "##itzer": 19253, "performance": 2836, "pee": 21392, "##rita": 17728, "pointe": 26119, "strategically": 23972, "torn": 7950, "##keeping": 18321, "mischief": 25166, "winged": 14462, "players": 2867, "redesignated": 11836, "\u306b": 1668, "annexed": 13291, "findings": 9556, "##rigue": 27611, "##rda": 13639, "pakistani": 9889, "##\u045b": 29764, "irina": 25404, "tel": 10093, "instituto": 22596, "judges": 6794, "newt": 25597, "##ignment": 24838, "glacial": 17381, "nasa": 9274, "##ice": 6610, "operational": 6515, "hopper": 20517, "##hal": 8865, "person": 2711, "ruled": 5451, "leukemia": 25468, "##rber": 20473, "militia": 8396, "liechtenstein": 26500, "participation": 6577, "uniquely": 20640, "temper": 12178, "##neuve": 28104, "##cas": 15671, "kidnap": 22590, "prestigious": 8919, "tay": 28117, "deeply": 6171, "speaker": 5882, "##ao": 7113, "cheerleading": 25721, "soaked": 13077, "sunni": 18883, "inorganic": 28256, "admissions": 20247, "range": 2846, "##rled": 27501, "##hue": 20169, "##\u661f": 30392, "michel": 8709, "kickoff": 25233, "cutler": 24975, "\u05d0": 1241, "chiefs": 9058, "protect": 4047, "softball": 12585, "secretly": 10082, "curtain": 11002, "153": 16710, "##\u91ce": 30489, "##eles": 26741, "pleading": 16418, "finite": 10713, "gazes": 23514, "##rrow": 28597, "willingly": 18110, "wreck": 12006, "bulgaria": 8063, "extent": 6698, "honesty": 16718, "[unused725]": 730, "yukon": 19898, "depart": 18280, "connacht": 27062, "clancy": 24530, "begin": 4088, "apps": 18726, "verity": 22178, "##bbled": 12820, "[unused510]": 515, "fascism": 23779, "##\u266d": 24102, "lashes": 16008, "##aya": 12186, "##lova": 24221, "417": 27519, "retain": 9279, "integrated": 6377, "newport": 9464, "tea": 5572, "##iled": 18450, "fordham": 27302, "cornerback": 26857, "concepts": 8474, "jack": 2990, "cadence": 23620, "rhapsody": 29395, "##tman": 22942, "explain": 4863, "jeanne": 14537, "##lco": 22499, "[unused233]": 238, "[unused514]": 519, "##erate": 22139, "subjective": 20714, "cardiovascular": 22935, "rocco": 28167, "faye": 19243, "columbia": 3996, "##eras": 24140, "morocco": 9835, "julie": 7628, "##sation": 26652, "phase": 4403, "mikey": 25998, "usl": 22448, "\u00ac": 1078, "247": 23380, "pistons": 24399, "sociology": 11507, "[unused818]": 823, "bogota": 21240, "bull": 7087, "edison": 17046, "related": 3141, "reaper": 19559, "eliot": 16292, "[unused52]": 53, "pens": 25636, "happens": 6433, "duets": 29410, "marseille": 16766, "python": 18750, "narrowing": 21978, "smooth": 5744, "[unused132]": 137, "awkward": 9596, "driver": 4062, "\u0578": 1232, "truman": 15237, "reaches": 6561, "reece": 24227, "correctional": 20873, "##bana": 19445, "##ference": 25523, "messages": 7696, "commencement": 20561, "[unused760]": 765, "imprint": 15738, "infinity": 15579, "helping": 5094, "correction": 18140, "hastings": 12296, "sparks": 12300, "##hesis": 24124, "trafficking": 11626, "invariant": 23915, "##\u6bd4": 30416, "[unused516]": 521, "campaigned": 16196, "stand": 3233, "##iu": 17922, "merrill": 16239, "represented": 3421, "crap": 10231, "apartment": 4545, "gaul": 26522, "todd": 6927, "##ehan": 24660, "lange": 21395, "106": 10114, "prove": 6011, "cultivation": 13142, "ripping": 17039, "puget": 27879, "johannes": 12470, "jensen": 14857, "fully": 3929, "pancakes": 28470, "clever": 12266, "dances": 11278, "1798": 13036, "boston": 3731, "cinema": 5988, "lineup": 10515, "alcoholism": 25519, "camped": 27077, "rubs": 28860, "rudy": 18254, "knitting": 26098, "toured": 7255, "reasoning": 13384, "reader": 8068, "enlarged": 11792, "seriousness": 27994, "##cer": 17119, "warlord": 16579, "##isk": 20573, "fore": 18921, "arising": 17707, "fringe": 13548, "calendar": 8094, "\u0baa": 1388, "carly": 18431, "insertion": 23851, "##elle": 14774, "fool": 7966, "9": 1023, "renowned": 8228, "west": 2225, "##tort": 25485, "graphs": 19287, "##ang": 5654, "162": 17832, "criticism": 6256, "forestry": 13116, "getting": 2893, "polish": 3907, "obscure": 14485, "representatives": 4505, "specialising": 23315, "basque": 13915, "margin": 7785, "heavyweight": 8366, "towels": 24213, "##irus": 26013, "appleton": 26050, "##ffi": 26989, "##>": 29631, "##ault": 23505, "##ena": 8189, "##ivism": 22486, "blessed": 10190, "##ost": 14122, "redesign": 25136, "lou": 10223, "coastline": 15458, "trolls": 27980, "remotely": 19512, "preached": 21491, "##oping": 17686, "irrational": 23179, "610": 19827, "vow": 19076, "repeats": 17993, "problems": 3471, "obituary": 20815, "##\u5c71": 30357, "##\u11b8": 30024, "##bbling": 15343, "form": 2433, "[unused385]": 390, "bookstore": 21785, "[unused587]": 592, "finalist": 9914, "daytona": 18226, "comical": 29257, "panda": 25462, "[unused847]": 852, "slide": 7358, "hostilities": 17601, "echoed": 10187, "donnell": 18016, "alleged": 6884, "##p": 2361, "##tead": 14565, "258": 24398, "saw": 2387, "esq": 25325, "naming": 10324, "##if": 10128, "portrayal": 13954, "##lating": 22248, "denmark": 5842, "rather": 2738, "guerre": 24613, "1850": 7973, "vox": 29450, "tub": 14366, "\u4f0a": 1762, "locations": 5269, "m2": 25525, "germans": 7074, "sean": 5977, "##ogy": 15707, "##cina": 28748, "pact": 14790, "royals": 15426, "upward": 10745, "##nd": 4859, "vertigo": 28246, "notification": 26828, "benoit": 21721, "tai": 13843, "##phy": 21281, "\u2085": 1552, "##\u0932": 29870, "dealings": 24069, "walter": 4787, "seventy": 10920, "rolls": 9372, "succumbed": 25642, "protector": 16167, "roam": 25728, "days": 2420, "theatre": 3004, "##igny": 26978, "##guchi": 16918, "1810": 11786, "feminism": 20050, "##antly": 15706, "##tream": 25379, "proficiency": 26293, "zinc": 15813, "##\u0927": 29862, "sculptures": 10801, "vacancy": 15619, "diameter": 6705, "\u4e4b": 1749, "predict": 16014, "aisles": 25442, "overwhelming": 10827, "scowl": 19981, "staunch": 26355, "bearer": 20905, "argentine": 8511, "##rons": 28212, "manuscripts": 10485, "abortion": 11324, "##xie": 16898, "thump": 21324, "similar": 2714, "childish": 24282, "mosques": 21922, "training": 2731, "##red": 5596, "##ert": 8743, "hindu": 7560, "palazzo": 18482, "practised": 20439, "likes": 7777, "acknowledge": 13399, "[unused559]": 564, "attends": 23933, "##rut": 22134, "will": 2097, "folds": 15439, "lucie": 28831, "damian": 19507, "originate": 21754, "journalist": 4988, "\u0280": 1127, "reinforce": 19444, "##quay": 25575, "##ach": 6776, "signs": 5751, "awe": 15180, "nicolas": 9473, "severely": 8949, "giggled": 15889, "##ules": 16308, "@": 1030, "crazy": 4689, "kira": 15163, "customs": 8205, "calcium": 13853, "edmonton": 10522, "pile": 8632, "pages": 5530, "trey": 14826, "gustav": 13430, "arenas": 26434, "conferences": 9281, "##itaire": 29422, "darryl": 22821, "rifle": 5883, "##eca": 19281, "bert": 14324, "huntsville": 28492, "exited": 15284, "##33": 22394, "interface": 8278, "fact": 2755, "advertisement": 15147, "ic": 24582, "##31": 21486, "florian": 29517, "athletes": 7576, "calgary": 10112, "mystery": 6547, "tract": 12859, "snail": 10879, "chili": 20238, "metals": 11970, "##\u5c07": 30354, "guitars": 7334, "shielding": 25553, "##bia": 11607, "empathy": 26452, "territories": 6500, "\u05e7": 1264, "bela": 20252, "shah": 7890, "\u4eba": 1756, "\u767a": 1914, "##ower": 25114, "halloween": 14414, "##\u00a4": 29647, "prelate": 26595, "m": 1049, "##omi": 20936, "##tera": 14621, "##ausen": 25701, "1820": 11102, "##wski": 10344, "1721": 27689, "coughed": 19055, "##hani": 23573, "radically": 25796, "bit": 2978, "##\u0584": 29786, "nippon": 19364, "calmly": 12885, "##joy": 24793, "sighs": 19906, "##wash": 28556, "##\u72ac": 30434, "walsall": 29054, "men": 2273, "wrestled": 20615, "##haw": 14238, "whisky": 21265, "##od": 7716, "shepard": 22189, "morale": 19292, "notre": 10289, "tres": 24403, "venezuela": 8326, "losses": 6409, "patel": 20455, "##\u06a9": 29841, "vampire": 4393, "ref": 25416, "bro": 22953, "listener": 19373, "bows": 21207, "carved": 7844, "ordnance": 14445, "flu": 19857, "planting": 14685, "##lander": 22691, "langley": 19094, "pledged": 16970, "ein": 16417, "translations": 11913, "[unused551]": 556, "diablo": 28841, "labs": 13625, "##\u2217": 30125, "updates": 14409, "dialed": 21300, "##belle": 25766, "prized": 25695, "sony": 8412, "adds": 9909, "africans": 18076, "proficient": 27029, "vanishing": 24866, "york": 2259, "perch": 21836, "mighty": 10478, "linked": 5799, "aviation": 5734, "##rou": 22494, "aristocracy": 22706, "antrim": 24142, "indifferent": 24436, "##\u2011": 30049, "##qing": 19784, "blanchard": 26870, "zombies": 14106, "caden": 23600, "albanians": 25267, "sporadic": 24590, "applicants": 17362, "moves": 5829, "photon": 26383, "curved": 9203, "##sse": 11393, "workshops": 9656, "##bruck": 28985, "gen": 8991, "pagoda": 27387, "##rogen": 22991, "labor": 4450, "synchronized": 25549, "##mism": 26725, "##working": 21398, "philip": 5170, "torre": 22047, "roanoke": 25899, "tully": 25724, "##ifying": 11787, "##rf": 12881, "pamphlet": 19899, "950": 20317, "carla": 17081, "havana": 15278, "constitute": 12346, "resemble": 13014, "resident": 6319, "##aceae": 18339, "widow": 7794, "sectors": 11105, "vh1": 26365, "beach": 3509, "openly": 10132, "penultimate": 25512, "000": 2199, "[unused534]": 539, "marines": 9622, "races": 3837, "study": 2817, "responsive": 26651, "[unused982]": 987, "##ags": 26454, "##ult": 11314, "\u05e3": 1260, "##stadt": 21543, "wore": 5078, "##ayton": 29319, "aus": 17151, "##ife": 29323, "##49": 26224, "mutter": 23457, "social": 2591, "nocturnal": 23789, "##ray": 9447, "whistled": 26265, "consulted": 17535, "ewing": 24023, "weston": 12755, "warmer": 16676, "chuck": 8057, "smiling": 5629, "[unused661]": 666, "yellowstone": 29231, "parked": 9083, "##\u306f": 30198, "54": 5139, "mckay": 16225, "retailers": 16629, "iaaf": 21259, "nausea": 19029, "\u06a9": 1304, "faction": 10233, "##iah": 12215, "##ield": 12891, "##bled": 23242, "##mobile": 17751, "sewing": 22746, "ceased": 7024, "sino": 19432, "[unused190]": 195, "##lized": 28931, "cynthia": 15809, "commits": 27791, "feminist": 10469, "##ptive": 24971, "once": 2320, "##san": 8791, "invitations": 29492, "vikram": 29063, "##burn": 8022, "170": 10894, "##chuk": 26516, "\u0432": 1182, "hunger": 9012, "brownish": 19437, "##mined": 25089, "scratched": 15047, "litigation": 15382, "zhou": 14367, "mallory": 20468, "##ssi": 18719, "specimens": 9908, "750": 9683, "empires": 23560, "coca": 16787, "loves": 7459, "hydroelectric": 18541, "bono": 23648, "frustrated": 10206, "bn": 24869, "asks": 5176, "earlier": 3041, "##7": 2581, "1890s": 13678, "metre": 7924, "francs": 24313, "appears": 3544, "owed": 12232, "biennale": 21140, "##lav": 14973, "blaming": 24114, "##ello": 15350, "submitted": 7864, "##\u09b8": 29912, "trace": 7637, "beaten": 7854, "bhutan": 18768, "spontaneously": 27491, "##isse": 23491, "[unused118]": 123, "[unused17]": 18, "end": 2203, "commanded": 6311, "magazine": 2932, "##kura": 28260, "\u2044": 1535, "raja": 10164, "whip": 11473, "heart": 2540, "gives": 3957, "controller": 11486, "deliver": 8116, "turkish": 5037, "[unused869]": 874, "##ition": 22753, "##\u2c7c": 30157, "petersburg": 8062, "##\u0bb0": 29927, "##cloth": 23095, "bubbling": 25054, "alan": 5070, "##eration": 16754, "vi": 6819, "1866": 7647, "sarcasm": 20954, "710": 27671, "center": 2415, "1996": 2727, "sentenced": 7331, "##tarian": 28897, "##castle": 23662, "pia": 24624, "##mac": 22911, "breadth": 25291, "where": 2073, "gettysburg": 22577, "##\u2261": 30134, "tori": 23413, "evident": 10358, "open": 2330, "##lellan": 25839, "##hyllum": 27750, "exotic": 12564, "duncan": 7343, "1809": 12861, "rum": 19379, "edged": 13011, "1801": 12410, "##\u66f2": 30396, "dd": 20315, "[unused753]": 758, "nsa": 23971, "posters": 14921, "##\u7537": 30438, "c": 1039, "subunit": 24312, "asturias": 26798, "parallels": 18588, "kota": 23856, "absorbed": 9063, "alerted": 22333, "referees": 25118, "gogh": 26603, "ain": 7110, "linguistics": 15397, "playback": 18245, "##ck": 3600, "croix": 18733, "[unused513]": 518, "english": 2394, "wrecked": 18480, "drumming": 22980, "obey": 15470, "consultants": 22283, "##\u05d7": 29794, "800": 5385, "##tile": 15286, "czechoslovak": 21282, "[unused484]": 489, "gulf": 6084, "[unused337]": 342, "##for": 29278, "explicitly": 12045, "utmost": 27917, "analytics": 25095, "secrets": 7800, "##21": 17465, "hysteria": 29004, "freaked": 22783, "note": 3602, "##\u3008": 30163, "impatience": 28011, "amour": 21518, "##far": 14971, "bryant": 12471, "[unused724]": 729, "prospects": 16746, "vibrations": 22755, "gorge": 14980, "bandage": 24446, "immortal": 12147, "roots": 6147, "rai": 15547, "reasons": 4436, "willis": 12688, "ohio": 4058, "haifa": 21303, "vogel": 27063, "curls": 14484, "savior": 24859, "karma": 19902, "##fold": 10371, "##time": 7292, "doctor": 3460, "batted": 12822, "compilations": 22754, "bo": 8945, "melvin": 20993, "##ier": 3771, "##dot": 27364, "executive": 3237, "artefacts": 25762, "trance": 16588, "##ene": 8625, "ottomans": 17774, "humiliation": 21171, "successful": 3144, "##ings": 8613, "coated": 15026, "pea": 26034, "fiancee": 19455, "emperor": 3750, "cartridge": 15110, "invalid": 19528, "##\u201c": 30058, "forest": 3224, "viable": 14874, "marie": 5032, "experiencing": 13417, "##ffs": 21807, "clash": 13249, "requirements": 5918, "upgraded": 9725, "dreaming": 12802, "##pper": 18620, "##\u8c9d": 30478, "##rella": 21835, "backing": 5150, "lionel": 14377, "elena": 9060, "##urse": 28393, "##chester": 25322, "refugee": 13141, "##\u30a4": 30221, "amusement": 9778, "applicable": 12711, "mall": 6670, "territorial": 7894, "##ille": 10484, "billion": 4551, "tna": 20108, "nationals": 10342, "[unused784]": 789, "1975": 3339, "mustafa": 19683, "[unused689]": 694, "##xton": 14226, "pontiac": 24538, "##eria": 11610, "marlborough": 22830, "lamp": 10437, "##lation": 13490, "consideration": 9584, "weird": 6881, "pods": 26723, "artists": 3324, "configurations": 22354, "##ically": 15004, "cub": 21987, "cabins": 20321, "[unused742]": 747, "##\u090f": 29850, "pinned": 11807, "southwest": 4943, "awards": 2982, "accents": 24947, "choi": 18151, "commissioned": 4837, "##mur": 20136, "obsessed": 15896, "processors": 18017, "mating": 15100, "pv": 26189, "criminals": 12290, "plan": 2933, "uncanny": 28953, "outspoken": 22430, "patriots": 11579, "invading": 17657, "##lby": 14510, "bosch": 25936, "dare": 8108, "knox": 11994, "sydney": 3994, "bassist": 9858, "hz": 22100, "emotion": 7603, "reconstructed": 14858, "ferry": 7115, "\u0574": 1229, "professional": 2658, "bai": 21790, "powerplant": 19526, "anchored": 14453, "##\u30c4": 30238, "treasurer": 10211, "##tlement": 24007, "implements": 22164, "venice": 7914, "animation": 7284, "##wad": 26016, "pork": 15960, "sugar": 5699, "issn": 23486, "palatine": 22202, "##unce": 17457, "debuts": 26740, "##arth": 22425, "thesis": 9459, "forcibly": 20951, "ka": 10556, "reassigned": 18026, "inventions": 21644, "##41": 23632, "alfonso": 13591, "\u21a6": 1588, "[unused856]": 861, "designations": 26672, "1904": 5692, "giving": 3228, "sergeant": 6722, "xp": 26726, "colombian": 13598, "staged": 9813, "instrumentalist": 29253, "status": 3570, "##gonal": 20028, "midwest": 13608, "nicola": 17388, "cooke": 16546, "camilla": 26902, "cheese": 8808, "lovely": 8403, "[unused704]": 709, "volley": 28073, "nominations": 9930, "iec": 24940, "nest": 9089, "incompatible": 25876, "##twined": 21077, "angrily": 14136, "explore": 8849, "tenure": 7470, "coloured": 11401, "##cino": 21081, "##pg": 26952, "printing": 8021, "banker": 13448, "aunt": 5916, "##rmin": 27512, "mitch": 11857, "wines": 14746, "michelangelo": 27701, "##pop": 16340, "snuggled": 26867, "journal": 3485, "prohibit": 23469, "##\u5e74": 30366, "##ze": 4371, "eh": 15501, "disciplined": 28675, "sql": 29296, "spectacular": 12656, "hampered": 22532, "jubilee": 13078, "transitions": 22166, "unsuitable": 25622, "brazil": 4380, "##\u6210": 30380, "ely": 20779, "copy": 6100, "84": 6391, "##ding": 4667, "\u30e7": 1730, "rene": 10731, "renewed": 9100, "loading": 10578, "posing": 20540, "glowed": 16497, "plant": 3269, "2006": 2294, "tasks": 8518, "greatest": 4602, "[unused352]": 357, "\u1166": 1473, "tilting": 21788, "stampede": 29375, "276": 25113, "zhu": 15503, "1913": 5124, "##rus": 7946, "patrick": 4754, "satellite": 5871, "##fixed": 23901, "##kot": 23342, "congregations": 16850, "1642": 24061, "##do": 3527, "residing": 7154, "fractured": 21726, "hazy": 26710, "##dman": 21804, "axle": 17290, "ndp": 21915, "dragoons": 28069, "blurted": 18751, "alternating": 15122, "boardwalk": 29496, "colombo": 16224, "nyc": 16392, "reflections": 16055, "namibia": 15408, "[unused938]": 943, "peace": 3521, "##erland": 22492, "yelling": 13175, "##cion": 10446, "cheltenham": 18763, "atmospheric": 12483, "sane": 22856, "111": 11118, "support": 2490, "##neas": 26737, "relegation": 9591, "deliveries": 23534, "excavation": 16456, "[unused975]": 980, "ezra": 16245, "textures": 29343, "hana": 26048, "snatched": 14177, "58": 5388, "224": 19711, "evolved": 7964, "johnnie": 27716, "##sions": 27466, "[unused506]": 511, "proposed": 3818, "coral": 11034, "disadvantaged": 27322, "##sive": 12742, "[unused752]": 757, "\u05df": 1256, "tun": 27112, "foul": 12487, "manuel": 7762, "philanthropic": 25321, "1993": 2857, "1992": 2826, "vodka": 21092, "##illo": 10486, "fragile": 13072, "ultra": 11087, "mesh": 20437, "encouraging": 11434, "\u76ee": 1918, "charred": 29030, "expedition": 5590, "##\u0281": 29694, "wasps": 23146, "mongolian": 17855, "350": 8698, "magna": 20201, "kant": 26044, "aisle": 12485, "bros": 10243, "catholicism": 16138, "##fighter": 20027, "##overs": 24302, "covers": 4472, "staple": 18785, "##tablished": 28146, "safer": 13726, "##rdi": 17080, "dragon": 5202, "[unused924]": 929, "intercourse": 23198, "evaluated": 16330, "lass": 27333, "who": 2040, "pri": 26927, "jed": 24401, "associates": 9228, "leads": 5260, "leith": 29011, "fl": 13109, "bennett": 8076, "advocacy": 12288, "mutually": 20271, "pursuit": 8463, "likelihood": 16593, "hiroshima": 20168, "eager": 9461, "encounters": 11340, "psychologist": 15034, "[unused362]": 367, "##n": 2078, "connection": 4434, "lowry": 27281, "kia": 27005, "\u30ed": 1735, "commit": 10797, "synthesizer": 13564, "##hima": 16369, "technically": 10892, "fulfilled": 16829, "proteins": 8171, "whistle": 13300, "bot": 28516, "1762": 20827, "friend": 2767, "mouse": 8000, "epstein": 26646, "eel": 24315, "##\u1103": 29993, "naga": 26539, "##rvis": 29074, "##trick": 22881, "1822": 12307, "1872": 7572, "\u02b0": 1140, "grey": 4462, "approaches": 8107, "danced": 10948, "arte": 16185, "extinct": 8548, "graduation": 7665, "yep": 15624, "gustavo": 24801, "nurses": 11500, "celestial": 17617, "fingers": 3093, "yorker": 19095, "electronics": 8139, "rhone": 22351, "burying": 20491, "md": 9108, "everyone": 3071, "declares": 18806, "airing": 10499, "##rga": 28921, "tally": 19552, "##fication": 10803, "establishes": 21009, "mock": 12934, "##krishna": 23017, "braking": 24427, "difference": 4489, "match": 2674, "step": 3357, "desires": 14714, "freshwater": 12573, "##jali": 28948, "bar": 3347, "sorority": 27600, "##uso": 26658, "rigged": 25216, "amsterdam": 7598, "##\u27e8": 30155, "measuring": 9854, "##\u057a": 29780, "prisons": 15996, "voltage": 10004, "##han": 4819, "salman": 28542, "##vington": 21827, "\u307b": 1676, "\u062e": 1277, "ciudad": 20759, "dyke": 22212, "cooper": 6201, "leaking": 24325, "##wen": 12449, "aggregator": 24089, "##chon": 24561, "packs": 15173, "faculty": 4513, "##opped": 27288, "royalties": 25335, "boards": 7923, "whether": 3251, "hague": 14575, "[CLS]": 101, "outs": 21100, "seventh": 5066, "encompassed": 24058, "diaspora": 18239, "aeronautical": 25010, "folklore": 13104, "meditation": 13804, "house": 2160, "squeezed": 7757, "corrupted": 27279, "replay": 15712, "breast": 7388, "##\u2021": 30062, "declaration": 8170, "indicator": 17245, "scanning": 13722, "##hang": 18003, "tombs": 16623, "##wai": 21547, "judd": 20128, "improves": 24840, "indicates": 7127, "calvin": 11130, "entries": 10445, "nominated": 4222, "horse": 3586, "yvonne": 21684, "murdoch": 19954, "grassland": 20331, "##makers": 12088, "uh": 7910, "metaphysical": 29081, "##zione": 20574, "nedra": 28240, "severity": 18976, "##iring": 24771, "wider": 7289, "lighted": 26390, "korean": 4759, "taxonomic": 27691, "##uting": 20807, "enlist": 28845, "monty": 18446, "councillor": 10674, "assisting": 13951, "sock": 28407, "officer": 2961, "217": 20335, "deeper": 6748, "grinning": 11478, "[unused398]": 403, "fundraiser": 28536, "\u09b8": 1376, "mature": 9677, "anthologies": 25675, "byrd": 17845, "mfa": 26913, "##tsa": 27110, "ash": 6683, "[unused183]": 188, "[unused259]": 264, "nathan": 7150, "vicente": 17280, "inscribed": 14551, "heartland": 27399, "flew": 5520, "##nson": 15551, "february": 2337, "bread": 7852, "##insky": 20894, "traitor": 17328, "newfoundland": 11944, "fame": 4476, "\u10e2": 1453, "jurassic": 19996, "joao": 16304, "##\u043e\u0432": 19259, "location": 3295, "galveston": 26630, "sustaining": 22663, "thug": 26599, "##ructured": 26134, "stop": 2644, "terribly": 16668, "knicks": 27817, "\u1da0": 1512, "##hri": 26378, "inserted": 12889, "asphalt": 16295, "canonical": 18562, "266": 25162, "##bad": 9024, "##aldo": 27318, "motorcycle": 9055, "##anne": 20147, "skirts": 18184, "than": 2084, "##eding": 17819, "assign": 23911, "##uth": 14317, "physician": 7522, "navigator": 20532, "diagonal": 19754, "discipline": 9009, "monetary": 12194, "\u00a3100": 27708, "neal": 11030, "sounded": 5015, "csa": 27804, "soda": 14904, "start": 2707, "uci": 14504, "copenhagen": 9664, "citations": 22921, "jewish": 3644, "mundo": 25989, "dartmouth": 16960, "darting": 24567, "agree": 5993, "humid": 14178, "1783": 15331, "technical": 4087, "play": 2377, "hillary": 18520, "boo": 22017, "toss": 10055, "jewellery": 21545, "[unused447]": 452, "sparhawk": 13709, "vested": 26003, "lagos": 16738, "young": 2402, "specialised": 17009, "discharged": 14374, "happen": 4148, "sixth": 4369, "1689": 22685, "[unused297]": 302, "roadside": 25131, "straightforward": 19647, "gilmore": 22999, "coins": 7824, "arsenic": 29596, "scrambling": 25240, "misunderstood": 28947, "[unused839]": 844, "eaten": 8828, "everybody": 7955, "languages": 4155, "knew": 2354, "##lism": 28235, "robyn": 28047, "1955": 3982, "brief": 4766, "danielle": 18490, "##vent": 15338, "loren": 28779, "[unused521]": 526, "##ryn": 18143, "icons": 18407, "fujian": 29551, "\u30e9": 1731, "##tics": 14606, "##ve": 3726, "clarissa": 25260, "pasta": 24857, "according": 2429, "rattle": 23114, "liv": 22135, "landscaping": 28404, "##otho": 29288, "musicians": 5389, "mumbai": 8955, "lazy": 13971, "readers": 8141, "keating": 25865, "##dation": 20207, "introduction": 4955, "fishes": 21995, "##nished": 28357, "federico": 20493, "highlighted": 11548, "zenith": 28672, "cadets": 15724, "master": 3040, "incoming": 14932, "infamous": 14429, "rollins": 23502, "[unused391]": 396, "##ches": 8376, "\u093e": 1340, "narayan": 24331, "##\u05dd": 29800, "declare": 13520, "##tila": 26065, "kepler": 28219, "furnishings": 23127, "lesson": 10800, "scholars": 5784, "releasing": 8287, "maker": 9338, "designation": 8259, "items": 5167, "conditional": 18462, "le": 3393, "toyota": 11742, "experience": 3325, "blade": 6085, "\u201a": 1522, "244": 24194, "jacques": 7445, "##sur": 26210, "communes": 16569, "##\u9580": 30494, "ringo": 25589, "butterfly": 9112, "renewal": 14524, "leah": 14188, "##ety": 27405, "##\u10d5": 29979, "interrupted": 7153, "telangana": 23764, "##hel": 16001, "tehran": 13503, "loop": 7077, "stopping": 7458, "[unused535]": 540, "brest": 22451, "\u5149": 1770, "##ook": 14659, "3000": 11910, "germany": 2762, "chang": 11132, "electrification": 23679, "tombstone": 26671, "mohammed": 12619, "##rder": 26764, "ramp": 13276, "peaceful": 9379, "exception": 6453, "rooms": 4734, "catastrophic": 23546, "columbian": 25882, "augmented": 19335, "surveying": 19654, "[unused267]": 272, "tak": 27006, "##ggle": 24679, "lobe": 21833, "cosmos": 21182, "indefinitely": 20733, "extending": 8402, "fleeing": 14070, "galilee": 28928, "1764": 21488, "supplies": 6067, "performs": 10438, "pilgrim": 21214, "kenton": 25446, "turnpike": 17116, "yesterday": 7483, "nuclei": 23767, "organisms": 11767, "[unused873]": 878, "##rne": 12119, "take": 2202, "antarctic": 10227, "suppressed": 13712, "ira": 11209, "\u0441": 1196, "strauss": 16423, "##my": 8029, "tangled": 14170, "claudius": 25017, "rightful": 27167, "selector": 27000, "sweetness": 23210, "lazarus": 23623, "##sum": 17421, "bavaria": 11606, "clips": 15281, "ruins": 8435, "representative": 4387, "toulouse": 17209, "cousin": 5542, "[unused729]": 734, "copying": 24731, "[unused605]": 610, "strasbourg": 18104, "##avs": 29553, "##hic": 16066, "##ira": 7895, "##\u5b87": 30345, "frost": 10097, "emblem": 16199, "\u5206": 1775, "##ndon": 19333, "silvia": 27827, "thou": 15223, "martian": 20795, "\u207f": 1546, "interpreter": 19555, "shattering": 21797, "regression": 26237, "##ister": 12911, "##ctic": 13306, "1742": 25704, "wax": 13844, "purchased": 4156, "pan": 6090, "[unused164]": 169, "salim": 27490, "peeling": 28241, "tributaries": 15777, "cock": 10338, "leaned": 4016, "\u1d57": 1505, "whimper": 28544, "rankin": 25772, "scotia": 9676, "shale": 18488, "delighted": 15936, "upon": 2588, "marble": 7720, "##ania": 13241, "rounds": 6241, "[unused348]": 353, "injunction": 22928, "##us": 2271, "##sling": 28886, "##pala": 19636, "barangay": 20937, "conversion": 7584, "murderous": 25303, "belize": 18867, "steamship": 23869, "jordanian": 26276, "bray": 19743, "provoked": 19157, "infused": 29592, "agent": 4005, "##\u30cb": 30242, "nepali": 23418, "via": 3081, "interfering": 24324, "children": 2336, "cottage": 9151, "tilted": 9939, "desktop": 15363, "streaming": 11058, "##adt": 18727, "##rwood": 20941, "[unused234]": 239, "##au": 4887, "##shaft": 25679, "[unused422]": 427, "259": 25191, "\u09ad": 1369, "faso": 22773, "goin": 17249, "rendition": 19187, "##ora": 6525, "greek": 3306, "##scu": 28817, "\u5bb6": 1825, "settles": 27221, "werewolves": 18306, "##dge": 11818, "charged": 5338, "\u4e0b": 1743, "baylor": 23950, "daphne": 16847, "##eur": 11236, "blunt": 14969, "measured": 7594, "ellen": 9155, "##scribe": 29234, "bethel": 19375, "lure": 17256, "subdivided": 15369, "mace": 19382, "plots": 14811, "enthusiasm": 12024, "katharine": 25739, "demonstration": 10467, "reveals": 7657, "3a": 23842, "strapped": 18019, "dirty": 6530, "##\u967d": 30499, "[unused137]": 142, "chatting": 22331, "##cini": 27085, "clarinet": 12089, "researchers": 6950, "slept": 7771, "annum": 28907, "##ut": 4904, "\u706b": 1906, "trap": 8132, "whereas": 6168, "##ors": 5668, "\u3059": 1658, "##eto": 18903, "guts": 18453, "jets": 9924, "maps": 7341, "appropriate": 6413, "creole": 21414, "indianapolis": 9506, "highways": 10292, "asleep": 6680, "##sight": 25807, "##para": 28689, "immediate": 6234, "thicker": 19638, "[unused29]": 30, "##pati": 24952, "##eti": 20624, "prem": 26563, "turnout": 15512, "##\u677e": 30406, "[unused76]": 77, "quilt": 27565, "comments": 7928, "tod": 28681, "vengeance": 14096, "chao": 22455, "##mide": 24284, "##lag": 17802, "[unused718]": 723, "##avi": 18891, "hunts": 28526, "midst": 12930, "[unused48]": 49, "##rral": 24988, "rustling": 29188, "\u02e4": 1154, "shoot": 5607, "##dron": 19440, "vowels": 15260, "##ridge": 9438, "##\u25cf": 30146, "irritation": 17373, "spent": 2985, "[unused280]": 285, "[unused159]": 164, "bernard": 6795, "proponent": 22488, "yuan": 11237, "nineteenth": 9137, "aware": 5204, "##mori": 24610, "augustus": 11668, "patterned": 25336, "train": 3345, "joaquin": 16877, "##13": 17134, "##he": 5369, "elk": 18995, "harmed": 25596, "##hill": 7100, "[unused85]": 86, "zion": 19999, "renamed": 4096, "novak": 19580, "newtown": 26382, "dogg": 28844, "##iel": 9257, "requiring": 9034, "attaining": 26615, "lately": 9906, "##amps": 25167, "paranormal": 20725, "##press": 20110, "championship": 2528, "##americana": 27026, "restrictive": 25986, "kyrgyzstan": 23209, "##oy": 6977, "load": 7170, "whites": 12461, "feelings": 5346, "[unused948]": 953, "\u2075": 1539, "\u00a35": 27813, "businessman": 6883, "##ra": 2527, "embroidered": 23590, "##vin": 6371, "rodriguez": 9172, "guernsey": 24640, "rock": 2600, "sonny": 13584, "grinned": 6973, "audiences": 9501, "mathews": 23287, "##ennial": 22929, "sprawling": 24199, "xml": 20950, "lining": 14834, "\u09a8": 1366, "##tz": 5753, "fin": 10346, "outraged": 23558, "ebook": 26885, "ib": 21307, "thru": 27046, "palace": 4186, "##\u043e": 14150, "1796": 13885, "wife": 2564, "shillings": 29332, "sitting": 3564, "den": 7939, "paint": 6773, "\u91d1": 1964, "##bir": 17706, "denny": 14465, "[unused266]": 271, "glare": 10982, "mika": 27857, "leave": 2681, "josiah": 24461, "primetime": 18474, "##eral": 21673, "voter": 14303, "reappeared": 23040, "aims": 8704, "venezuelan": 15332, "##illy": 20577, "anglia": 24217, "12": 2260, "structural": 8332, "outlaws": 23107, "victory": 3377, "assaulted": 17536, "imposing": 16625, "[unused108]": 113, "sensual": 18753, "durga": 28746, "washington": 2899, "montrose": 24990, "hawaiian": 12188, "##gnon": 26977, "[unused150]": 155, "sequence": 5537, "1727": 25350, "tying": 15233, "footballers": 27784, "repaired": 13671, "initial": 3988, "yoo": 26823, "##ilis": 24411, "peering": 16740, "punjab": 9213, "##eth": 11031, "chaos": 8488, "nee": 7663, "anonymous": 10812, "enterprise": 6960, "spiritual": 6259, "irresistible": 27149, "economically": 15318, "britain": 3725, "attitude": 7729, "##rians": 23543, "indicate": 5769, "operating": 4082, "blanco": 20036, "scandinavian": 17660, "greed": 22040, "streetcar": 21420, "meek": 28997, "unseen": 16100, "##tsk": 29064, "brennan": 13962, "greyish": 26916, "insult": 15301, "##lit": 15909, "##phobia": 24920, "\u2070": 1536, "1744": 25846, "##woods": 25046, "combination": 5257, "ensued": 18942, "munster": 11348, "cost": 3465, "auditioned": 23008, "mold": 18282, "published": 2405, "convinced": 6427, "frightening": 17115, "you": 2017, "enrichment": 27226, "##efe": 27235, "controls": 7711, "##\u961d": 30496, "##kovic": 14733, "1839": 10011, "art": 2396, "luis": 6446, "##\u4ec1": 30284, "piloted": 27220, "refuge": 9277, "criticised": 10648, "variance": 23284, "containment": 29174, "chalmers": 29069, "equator": 26640, "[unused656]": 661, "nicholson": 16955, "enclosure": 17539, "blanket": 8768, "nobleman": 18487, "tate": 9902, "hers": 5106, "countless": 14518, "##thed": 23816, "chapels": 24130, "investigating": 11538, "\u897f": 1947, "airs": 14369, "##berries": 20968, "iihf": 26904, "##gall": 22263, "battlefield": 11686, "cheng": 15898, "\u535a": 1786, "depends": 9041, "politically": 10317, "reasoned": 24557, "\u027e": 1126, "devin": 23601, "adjoining": 13562, "fused": 19660, "##quette": 29416, "overthrow": 16857, "##arns": 23549, "chavez": 16860, "skyla": 21738, "##edd": 22367, "racing": 3868, "patrols": 14703, "entirely": 4498, "govt": 22410, "longer": 2936, "president": 2343, "##\u3078": 30201, "sculpture": 6743, "editorial": 8368, "cum": 13988, "[unused461]": 466, "maine": 7081, "handicap": 15822, "##fire": 10273, "##neo": 23585, "pupil": 11136, "inclusion": 10502, "gliding": 20292, "rifles": 9494, "planes": 9738, "contemplating": 25247, "##ucible": 21104, "bosses": 23029, "proud": 7098, "##cede": 22119, "##\u2079": 30078, "pressures": 15399, "obsidian": 29042, "somethin": 27941, "madden": 24890, "grid": 8370, "last": 2197, "recent": 3522, "tons": 6197, "dubois": 26258, "conflicts": 9755, "##tp": 25856, "##\u308b": 30213, "breton": 16659, "substrate": 16305, "##wk": 26291, "polite": 13205, "derived": 5173, "##neer": 19755, "unexpected": 9223, "altering": 22552, "animator": 25132, "##ckey": 29183, "francois": 8173, "knit": 22404, "retreat": 7822, "skeptical": 18386, "520": 19611, "wilder": 18463, "scraped": 20378, "jase": 18626, "##drop": 25711, "maturity": 16736, "##chemical": 15869, "them": 2068, "comprehension": 26683, "posse": 25751, "complications": 12763, "incorporating": 13543, "originals": 23728, "bids": 20723, "emmanuel": 14459, "exiled": 14146, "hires": 28208, "skaters": 24789, "[unused240]": 245, "\u20b1": 1575, "swap": 19948, "schooner": 21567, "##inates": 28184, "nominate": 23388, "specials": 19247, "winked": 14217, "repairs": 10315, "\u2083": 1550, "missions": 6416, "##hre": 28362, "##nl": 20554, "hui": 17504, "lin": 11409, "\u4fe1": 1767, "anterior": 15099, "slams": 25967, "gentry": 20262, "paso": 17161, "fowler": 14990, "knighted": 19572, "mornings": 16956, "cyprus": 9719, "urine": 17996, "juniper": 29425, "##ated": 4383, "##rford": 26430, "multiplayer": 17762, "acts": 4490, "cab": 9298, "[unused219]": 224, "##cier": 19562, "\u5065": 1768, "walden": 24834, "319": 26499, "proved": 4928, "doi": 9193, "dissipated": 22572, "##combe": 14149, "c2": 29248, "##\u3051": 30180, "headlines": 19377, "selective": 13228, "dormitory": 21538, "client": 7396, "influence": 3747, "##lian": 15204, "ike": 25209, "empty": 4064, "quantum": 8559, "222": 19015, "261": 24441, "[unused966]": 971, "bored": 11471, "punch": 8595, "ismail": 19214, "showing": 4760, "quarrel": 26260, "tutor": 14924, "##\u03b8": 29725, "greeks": 13176, "completed": 2949, "andes": 18096, "screen": 3898, "experimenting": 23781, "1745": 21809, "##icient": 20132, "##zy": 9096, "\u7687": 1917, "##dun": 27584, "insulted": 23637, "brake": 13428, "unmarried": 17204, "kilkenny": 17131, "sox": 9175, "hike": 21857, "atkinson": 18646, "ridden": 15230, "stumbling": 19730, "ventura": 21151, "arguing": 9177, "woodlands": 19268, "donald": 6221, "##hered": 27190, "carrier": 6839, "clergyman": 22232, "patriotic": 14314, "menacing": 24060, "trainer": 10365, "afternoon": 5027, "humming": 20364, "[unused956]": 961, "tradition": 4535, "##lous": 15534, "early": 2220, "monterrey": 26843, "disappointed": 9364, "##quest": 15500, "verve": 29230, "advisors": 18934, "parkinson": 20310, "tribes": 6946, "applied": 4162, "##\u03c6": 29736, "##\u6797": 30407, "maharaja": 21609, "phd": 8065, "heel": 12073, "\u1d64": 1509, "let": 2292, "[unused698]": 703, "par": 11968, "performing": 4488, "\u672c": 1876, "intimidated": 28028, "patting": 26085, "reset": 25141, "rosemary": 18040, "tracked": 12808, "swear": 8415, "cisco": 26408, "ezio": 23043, "captain": 2952, "ranking": 5464, "bright": 4408, "ascension": 18071, "##\u1105": 29994, "##evsky": 27015, "anzac": 29224, "assessed": 14155, "organist": 16397, "counted": 8897, "journalism": 8083, "upstate": 29530, "serum": 20194, "hussain": 20093, "enhance": 11598, "arcs": 29137, "wants": 4122, "islam": 7025, "yawned": 27626, "##tler": 25091, "turquoise": 28653, "sikh": 17246, "clan": 6338, "recognizes": 14600, "[unused28]": 29, "annoyed": 11654, "tended": 11121, "chosen": 4217, "37th": 23027, "fault": 6346, "\u0562": 1220, "frantic": 15762, "aggressively": 24663, "bentley": 15988, "administratively": 23710, "providers": 11670, "strikers": 26049, "peeking": 28222, "charm": 11084, "1863": 6899, "snack": 19782, "2004": 2432, "##ye": 6672, "holloway": 20977, "marshal": 8610, "##ser": 8043, "##fires": 26332, "skirt": 9764, "positioning": 19120, "rotting": 22005, "shards": 23327, "fallout": 23902, "comrade": 27661, "##cao": 20808, "rapidly": 5901, "tunic": 23002, "##cen": 27524, "christmas": 4234, "##yo": 7677, "penetration": 20015, "##\u0263": 29683, "piazza": 22463, "##ra\u00dfe": 27807, "mclaughlin": 23720, "joining": 5241, "tingle": 25792, "recommend": 16755, "\u0e40": 1423, "hudson": 6842, "##titles": 27430, "##pal": 12952, "harder": 6211, "##\u5f8c": 30372, "damn": 4365, "willard": 19138, "##\u00df": 19310, "crunch": 24514, "montenegro": 13018, "broadband": 19595, "psyche": 25774, "girls": 3057, "116": 12904, "puck": 22900, "##stick": 21354, "skinny": 15629, "1611": 28769, "anson": 25435, "evidently": 15329, "pines": 17527, "hines": 25445, "##cene": 17968, "##cock": 13959, "##ulsive": 23004, "employees": 5126, "staring": 4582, "##\u9673": 30498, "michigan": 4174, "tuscany": 23322, "whirled": 17097, "availability": 11343, "eco": 17338, "\u3092": 1690, "deck": 5877, "cows": 17188, "complexes": 15420, "distracted": 11116, "seeks": 11014, "##iate": 13143, "##rant": 17884, "metaphor": 19240, "overshadowed": 28604, "burke": 9894, "buick": 28865, "##\u0578": 29779, "electorate": 13694, "paintings": 5265, "[unused695]": 700, "\u0448": 1203, "malawi": 18137, "##\u5e78": 30367, "productions": 5453, "tis": 22320, "course": 2607, "[unused361]": 366, "miami": 5631, "dreadful": 21794, "firearms": 13780, "##nge": 15465, "bash": 24234, "winding": 12788, "prohibition": 13574, "flourished": 17893, "##ination": 12758, "##by": 3762, "angered": 18748, "stairwell": 22109, "cary": 20533, "interview": 4357, "maybe": 2672, "accountants": 29114, "akbar": 20730, "1697": 28690, "horns": 11569, "seville": 18983, "ranks": 6938, "hanged": 17818, "parachute": 13561, "found": 2179, "clement": 12223, "##\u05d8": 29795, "level": 2504, "wwf": 16779, "crafted": 19275, "coordinated": 14206, "improving": 9229, "artery": 16749, "handgun": 28497, "18": 2324, "nonfiction": 25753, "revue": 17480, "\u300b": 1640, "##ures": 14900, "nationalities": 24904, "scars": 13521, "version": 2544, "##tour": 21163, "##ras": 8180, "layne": 22452, "ethnicity": 18240, "becky": 14407, "settlements": 7617, "see": 2156, "urges": 23876, "eclipse": 13232, "mcc": 23680, "thriller": 10874, "qatar": 12577, "incident": 5043, "43": 4724, "jess": 12245, "\u30db": 1722, "\u5b50": 1816, "##\u0f58": 29968, "venerable": 24541, "dodd": 21258, "##hat": 12707, "aggregate": 9572, "[unused889]": 894, "precinct": 18761, "objected": 15959, "investments": 10518, "hamlet": 8429, "51": 4868, "galicia": 19017, "discussions": 10287, "##\u20a4": 30100, "exile": 8340, "anti": 3424, "place": 2173, "##ulent": 27581, "potomac": 18854, "gods": 5932, "aquarium": 18257, "communists": 13009, "##wl": 13668, "\u0639": 1288, "##\u0458": 29761, "218": 20741, "##cus": 7874, "saint": 3002, "patton": 18090, "##ific": 18513, "phases": 12335, "stalking": 20070, "landscape": 5957, "lest": 26693, "unofficially": 29322, "##\u062c": 29819, "##lz": 23858, "scope": 9531, "amendments": 16051, "9th": 6280, "##uch": 10875, "##ume": 17897, "##lights": 15733, "collapse": 7859, "verandah": 26153, "##him": 14341, "colt": 9110, "##shaw": 17980, "operations": 3136, "phosphate": 17344, "##x": 2595, "[unused393]": 398, "howard": 4922, "peripheral": 15965, "##le": 2571, "kazan": 22001, "evangelist": 24036, "detailing": 17555, "##ssee": 29522, "mel": 11463, "nomadic": 21702, "##sky": 5874, "recited": 24843, "wounds": 8710, "washing": 12699, "##lch": 29358, "question": 3160, "bingham": 24579, "exploit": 18077, "interned": 26345, "cartwright": 27513, "armored": 10612, "estonia": 10692, "##tsky": 26824, "karate": 16894, "##\"": 29613, "\u207b": 1545, "angel": 4850, "rehearsals": 24760, "mcqueen": 29265, "\u30ca": 1715, "brodie": 27379, "##class": 26266, "gretchen": 21625, "refining": 28596, "##dies": 18389, "barking": 19372, "roosevelt": 8573, "diocese": 5801, "duly": 25073, "199": 20713, "constantinople": 11776, "##hp": 22269, "##rial": 14482, "##vd": 16872, "alumnus": 19678, "bala": 21451, "assumption": 11213, "taiwanese": 16539, "telling": 4129, "##aea": 21996, "##ovich": 12303, "homicide": 18268, "glance": 6054, "commercials": 12698, "wide": 2898, "##\u0921": 29857, "traditions": 7443, "team": 2136, "consecrated": 12299, "chaired": 12282, "##dgets": 28682, "credentials": 22496, "simple": 3722, "busiest": 20530, "182": 17691, "introductory": 23889, "dominion": 13738, "founding": 4889, "cries": 12842, "##lang": 25023, "\u10e3": 1454, "fielder": 25000, "ole": 15589, "finn": 9303, "mick": 10872, "##naut": 24619, "dwelling": 13160, "plump": 26731, "putin": 22072, "blushed": 19370, "headlights": 18167, "rumble": 15658, "proto": 15053, "[unused668]": 673, "3d": 7605, "motorola": 29583, "cooked": 12984, "sms": 22434, "bp": 17531, "hero": 5394, "swell": 18370, "packard": 24100, "[unused882]": 887, "trooper": 28224, "##ii": 6137, "debate": 5981, "tributary": 8914, "az": 17207, "##\u99ac": 30506, "footage": 8333, "paraguay": 13884, "tip": 5955, "snatch": 23365, "waters": 5380, "##\u3081": 30206, "##\u7cf9": 30460, "grips": 24758, "hop": 6154, "indicators": 20390, "pablo": 11623, "blog": 9927, "##hd": 14945, "separation": 8745, "kissing": 7618, "structure": 3252, "[unused819]": 824, "##hc": 16257, ">": 1028, "ledge": 18283, "sidewalks": 28386, "##ida": 8524, "displacement": 13508, "alexandre": 16971, "beth": 7014, "borg": 28709, "\u09b6": 1374, "rising": 4803, "hotspur": 25985, "nagar": 16395, "marcos": 14810, "informal": 11900, "accessed": 11570, "read": 3191, "##hetic": 20086, "houghton": 21234, "santiago": 8728, "impressive": 8052, "mexico": 3290, "dowager": 20508, "[unused27]": 28, "undead": 17315, "salle": 18005, "spores": 23763, "schedules": 20283, "mount": 4057, "##av": 11431, "spot": 3962, "replicate": 28024, "friday": 5958, "chamber": 4574, "##vier": 14356, "particular": 3327, "quan": 24110, "ba": 8670, "doctors": 7435, "jug": 26536, "2009": 2268, "van": 3158, "paperback": 13611, "\u0e15": 1411, "prairie": 10996, "thermal": 9829, "follows": 4076, "died": 2351, "[unused529]": 534, "mitochondrial": 23079, "##\u4eee": 30287, "spoke": 3764, "molly": 9618, "mane": 23055, "##shin": 17426, "funding": 4804, "ambiguity": 27637, "shoulders": 4065, "regulation": 7816, "insulin": 22597, "\u1109": 1461, "nancy": 7912, "overwhelmingly": 24783, "metabolic": 21453, "vie": 20098, "maze": 15079, "egan": 27889, "##\u9752": 30501, "##\u68ee": 30408, "capita": 8353, "emissions": 11768, "1784": 16496, "berger": 16758, "saga": 12312, "equatorial": 21333, "transmitters": 26288, "weathered": 28445, "willem": 18811, "exodus": 16388, "\u092c": 1329, "desired": 9059, "reissue": 17173, "##it": 4183, "##ials": 26340, "cornered": 25878, "decisions": 6567, "stamp": 11359, "435": 24125, "1963": 3699, "caught": 3236, "[unused298]": 303, "\u30fc": 1739, "\u90e1": 1959, "28th": 15538, "\u0440": 1195, "regardless": 7539, "##mbre": 19908, "lenin": 17497, "##ization": 3989, "##rrie": 22155, "propaganda": 10398, "bridge": 2958, "accidentally": 9554, "adele": 17623, "arrangement": 6512, "200": 3263, "observes": 24451, "guilty": 5905, "elbows": 13690, "hardship": 26479, "volcano": 12779, "patty": 17798, "[unused542]": 547, "##itic": 18291, "lad": 14804, "1830s": 20400, "presently": 12825, "\u09a1": 1360, "diplomatic": 8041, "##tica": 22723, "expeditionary": 15372, "fatima": 27596, "bag": 4524, "##use": 8557, "mirror": 5259, "shaded": 25273, "garnered": 13056, "chicks": 20649, "gruff": 27038, "mascara": 27700, "##nesian": 20281, "bathing": 17573, "supervisor": 12366, "227": 21489, "cardboard": 19747, "explodes": 27583, "ecole": 12431, "monique": 26194, "##ergy": 24395, "descriptions": 13271, "##57": 28311, "##nage": 27031, "##~": 29643, "##ple": 10814, "proving": 13946, "broncos": 14169, "##ette": 7585, "rana": 22175, "regaining": 28657, "connector": 19400, "copa": 10613, "[unused963]": 968, "achieved": 4719, "mechanized": 23387, "currency": 9598, "expenditure": 20700, "marvin": 13748, "1715": 22606, "singer": 3220, "sinn": 26403, "sloping": 24724, "hooker": 17074, "symmetric": 19490, "congressman": 12295, "##nna": 9516, "268": 25143, "expressing": 14026, "symmetry": 14991, "brigadier": 9900, "locked": 5299, "##orne": 23846, "truss": 24224, "gestures": 18327, "fueled": 17999, "promotion": 4712, "demolished": 7002, "increasingly": 6233, "aided": 11553, "<": 1026, "thirsty": 24907, "hunter": 4477, "chain": 4677, "forum": 7057, "lauren": 10294, "267": 25491, "parody": 12354, "bloomfield": 25584, "seneca": 21224, "gift": 5592, "confronting": 26964, "[unused433]": 438, "tell": 2425, "lying": 4688, "marche": 28791, "##rk": 8024, "\uff01": 1986, "ritchie": 20404, "cremated": 28376, "bronx": 14487, "different": 2367, "##\u1172": 30016, "about": 2055, "boredom": 29556, "##lwyn": 29287, "yank": 23178, "saber": 25653, "[unused257]": 262, "##lean": 20898, "appetite": 18923, "[unused97]": 98, "##gold": 21270, "##cytes": 27321, "[unused690]": 695, "east": 2264, "##ota": 17287, "furry": 28662, "##\u52a0": 30305, "divert": 27345, "angelina": 23847, "overtook": 28920, "enrollment": 10316, "revelation": 11449, "mccarthy": 12584, "\u2033": 1532, "mothers": 10756, "##kawa": 13069, "regent": 11315, "writings": 7896, "##aki": 8978, "##nad": 25389, "slower": 12430, "delight": 12208, "[unused36]": 37, "##\u0289": 29697, "customers": 6304, "friendship": 6860, "cavern": 16679, "bratislava": 22992, "norse": 15342, "stafford": 15064, "creeping": 18266, "rings": 7635, "endless": 10866, "\u026c": 1121, "##andra": 29159, "layla": 19786, "[unused408]": 413, "##wled": 28365, "wallace": 7825, "##ingen": 15542, "voluntarily": 17912, "vegetables": 11546, "tae": 22297, "tighten": 21245, "kenny": 8888, "shrimp": 20130, "##sser": 18116, "micah": 17665, "beheaded": 28923, "trans": 9099, "phenomena": 13352, "##pone": 29513, "thorne": 14296, "spd": 23772, "executives": 12706, "romero": 18290, "beginning": 2927, "mythology": 11327, "sixteenth": 14683, "smoke": 5610, "linden": 22066, "##hood": 9021, "##bry": 25731, "##\u1102": 29992, "anglican": 9437, "\u03c8": 1178, "their": 2037, "warrington": 23051, "anxiously": 23403, "specify": 20648, "##bank": 9299, "measurements": 11702, "evicted": 25777, "campbell": 6063, "gap": 6578, "clients": 7846, "solos": 24339, "##oza": 25036, "##re": 2890, "gesture": 9218, "##cellular": 16882, "helena": 10269, "irritated": 15560, "55": 4583, "arrays": 27448, "dressing": 11225, "##eded": 19082, "uhf": 20131, "motorcycles": 18580, "nobles": 13969, "careful": 6176, "[unused908]": 913, "hays": 29051, "commentaries": 21241, "design": 2640, "##yra": 19563, "settler": 18556, "mechanics": 9760, "##tails": 22081, "440": 17422, "legends": 9489, "high": 2152, "##\u05e5": 29808, "\u9f8d": 1982, "royalist": 20796,
[...]
